{
  "version": "1.0",
  "truncation": null,
  "padding": null,
  "added_tokens": [
    {
      "id": 0,
      "content": "[UNK]",
      "single_word": false,
      "lstrip": false,
      "rstrip": false,
      "normalized": false,
      "special": true
    },
    {
      "id": 1,
      "content": "[PAD]",
      "single_word": false,
      "lstrip": false,
      "rstrip": false,
      "normalized": false,
      "special": true
    },
    {
      "id": 2,
      "content": "[SOS]",
      "single_word": false,
      "lstrip": false,
      "rstrip": false,
      "normalized": false,
      "special": true
    },
    {
      "id": 3,
      "content": "[EOS]",
      "single_word": false,
      "lstrip": false,
      "rstrip": false,
      "normalized": false,
      "special": true
    }
  ],
  "normalizer": {
    "type": "Sequence",
    "normalizers": [
      {
        "type": "NFC"
      },
      {
        "type": "Lowercase"
      }
    ]
  },
  "pre_tokenizer": {
    "type": "Sequence",
    "pretokenizers": [
      {
        "type": "Whitespace"
      },
      {
        "type": "Punctuation",
        "behavior": "Isolated"
      }
    ]
  },
  "post_processor": {
    "type": "TemplateProcessing",
    "single": [
      {
        "SpecialToken": {
          "id": "[SOS]",
          "type_id": 0
        }
      },
      {
        "Sequence": {
          "id": "A",
          "type_id": 0
        }
      },
      {
        "SpecialToken": {
          "id": "[EOS]",
          "type_id": 0
        }
      }
    ],
    "pair": [
      {
        "Sequence": {
          "id": "A",
          "type_id": 0
        }
      },
      {
        "Sequence": {
          "id": "B",
          "type_id": 1
        }
      }
    ],
    "special_tokens": {
      "[EOS]": {
        "id": "[EOS]",
        "ids": [
          3
        ],
        "tokens": [
          "[EOS]"
        ]
      },
      "[SOS]": {
        "id": "[SOS]",
        "ids": [
          2
        ],
        "tokens": [
          "[SOS]"
        ]
      }
    }
  },
  "decoder": null,
  "model": {
    "type": "BPE",
    "dropout": null,
    "unk_token": "[UNK]",
    "continuing_subword_prefix": null,
    "end_of_word_suffix": null,
    "fuse_unk": false,
    "byte_fallback": false,
    "ignore_merges": false,
    "vocab": {
      "[UNK]": 0,
      "[PAD]": 1,
      "[SOS]": 2,
      "[EOS]": 3,
      "!": 4,
      "\"": 5,
      "#": 6,
      "$": 7,
      "%": 8,
      "&": 9,
      "'": 10,
      "(": 11,
      ")": 12,
      "*": 13,
      "+": 14,
      ",": 15,
      "-": 16,
      ".": 17,
      "/": 18,
      "0": 19,
      "1": 20,
      "2": 21,
      "3": 22,
      "4": 23,
      "5": 24,
      "6": 25,
      "7": 26,
      "8": 27,
      "9": 28,
      ":": 29,
      ";": 30,
      "<": 31,
      "=": 32,
      ">": 33,
      "?": 34,
      "@": 35,
      "[": 36,
      "\\": 37,
      "]": 38,
      "^": 39,
      "_": 40,
      "`": 41,
      "a": 42,
      "b": 43,
      "c": 44,
      "d": 45,
      "e": 46,
      "f": 47,
      "g": 48,
      "h": 49,
      "i": 50,
      "j": 51,
      "k": 52,
      "l": 53,
      "m": 54,
      "n": 55,
      "o": 56,
      "p": 57,
      "q": 58,
      "r": 59,
      "s": 60,
      "t": 61,
      "u": 62,
      "v": 63,
      "w": 64,
      "x": 65,
      "y": 66,
      "z": 67,
      "{": 68,
      "|": 69,
      "}": 70,
      "~": 71,
      "": 72,
      "": 73,
      "": 74,
      "": 75,
      "": 76,
      "": 77,
      "": 78,
      "": 79,
      "": 80,
      "": 81,
      "": 82,
      "": 83,
      "": 84,
      "": 85,
      "": 86,
      "": 87,
      "": 88,
      "": 89,
      "": 90,
      "": 91,
      "": 92,
      "": 93,
      "": 94,
      "": 95,
      "": 96,
      "": 97,
      "": 98,
      "": 99,
      "": 100,
      "¡": 101,
      "¢": 102,
      "£": 103,
      "¤": 104,
      "¥": 105,
      "¦": 106,
      "§": 107,
      "¨": 108,
      "©": 109,
      "ª": 110,
      "«": 111,
      "¬": 112,
      "­": 113,
      "®": 114,
      "¯": 115,
      "°": 116,
      "±": 117,
      "²": 118,
      "³": 119,
      "´": 120,
      "µ": 121,
      "¶": 122,
      "·": 123,
      "¸": 124,
      "¹": 125,
      "º": 126,
      "»": 127,
      "¼": 128,
      "½": 129,
      "¾": 130,
      "¿": 131,
      "×": 132,
      "ß": 133,
      "à": 134,
      "á": 135,
      "â": 136,
      "ã": 137,
      "ä": 138,
      "å": 139,
      "æ": 140,
      "ç": 141,
      "è": 142,
      "é": 143,
      "ê": 144,
      "ë": 145,
      "ì": 146,
      "í": 147,
      "î": 148,
      "ï": 149,
      "ð": 150,
      "ñ": 151,
      "ò": 152,
      "ó": 153,
      "ô": 154,
      "õ": 155,
      "ö": 156,
      "÷": 157,
      "ø": 158,
      "ù": 159,
      "ú": 160,
      "û": 161,
      "ü": 162,
      "ý": 163,
      "þ": 164,
      "ÿ": 165,
      "ā": 166,
      "ă": 167,
      "ą": 168,
      "ć": 169,
      "ĉ": 170,
      "ċ": 171,
      "č": 172,
      "ď": 173,
      "đ": 174,
      "ē": 175,
      "ĕ": 176,
      "ė": 177,
      "ę": 178,
      "ě": 179,
      "ĝ": 180,
      "ğ": 181,
      "ġ": 182,
      "ģ": 183,
      "ĥ": 184,
      "ħ": 185,
      "ĩ": 186,
      "ī": 187,
      "į": 188,
      "ı": 189,
      "ĳ": 190,
      "ĵ": 191,
      "ķ": 192,
      "ĸ": 193,
      "ĺ": 194,
      "ļ": 195,
      "ľ": 196,
      "ŀ": 197,
      "ł": 198,
      "ń": 199,
      "ņ": 200,
      "ň": 201,
      "ŋ": 202,
      "ō": 203,
      "ŏ": 204,
      "ő": 205,
      "œ": 206,
      "ŕ": 207,
      "ř": 208,
      "ś": 209,
      "ŝ": 210,
      "ş": 211,
      "š": 212,
      "ţ": 213,
      "ť": 214,
      "ũ": 215,
      "ū": 216,
      "ŭ": 217,
      "ů": 218,
      "ű": 219,
      "ų": 220,
      "ŵ": 221,
      "ŷ": 222,
      "ź": 223,
      "ż": 224,
      "ž": 225,
      "ſ": 226,
      "ƒ": 227,
      "ƙ": 228,
      "ƛ": 229,
      "ơ": 230,
      "ƭ": 231,
      "ư": 232,
      "ǎ": 233,
      "ǐ": 234,
      "ǒ": 235,
      "ǔ": 236,
      "ǘ": 237,
      "ǜ": 238,
      "ǝ": 239,
      "ǣ": 240,
      "ǵ": 241,
      "ǻ": 242,
      "ș": 243,
      "ț": 244,
      "ȥ": 245,
      "ȼ": 246,
      "ɐ": 247,
      "ɑ": 248,
      "ɒ": 249,
      "ɔ": 250,
      "ɕ": 251,
      "ə": 252,
      "ɛ": 253,
      "ɜ": 254,
      "ɠ": 255,
      "ɡ": 256,
      "ɢ": 257,
      "ɩ": 258,
      "ɪ": 259,
      "ɫ": 260,
      "ɯ": 261,
      "ɲ": 262,
      "ɹ": 263,
      "ɾ": 264,
      "ʀ": 265,
      "ʁ": 266,
      "ʃ": 267,
      "ʊ": 268,
      "ʌ": 269,
      "ʎ": 270,
      "ʐ": 271,
      "ʒ": 272,
      "ʔ": 273,
      "ʚ": 274,
      "ʤ": 275,
      "ʦ": 276,
      "ʰ": 277,
      "ʲ": 278,
      "ʺ": 279,
      "ʻ": 280,
      "ʼ": 281,
      "ʾ": 282,
      "ʿ": 283,
      "ˁ": 284,
      "ˆ": 285,
      "ˇ": 286,
      "ˈ": 287,
      "ˌ": 288,
      "ː": 289,
      "˘": 290,
      "˙": 291,
      "˚": 292,
      "˛": 293,
      "˜": 294,
      "˝": 295,
      "ˡ": 296,
      "́": 297,
      "̃": 298,
      "̆": 299,
      "̇": 300,
      "̈": 301,
      "̍": 302,
      "̤": 303,
      "̯": 304,
      "̶": 305,
      "͡": 306,
      "΄": 307,
      "ΐ": 308,
      "ά": 309,
      "έ": 310,
      "ή": 311,
      "ί": 312,
      "α": 313,
      "β": 314,
      "γ": 315,
      "δ": 316,
      "ε": 317,
      "ζ": 318,
      "η": 319,
      "θ": 320,
      "ι": 321,
      "κ": 322,
      "λ": 323,
      "μ": 324,
      "ν": 325,
      "ξ": 326,
      "ο": 327,
      "π": 328,
      "ρ": 329,
      "ς": 330,
      "σ": 331,
      "τ": 332,
      "υ": 333,
      "φ": 334,
      "χ": 335,
      "ψ": 336,
      "ω": 337,
      "ϊ": 338,
      "ϋ": 339,
      "ό": 340,
      "ύ": 341,
      "ώ": 342,
      "а": 343,
      "б": 344,
      "в": 345,
      "г": 346,
      "д": 347,
      "е": 348,
      "ж": 349,
      "з": 350,
      "и": 351,
      "й": 352,
      "к": 353,
      "л": 354,
      "м": 355,
      "н": 356,
      "о": 357,
      "п": 358,
      "р": 359,
      "с": 360,
      "т": 361,
      "у": 362,
      "ф": 363,
      "х": 364,
      "ц": 365,
      "ч": 366,
      "ш": 367,
      "щ": 368,
      "ъ": 369,
      "ы": 370,
      "ь": 371,
      "э": 372,
      "ю": 373,
      "я": 374,
      "ё": 375,
      "ђ": 376,
      "ѓ": 377,
      "є": 378,
      "ѕ": 379,
      "і": 380,
      "ї": 381,
      "ј": 382,
      "љ": 383,
      "њ": 384,
      "ћ": 385,
      "ќ": 386,
      "ў": 387,
      "џ": 388,
      "ґ": 389,
      "ғ": 390,
      "ҙ": 391,
      "қ": 392,
      "ҡ": 393,
      "ң": 394,
      "ү": 395,
      "ұ": 396,
      "ҳ": 397,
      "һ": 398,
      "ә": 399,
      "ө": 400,
      "ӳ": 401,
      "ְ": 402,
      "ֲ": 403,
      "ֳ": 404,
      "ִ": 405,
      "ֶ": 406,
      "ַ": 407,
      "ָ": 408,
      "ֹ": 409,
      "ּ": 410,
      "ֿ": 411,
      "ׁ": 412,
      "א": 413,
      "ב": 414,
      "ג": 415,
      "ד": 416,
      "ה": 417,
      "ו": 418,
      "ז": 419,
      "ח": 420,
      "ט": 421,
      "י": 422,
      "כ": 423,
      "ל": 424,
      "ם": 425,
      "מ": 426,
      "ן": 427,
      "נ": 428,
      "ס": 429,
      "ע": 430,
      "פ": 431,
      "ץ": 432,
      "צ": 433,
      "ק": 434,
      "ר": 435,
      "ש": 436,
      "ת": 437,
      "،": 438,
      "ؒ": 439,
      "؛": 440,
      "ء": 441,
      "آ": 442,
      "أ": 443,
      "ؤ": 444,
      "إ": 445,
      "ئ": 446,
      "ا": 447,
      "ب": 448,
      "ة": 449,
      "ت": 450,
      "ث": 451,
      "ج": 452,
      "ح": 453,
      "خ": 454,
      "د": 455,
      "ذ": 456,
      "ر": 457,
      "ز": 458,
      "س": 459,
      "ش": 460,
      "ص": 461,
      "ض": 462,
      "ط": 463,
      "ظ": 464,
      "ع": 465,
      "غ": 466,
      "ـ": 467,
      "ف": 468,
      "ق": 469,
      "ك": 470,
      "ل": 471,
      "م": 472,
      "ن": 473,
      "ه": 474,
      "و": 475,
      "ى": 476,
      "ي": 477,
      "ً": 478,
      "ٌ": 479,
      "َ": 480,
      "ُ": 481,
      "ِ": 482,
      "ّ": 483,
      "ْ": 484,
      "ٲ": 485,
      "ټ": 486,
      "پ": 487,
      "ځ": 488,
      "ڠ": 489,
      "ک": 490,
      "ڬ": 491,
      "ڭ": 492,
      "گ": 493,
      "ھ": 494,
      "ۆ": 495,
      "ۇ": 496,
      "ی": 497,
      "ې": 498,
      "۞": 499,
      "۩": 500,
      "۰": 501,
      "۱": 502,
      "۲": 503,
      "۳": 504,
      "۴": 505,
      "۵": 506,
      "۶": 507,
      "۷": 508,
      "۸": 509,
      "۹": 510,
      "ރ": 511,
      "ކ": 512,
      "އ": 513,
      "މ": 514,
      "ާ": 515,
      "ި": 516,
      "ެ": 517,
      "ߖ": 518,
      "߮": 519,
      "ं": 520,
      "अ": 521,
      "आ": 522,
      "ई": 523,
      "उ": 524,
      "क": 525,
      "ग": 526,
      "च": 527,
      "छ": 528,
      "ज": 529,
      "ञ": 530,
      "ट": 531,
      "ड": 532,
      "ढ": 533,
      "ण": 534,
      "त": 535,
      "थ": 536,
      "द": 537,
      "ध": 538,
      "न": 539,
      "प": 540,
      "ब": 541,
      "भ": 542,
      "म": 543,
      "य": 544,
      "र": 545,
      "ल": 546,
      "व": 547,
      "श": 548,
      "स": 549,
      "ह": 550,
      "़": 551,
      "ा": 552,
      "ि": 553,
      "ी": 554,
      "ु": 555,
      "ृ": 556,
      "े": 557,
      "ॉ": 558,
      "ो": 559,
      "्": 560,
      "ॐ": 561,
      "ॡ": 562,
      "०": 563,
      "१": 564,
      "२": 565,
      "३": 566,
      "५": 567,
      "९": 568,
      "ং": 569,
      "আ": 570,
      "ই": 571,
      "এ": 572,
      "ক": 573,
      "গ": 574,
      "ঙ": 575,
      "চ": 576,
      "ট": 577,
      "ত": 578,
      "ন": 579,
      "প": 580,
      "ব": 581,
      "ম": 582,
      "য": 583,
      "র": 584,
      "ল": 585,
      "শ": 586,
      "ষ": 587,
      "হ": 588,
      "়": 589,
      "া": 590,
      "ি": 591,
      "ু": 592,
      "ো": 593,
      "্": 594,
      "ৰ": 595,
      "ਗ": 596,
      "ਚ": 597,
      "ਡ": 598,
      "ਹ": 599,
      "ੀ": 600,
      "੍": 601,
      "ੜ": 602,
      "ੰ": 603,
      "ં": 604,
      "અ": 605,
      "ક": 606,
      "જ": 607,
      "ત": 608,
      "મ": 609,
      "ય": 610,
      "ર": 611,
      "સ": 612,
      "ા": 613,
      "િ": 614,
      "ુ": 615,
      "ે": 616,
      "્": 617,
      "૦": 618,
      "૧": 619,
      "૨": 620,
      "க": 621,
      "ச": 622,
      "ட": 623,
      "த": 624,
      "ன": 625,
      "ப": 626,
      "ம": 627,
      "ய": 628,
      "ர": 629,
      "ு": 630,
      "ூ": 631,
      "ெ": 632,
      "ை": 633,
      "ோ": 634,
      "்": 635,
      "ం": 636,
      "ఆ": 637,
      "ద": 638,
      "ధ": 639,
      "ప": 640,
      "ర": 641,
      "శ": 642,
      "ె": 643,
      "్": 644,
      "ౕ": 645,
      "ಐ": 646,
      "ಯ": 647,
      "ರ": 648,
      "ವ": 649,
      "ಶ": 650,
      "ಾ": 651,
      "ೈ": 652,
      "್": 653,
      "೦": 654,
      "೧": 655,
      "೨": 656,
      "೩": 657,
      "೫": 658,
      "೬": 659,
      "೮": 660,
      "೯": 661,
      "എ": 662,
      "ക": 663,
      "ദ": 664,
      "പ": 665,
      "യ": 666,
      "ല": 667,
      "വ": 668,
      "ഷ": 669,
      "സ": 670,
      "ീ": 671,
      "ു": 672,
      "്": 673,
      "න": 674,
      "ම": 675,
      "ර": 676,
      "ව": 677,
      "හ": 678,
      "ු": 679,
      "ก": 680,
      "ข": 681,
      "ค": 682,
      "ฆ": 683,
      "ง": 684,
      "จ": 685,
      "ฉ": 686,
      "ช": 687,
      "ซ": 688,
      "ญ": 689,
      "ฎ": 690,
      "ฏ": 691,
      "ฐ": 692,
      "ฒ": 693,
      "ณ": 694,
      "ด": 695,
      "ต": 696,
      "ถ": 697,
      "ท": 698,
      "ธ": 699,
      "น": 700,
      "บ": 701,
      "ป": 702,
      "ผ": 703,
      "ฝ": 704,
      "พ": 705,
      "ฟ": 706,
      "ภ": 707,
      "ม": 708,
      "ย": 709,
      "ร": 710,
      "ฤ": 711,
      "ล": 712,
      "ว": 713,
      "ศ": 714,
      "ษ": 715,
      "ส": 716,
      "ห": 717,
      "อ": 718,
      "ฮ": 719,
      "ฯ": 720,
      "ะ": 721,
      "ั": 722,
      "า": 723,
      "ำ": 724,
      "ิ": 725,
      "ี": 726,
      "ึ": 727,
      "ื": 728,
      "ุ": 729,
      "ู": 730,
      "฿": 731,
      "เ": 732,
      "แ": 733,
      "โ": 734,
      "ใ": 735,
      "ไ": 736,
      "ๆ": 737,
      "็": 738,
      "่": 739,
      "้": 740,
      "๊": 741,
      "์": 742,
      "๑": 743,
      "ຄ": 744,
      "ງ": 745,
      "ດ": 746,
      "ຖ": 747,
      "ນ": 748,
      "ມ": 749,
      "ວ": 750,
      "ັ": 751,
      "ຸ": 752,
      "་": 753,
      "ད": 754,
      "བ": 755,
      "ོ": 756,
      "ა": 757,
      "ბ": 758,
      "გ": 759,
      "დ": 760,
      "ე": 761,
      "ვ": 762,
      "თ": 763,
      "ი": 764,
      "კ": 765,
      "ლ": 766,
      "მ": 767,
      "ნ": 768,
      "ო": 769,
      "პ": 770,
      "რ": 771,
      "ს": 772,
      "ტ": 773,
      "უ": 774,
      "ქ": 775,
      "ღ": 776,
      "შ": 777,
      "ც": 778,
      "ხ": 779,
      "ህ": 780,
      "ሊ": 781,
      "ል": 782,
      "ሕ": 783,
      "መ": 784,
      "ሜ": 785,
      "ም": 786,
      "ረ": 787,
      "ሪ": 788,
      "ራ": 789,
      "ር": 790,
      "ሰ": 791,
      "ስ": 792,
      "ሻ": 793,
      "ቀ": 794,
      "ቐ": 795,
      "በ": 796,
      "ቢ": 797,
      "ባ": 798,
      "ተ": 799,
      "ት": 800,
      "ቶ": 801,
      "ን": 802,
      "አ": 803,
      "ኣ": 804,
      "ኤ": 805,
      "እ": 806,
      "ኦ": 807,
      "ካ": 808,
      "ክ": 809,
      "ዋ": 810,
      "ው": 811,
      "ዓ": 812,
      "የ": 813,
      "ይ": 814,
      "ዲ": 815,
      "ድ": 816,
      "ገ": 817,
      "ጨ": 818,
      "ጽ": 819,
      "ፈ": 820,
      "፣": 821,
      "ᐊ": 822,
      "ᑲ": 823,
      "ᒥ": 824,
      "ᓕ": 825,
      "ដ": 826,
      "ឋ": 827,
      "រ": 828,
      "ស": 829,
      "ហ": 830,
      "្": 831,
      "ḍ": 832,
      "ḥ": 833,
      "ḫ": 834,
      "ḷ": 835,
      "ḿ": 836,
      "ṃ": 837,
      "ṅ": 838,
      "ṇ": 839,
      "ṉ": 840,
      "ṛ": 841,
      "ṣ": 842,
      "ṭ": 843,
      "ṯ": 844,
      "ṳ": 845,
      "ẋ": 846,
      "ạ": 847,
      "ả": 848,
      "ấ": 849,
      "ầ": 850,
      "ẩ": 851,
      "ậ": 852,
      "ắ": 853,
      "ẳ": 854,
      "ẵ": 855,
      "ẻ": 856,
      "ẽ": 857,
      "ế": 858,
      "ề": 859,
      "ể": 860,
      "ễ": 861,
      "ệ": 862,
      "ọ": 863,
      "ỏ": 864,
      "ố": 865,
      "ồ": 866,
      "ổ": 867,
      "ộ": 868,
      "ớ": 869,
      "ờ": 870,
      "ở": 871,
      "ợ": 872,
      "ụ": 873,
      "ủ": 874,
      "ứ": 875,
      "ừ": 876,
      "ử": 877,
      "ữ": 878,
      "ự": 879,
      "ỳ": 880,
      "ỹ": 881,
      "ἀ": 882,
      "ἄ": 883,
      "ἅ": 884,
      "ἔ": 885,
      "ἥ": 886,
      "ἰ": 887,
      "ὁ": 888,
      "ὄ": 889,
      "ὶ": 890,
      "ὺ": 891,
      "ῆ": 892,
      "ῑ": 893,
      "ῥ": 894,
      "ῦ": 895,
      "​": 896,
      "‌": 897,
      "‍": 898,
      "‎": 899,
      "‏": 900,
      "‐": 901,
      "‑": 902,
      "‒": 903,
      "–": 904,
      "—": 905,
      "―": 906,
      "‘": 907,
      "’": 908,
      "‚": 909,
      "‛": 910,
      "“": 911,
      "”": 912,
      "„": 913,
      "‟": 914,
      "†": 915,
      "‡": 916,
      "•": 917,
      "…": 918,
      "‪": 919,
      "‬": 920,
      "‭": 921,
      "‰": 922,
      "′": 923,
      "″": 924,
      "‹": 925,
      "›": 926,
      "※": 927,
      "‼": 928,
      "⁄": 929,
      "⁴": 930,
      "ⁿ": 931,
      "₂": 932,
      "₤": 933,
      "₩": 934,
      "₪": 935,
      "€": 936,
      "₴": 937,
      "℃": 938,
      "ℓ": 939,
      "№": 940,
      "™": 941,
      "⅛": 942,
      "⅞": 943,
      "ⅱ": 944,
      "ⅲ": 945,
      "←": 946,
      "↑": 947,
      "→": 948,
      "↓": 949,
      "↔": 950,
      "⇒": 951,
      "⇗": 952,
      "⇢": 953,
      "∀": 954,
      "∈": 955,
      "∑": 956,
      "−": 957,
      "∙": 958,
      "√": 959,
      "∞": 960,
      "∫": 961,
      "∴": 962,
      "∶": 963,
      "≈": 964,
      "≠": 965,
      "≤": 966,
      "≥": 967,
      "≪": 968,
      "≫": 969,
      "⋅": 970,
      "⌃": 971,
      "⌘": 972,
      "①": 973,
      "②": 974,
      "③": 975,
      "─": 976,
      "│": 977,
      "╚": 978,
      "╞": 979,
      "╩": 980,
      "█": 981,
      "░": 982,
      "■": 983,
      "□": 984,
      "▪": 985,
      "▲": 986,
      "△": 987,
      "▸": 988,
      "►": 989,
      "▼": 990,
      "◆": 991,
      "◇": 992,
      "◈": 993,
      "◊": 994,
      "○": 995,
      "◎": 996,
      "●": 997,
      "◙": 998,
      "◦": 999,
      "★": 1000,
      "☆": 1001,
      "☎": 1002,
      "☏": 1003,
      "☑": 1004,
      "☺": 1005,
      "☻": 1006,
      "☼": 1007,
      "♀": 1008,
      "♂": 1009,
      "♠": 1010,
      "♣": 1011,
      "♥": 1012,
      "♦": 1013,
      "♪": 1014,
      "♫": 1015,
      "✿": 1016,
      "➔": 1017,
      "➚": 1018,
      "➟": 1019,
      "➲": 1020,
      "ⰶ": 1021,
      "ⲉ": 1022,
      "ⲟ": 1023,
      "ⲡ": 1024,
      "ⲣ": 1025,
      "ⲩ": 1026,
      "、": 1027,
      "。": 1028,
      "々": 1029,
      "《": 1030,
      "》": 1031,
      "「": 1032,
      "」": 1033,
      "『": 1034,
      "』": 1035,
      "【": 1036,
      "】": 1037,
      "〔": 1038,
      "〕": 1039,
      "〜": 1040,
      "あ": 1041,
      "ぃ": 1042,
      "い": 1043,
      "う": 1044,
      "え": 1045,
      "お": 1046,
      "か": 1047,
      "が": 1048,
      "き": 1049,
      "ぎ": 1050,
      "く": 1051,
      "ぐ": 1052,
      "け": 1053,
      "げ": 1054,
      "こ": 1055,
      "ご": 1056,
      "さ": 1057,
      "ざ": 1058,
      "し": 1059,
      "じ": 1060,
      "す": 1061,
      "ず": 1062,
      "せ": 1063,
      "ぜ": 1064,
      "そ": 1065,
      "ぞ": 1066,
      "た": 1067,
      "だ": 1068,
      "ち": 1069,
      "ぢ": 1070,
      "っ": 1071,
      "つ": 1072,
      "づ": 1073,
      "て": 1074,
      "で": 1075,
      "と": 1076,
      "ど": 1077,
      "な": 1078,
      "に": 1079,
      "ぬ": 1080,
      "ね": 1081,
      "の": 1082,
      "は": 1083,
      "ば": 1084,
      "ひ": 1085,
      "び": 1086,
      "ふ": 1087,
      "ぶ": 1088,
      "ぷ": 1089,
      "へ": 1090,
      "べ": 1091,
      "ほ": 1092,
      "ぼ": 1093,
      "ま": 1094,
      "み": 1095,
      "む": 1096,
      "め": 1097,
      "も": 1098,
      "や": 1099,
      "ゆ": 1100,
      "ょ": 1101,
      "よ": 1102,
      "ら": 1103,
      "り": 1104,
      "る": 1105,
      "れ": 1106,
      "ろ": 1107,
      "わ": 1108,
      "を": 1109,
      "ん": 1110,
      "゛": 1111,
      "゜": 1112,
      "ア": 1113,
      "ィ": 1114,
      "イ": 1115,
      "ゥ": 1116,
      "ウ": 1117,
      "ェ": 1118,
      "エ": 1119,
      "オ": 1120,
      "カ": 1121,
      "ガ": 1122,
      "キ": 1123,
      "ギ": 1124,
      "ク": 1125,
      "グ": 1126,
      "ケ": 1127,
      "ゲ": 1128,
      "コ": 1129,
      "ゴ": 1130,
      "サ": 1131,
      "ザ": 1132,
      "シ": 1133,
      "ジ": 1134,
      "ス": 1135,
      "ズ": 1136,
      "セ": 1137,
      "ゼ": 1138,
      "ソ": 1139,
      "ゾ": 1140,
      "タ": 1141,
      "ダ": 1142,
      "チ": 1143,
      "ッ": 1144,
      "ツ": 1145,
      "テ": 1146,
      "デ": 1147,
      "ト": 1148,
      "ド": 1149,
      "ナ": 1150,
      "ニ": 1151,
      "ヌ": 1152,
      "ネ": 1153,
      "ノ": 1154,
      "ハ": 1155,
      "バ": 1156,
      "パ": 1157,
      "ヒ": 1158,
      "ビ": 1159,
      "ピ": 1160,
      "フ": 1161,
      "ブ": 1162,
      "プ": 1163,
      "ヘ": 1164,
      "ベ": 1165,
      "ペ": 1166,
      "ホ": 1167,
      "ボ": 1168,
      "ポ": 1169,
      "マ": 1170,
      "ミ": 1171,
      "ム": 1172,
      "メ": 1173,
      "モ": 1174,
      "ヤ": 1175,
      "ュ": 1176,
      "ユ": 1177,
      "ヨ": 1178,
      "ラ": 1179,
      "リ": 1180,
      "ル": 1181,
      "レ": 1182,
      "ロ": 1183,
      "ワ": 1184,
      "ン": 1185,
      "ヴ": 1186,
      "・": 1187,
      "ー": 1188,
      "ㄅ": 1189,
      "ㄆ": 1190,
      "ㄇ": 1191,
      "ㄈ": 1192,
      "ㄤ": 1193,
      "ㄧ": 1194,
      "ㅓ": 1195,
      "ㅔ": 1196,
      "ㅕ": 1197,
      "ㅖ": 1198,
      "ㅡ": 1199,
      "ㅣ": 1200,
      "㎡": 1201,
      "䟩": 1202,
      "一": 1203,
      "七": 1204,
      "万": 1205,
      "丈": 1206,
      "三": 1207,
      "上": 1208,
      "下": 1209,
      "不": 1210,
      "与": 1211,
      "世": 1212,
      "丘": 1213,
      "东": 1214,
      "两": 1215,
      "丨": 1216,
      "个": 1217,
      "中": 1218,
      "丸": 1219,
      "丹": 1220,
      "为": 1221,
      "主": 1222,
      "丼": 1223,
      "丽": 1224,
      "举": 1225,
      "久": 1226,
      "义": 1227,
      "之": 1228,
      "乌": 1229,
      "乎": 1230,
      "乏": 1231,
      "乐": 1232,
      "乗": 1233,
      "乙": 1234,
      "九": 1235,
      "也": 1236,
      "习": 1237,
      "书": 1238,
      "乱": 1239,
      "了": 1240,
      "事": 1241,
      "二": 1242,
      "于": 1243,
      "云": 1244,
      "互": 1245,
      "五": 1246,
      "井": 1247,
      "亚": 1248,
      "些": 1249,
      "亞": 1250,
      "交": 1251,
      "产": 1252,
      "亨": 1253,
      "京": 1254,
      "人": 1255,
      "什": 1256,
      "仁": 1257,
      "今": 1258,
      "从": 1259,
      "他": 1260,
      "付": 1261,
      "代": 1262,
      "以": 1263,
      "仪": 1264,
      "仮": 1265,
      "仲": 1266,
      "件": 1267,
      "价": 1268,
      "伊": 1269,
      "伎": 1270,
      "伏": 1271,
      "休": 1272,
      "优": 1273,
      "会": 1274,
      "伝": 1275,
      "伦": 1276,
      "伯": 1277,
      "伴": 1278,
      "伸": 1279,
      "但": 1280,
      "位": 1281,
      "住": 1282,
      "佐": 1283,
      "佑": 1284,
      "体": 1285,
      "何": 1286,
      "佗": 1287,
      "余": 1288,
      "作": 1289,
      "你": 1290,
      "佰": 1291,
      "侍": 1292,
      "依": 1293,
      "便": 1294,
      "俄": 1295,
      "俊": 1296,
      "保": 1297,
      "信": 1298,
      "修": 1299,
      "倉": 1300,
      "倍": 1301,
      "倒": 1302,
      "做": 1303,
      "健": 1304,
      "储": 1305,
      "傷": 1306,
      "働": 1307,
      "像": 1308,
      "儀": 1309,
      "儉": 1310,
      "元": 1311,
      "先": 1312,
      "光": 1313,
      "克": 1314,
      "免": 1315,
      "入": 1316,
      "全": 1317,
      "八": 1318,
      "公": 1319,
      "六": 1320,
      "共": 1321,
      "关": 1322,
      "兵": 1323,
      "其": 1324,
      "内": 1325,
      "円": 1326,
      "册": 1327,
      "写": 1328,
      "冤": 1329,
      "决": 1330,
      "况": 1331,
      "冷": 1332,
      "凄": 1333,
      "凉": 1334,
      "凍": 1335,
      "减": 1336,
      "几": 1337,
      "凶": 1338,
      "出": 1339,
      "函": 1340,
      "刀": 1341,
      "分": 1342,
      "切": 1343,
      "刑": 1344,
      "列": 1345,
      "刘": 1346,
      "则": 1347,
      "刚": 1348,
      "创": 1349,
      "別": 1350,
      "刨": 1351,
      "利": 1352,
      "别": 1353,
      "到": 1354,
      "則": 1355,
      "前": 1356,
      "剑": 1357,
      "剣": 1358,
      "剥": 1359,
      "副": 1360,
      "割": 1361,
      "創": 1362,
      "力": 1363,
      "功": 1364,
      "加": 1365,
      "务": 1366,
      "动": 1367,
      "助": 1368,
      "势": 1369,
      "動": 1370,
      "勢": 1371,
      "勧": 1372,
      "勿": 1373,
      "包": 1374,
      "化": 1375,
      "北": 1376,
      "匠": 1377,
      "匹": 1378,
      "区": 1379,
      "医": 1380,
      "匿": 1381,
      "區": 1382,
      "十": 1383,
      "千": 1384,
      "华": 1385,
      "卓": 1386,
      "单": 1387,
      "南": 1388,
      "博": 1389,
      "卡": 1390,
      "危": 1391,
      "却": 1392,
      "厂": 1393,
      "原": 1394,
      "去": 1395,
      "县": 1396,
      "参": 1397,
      "參": 1398,
      "及": 1399,
      "友": 1400,
      "反": 1401,
      "发": 1402,
      "取": 1403,
      "受": 1404,
      "变": 1405,
      "口": 1406,
      "只": 1407,
      "叫": 1408,
      "召": 1409,
      "可": 1410,
      "台": 1411,
      "史": 1412,
      "右": 1413,
      "号": 1414,
      "司": 1415,
      "吃": 1416,
      "合": 1417,
      "吉": 1418,
      "吊": 1419,
      "同": 1420,
      "名": 1421,
      "后": 1422,
      "向": 1423,
      "吗": 1424,
      "君": 1425,
      "否": 1426,
      "吧": 1427,
      "听": 1428,
      "吳": 1429,
      "吴": 1430,
      "吸": 1431,
      "吹": 1432,
      "吾": 1433,
      "呀": 1434,
      "呆": 1435,
      "呉": 1436,
      "告": 1437,
      "呑": 1438,
      "员": 1439,
      "周": 1440,
      "味": 1441,
      "呼": 1442,
      "咆": 1443,
      "和": 1444,
      "咬": 1445,
      "品": 1446,
      "哈": 1447,
      "員": 1448,
      "哮": 1449,
      "哲": 1450,
      "唐": 1451,
      "售": 1452,
      "唸": 1453,
      "商": 1454,
      "啤": 1455,
      "啦": 1456,
      "喀": 1457,
      "喜": 1458,
      "嗣": 1459,
      "嘉": 1460,
      "嘛": 1461,
      "器": 1462,
      "四": 1463,
      "回": 1464,
      "因": 1465,
      "団": 1466,
      "囧": 1467,
      "园": 1468,
      "固": 1469,
      "国": 1470,
      "图": 1471,
      "圆": 1472,
      "國": 1473,
      "圏": 1474,
      "土": 1475,
      "在": 1476,
      "地": 1477,
      "圳": 1478,
      "场": 1479,
      "址": 1480,
      "坊": 1481,
      "坐": 1482,
      "坛": 1483,
      "垣": 1484,
      "城": 1485,
      "埔": 1486,
      "堂": 1487,
      "堆": 1488,
      "報": 1489,
      "場": 1490,
      "塔": 1491,
      "塾": 1492,
      "墟": 1493,
      "墩": 1494,
      "壊": 1495,
      "士": 1496,
      "壮": 1497,
      "売": 1498,
      "壳": 1499,
      "处": 1500,
      "変": 1501,
      "夏": 1502,
      "夕": 1503,
      "外": 1504,
      "多": 1505,
      "夢": 1506,
      "大": 1507,
      "天": 1508,
      "太": 1509,
      "央": 1510,
      "头": 1511,
      "夷": 1512,
      "夹": 1513,
      "奄": 1514,
      "奉": 1515,
      "套": 1516,
      "奘": 1517,
      "奥": 1518,
      "女": 1519,
      "奸": 1520,
      "好": 1521,
      "如": 1522,
      "妻": 1523,
      "始": 1524,
      "委": 1525,
      "娃": 1526,
      "娄": 1527,
      "娜": 1528,
      "娥": 1529,
      "娱": 1530,
      "婁": 1531,
      "婷": 1532,
      "媛": 1533,
      "子": 1534,
      "字": 1535,
      "存": 1536,
      "学": 1537,
      "孴": 1538,
      "宁": 1539,
      "宇": 1540,
      "安": 1541,
      "宋": 1542,
      "宗": 1543,
      "官": 1544,
      "定": 1545,
      "宜": 1546,
      "宝": 1547,
      "实": 1548,
      "実": 1549,
      "客": 1550,
      "宣": 1551,
      "宮": 1552,
      "宰": 1553,
      "家": 1554,
      "容": 1555,
      "宿": 1556,
      "富": 1557,
      "寤": 1558,
      "實": 1559,
      "寧": 1560,
      "寨": 1561,
      "寶": 1562,
      "寸": 1563,
      "对": 1564,
      "寺": 1565,
      "寻": 1566,
      "寿": 1567,
      "専": 1568,
      "将": 1569,
      "小": 1570,
      "少": 1571,
      "尔": 1572,
      "尘": 1573,
      "就": 1574,
      "尾": 1575,
      "局": 1576,
      "屄": 1577,
      "居": 1578,
      "屈": 1579,
      "届": 1580,
      "屋": 1581,
      "屏": 1582,
      "属": 1583,
      "山": 1584,
      "屿": 1585,
      "岐": 1586,
      "岛": 1587,
      "岩": 1588,
      "岭": 1589,
      "岷": 1590,
      "島": 1591,
      "崎": 1592,
      "崔": 1593,
      "崩": 1594,
      "嵥": 1595,
      "嶼": 1596,
      "川": 1597,
      "州": 1598,
      "工": 1599,
      "左": 1600,
      "巧": 1601,
      "巨": 1602,
      "已": 1603,
      "巴": 1604,
      "巻": 1605,
      "市": 1606,
      "布": 1607,
      "师": 1608,
      "希": 1609,
      "帝": 1610,
      "師": 1611,
      "席": 1612,
      "帯": 1613,
      "常": 1614,
      "幡": 1615,
      "干": 1616,
      "平": 1617,
      "年": 1618,
      "幸": 1619,
      "幹": 1620,
      "广": 1621,
      "庁": 1622,
      "広": 1623,
      "庄": 1624,
      "庆": 1625,
      "应": 1626,
      "底": 1627,
      "庚": 1628,
      "府": 1629,
      "度": 1630,
      "座": 1631,
      "庫": 1632,
      "康": 1633,
      "建": 1634,
      "开": 1635,
      "弁": 1636,
      "弄": 1637,
      "式": 1638,
      "弓": 1639,
      "引": 1640,
      "张": 1641,
      "弦": 1642,
      "張": 1643,
      "当": 1644,
      "形": 1645,
      "彩": 1646,
      "彭": 1647,
      "彰": 1648,
      "影": 1649,
      "役": 1650,
      "彻": 1651,
      "彼": 1652,
      "征": 1653,
      "很": 1654,
      "律": 1655,
      "後": 1656,
      "徒": 1657,
      "得": 1658,
      "御": 1659,
      "復": 1660,
      "微": 1661,
      "徳": 1662,
      "德": 1663,
      "徹": 1664,
      "徽": 1665,
      "心": 1666,
      "必": 1667,
      "忆": 1668,
      "忍": 1669,
      "志": 1670,
      "応": 1671,
      "念": 1672,
      "忻": 1673,
      "态": 1674,
      "怒": 1675,
      "思": 1676,
      "怡": 1677,
      "急": 1678,
      "性": 1679,
      "恢": 1680,
      "恩": 1681,
      "恵": 1682,
      "悟": 1683,
      "悠": 1684,
      "患": 1685,
      "您": 1686,
      "悩": 1687,
      "悪": 1688,
      "情": 1689,
      "惑": 1690,
      "惧": 1691,
      "惯": 1692,
      "想": 1693,
      "意": 1694,
      "愛": 1695,
      "慈": 1696,
      "慢": 1697,
      "慣": 1698,
      "憎": 1699,
      "憾": 1700,
      "成": 1701,
      "我": 1702,
      "戴": 1703,
      "戶": 1704,
      "户": 1705,
      "戸": 1706,
      "房": 1707,
      "所": 1708,
      "扈": 1709,
      "手": 1710,
      "才": 1711,
      "打": 1712,
      "找": 1713,
      "承": 1714,
      "技": 1715,
      "投": 1716,
      "折": 1717,
      "抜": 1718,
      "报": 1719,
      "押": 1720,
      "担": 1721,
      "拉": 1722,
      "拓": 1723,
      "择": 1724,
      "括": 1725,
      "拼": 1726,
      "拿": 1727,
      "持": 1728,
      "挂": 1729,
      "指": 1730,
      "挑": 1731,
      "挡": 1732,
      "振": 1733,
      "损": 1734,
      "掉": 1735,
      "排": 1736,
      "探": 1737,
      "接": 1738,
      "控": 1739,
      "掻": 1740,
      "揃": 1741,
      "提": 1742,
      "換": 1743,
      "握": 1744,
      "援": 1745,
      "搅": 1746,
      "搜": 1747,
      "搞": 1748,
      "携": 1749,
      "摂": 1750,
      "摇": 1751,
      "摩": 1752,
      "撮": 1753,
      "操": 1754,
      "支": 1755,
      "收": 1756,
      "放": 1757,
      "政": 1758,
      "故": 1759,
      "敏": 1760,
      "救": 1761,
      "教": 1762,
      "散": 1763,
      "敦": 1764,
      "数": 1765,
      "整": 1766,
      "文": 1767,
      "斗": 1768,
      "料": 1769,
      "新": 1770,
      "方": 1771,
      "施": 1772,
      "旅": 1773,
      "旋": 1774,
      "族": 1775,
      "无": 1776,
      "日": 1777,
      "旧": 1778,
      "旨": 1779,
      "时": 1780,
      "昇": 1781,
      "明": 1782,
      "星": 1783,
      "映": 1784,
      "春": 1785,
      "是": 1786,
      "显": 1787,
      "晏": 1788,
      "晨": 1789,
      "普": 1790,
      "景": 1791,
      "智": 1792,
      "暂": 1793,
      "暫": 1794,
      "暴": 1795,
      "曌": 1796,
      "曝": 1797,
      "更": 1798,
      "書": 1799,
      "最": 1800,
      "會": 1801,
      "月": 1802,
      "有": 1803,
      "望": 1804,
      "朝": 1805,
      "木": 1806,
      "末": 1807,
      "本": 1808,
      "札": 1809,
      "术": 1810,
      "朱": 1811,
      "机": 1812,
      "李": 1813,
      "杏": 1814,
      "材": 1815,
      "村": 1816,
      "条": 1817,
      "来": 1818,
      "杨": 1819,
      "杭": 1820,
      "東": 1821,
      "松": 1822,
      "板": 1823,
      "林": 1824,
      "果": 1825,
      "枫": 1826,
      "架": 1827,
      "某": 1828,
      "染": 1829,
      "柔": 1830,
      "查": 1831,
      "柱": 1832,
      "柴": 1833,
      "标": 1834,
      "树": 1835,
      "校": 1836,
      "株": 1837,
      "样": 1838,
      "核": 1839,
      "根": 1840,
      "桂": 1841,
      "桃": 1842,
      "框": 1843,
      "桓": 1844,
      "梅": 1845,
      "梨": 1846,
      "检": 1847,
      "森": 1848,
      "椅": 1849,
      "植": 1850,
      "検": 1851,
      "楠": 1852,
      "業": 1853,
      "極": 1854,
      "楼": 1855,
      "楽": 1856,
      "標": 1857,
      "模": 1858,
      "横": 1859,
      "樱": 1860,
      "橿": 1861,
      "檀": 1862,
      "次": 1863,
      "欢": 1864,
      "款": 1865,
      "歌": 1866,
      "止": 1867,
      "正": 1868,
      "此": 1869,
      "步": 1870,
      "武": 1871,
      "歩": 1872,
      "歳": 1873,
      "死": 1874,
      "殊": 1875,
      "段": 1876,
      "殷": 1877,
      "殿": 1878,
      "毁": 1879,
      "母": 1880,
      "比": 1881,
      "毛": 1882,
      "氏": 1883,
      "民": 1884,
      "气": 1885,
      "気": 1886,
      "氣": 1887,
      "水": 1888,
      "氷": 1889,
      "永": 1890,
      "汇": 1891,
      "汉": 1892,
      "汕": 1893,
      "江": 1894,
      "汤": 1895,
      "汴": 1896,
      "決": 1897,
      "沈": 1898,
      "沙": 1899,
      "沛": 1900,
      "没": 1901,
      "沪": 1902,
      "沱": 1903,
      "河": 1904,
      "油": 1905,
      "治": 1906,
      "況": 1907,
      "泉": 1908,
      "泊": 1909,
      "法": 1910,
      "波": 1911,
      "泥": 1912,
      "注": 1913,
      "泽": 1914,
      "洋": 1915,
      "洒": 1916,
      "洛": 1917,
      "洪": 1918,
      "洲": 1919,
      "活": 1920,
      "派": 1921,
      "流": 1922,
      "浄": 1923,
      "测": 1924,
      "济": 1925,
      "浙": 1926,
      "浦": 1927,
      "浮": 1928,
      "海": 1929,
      "涂": 1930,
      "消": 1931,
      "涩": 1932,
      "淫": 1933,
      "深": 1934,
      "淹": 1935,
      "清": 1936,
      "済": 1937,
      "渋": 1938,
      "温": 1939,
      "港": 1940,
      "渲": 1941,
      "游": 1942,
      "湖": 1943,
      "湾": 1944,
      "満": 1945,
      "溜": 1946,
      "溝": 1947,
      "溢": 1948,
      "溥": 1949,
      "溪": 1950,
      "溫": 1951,
      "溶": 1952,
      "滬": 1953,
      "漢": 1954,
      "漫": 1955,
      "潟": 1956,
      "潮": 1957,
      "澄": 1958,
      "澤": 1959,
      "激": 1960,
      "濟": 1961,
      "灣": 1962,
      "火": 1963,
      "灯": 1964,
      "灰": 1965,
      "灾": 1966,
      "点": 1967,
      "為": 1968,
      "烦": 1969,
      "無": 1970,
      "然": 1971,
      "焼": 1972,
      "照": 1973,
      "煮": 1974,
      "熊": 1975,
      "熟": 1976,
      "熨": 1977,
      "爆": 1978,
      "爛": 1979,
      "爪": 1980,
      "爱": 1981,
      "父": 1982,
      "片": 1983,
      "版": 1984,
      "牌": 1985,
      "牙": 1986,
      "物": 1987,
      "特": 1988,
      "状": 1989,
      "狐": 1990,
      "狗": 1991,
      "独": 1992,
      "狭": 1993,
      "献": 1994,
      "獄": 1995,
      "玄": 1996,
      "率": 1997,
      "玉": 1998,
      "王": 1999,
      "现": 2000,
      "玲": 2001,
      "珠": 2002,
      "班": 2003,
      "球": 2004,
      "理": 2005,
      "琢": 2006,
      "瑠": 2007,
      "瑩": 2008,
      "璃": 2009,
      "璐": 2010,
      "瓶": 2011,
      "甜": 2012,
      "生": 2013,
      "用": 2014,
      "田": 2015,
      "由": 2016,
      "甲": 2017,
      "申": 2018,
      "电": 2019,
      "男": 2020,
      "甸": 2021,
      "町": 2022,
      "画": 2023,
      "界": 2024,
      "留": 2025,
      "畢": 2026,
      "略": 2027,
      "畿": 2028,
      "疆": 2029,
      "疑": 2030,
      "疗": 2031,
      "疫": 2032,
      "病": 2033,
      "痛": 2034,
      "痴": 2035,
      "癌": 2036,
      "白": 2037,
      "百": 2038,
      "的": 2039,
      "皇": 2040,
      "皮": 2041,
      "益": 2042,
      "盖": 2043,
      "盗": 2044,
      "盛": 2045,
      "目": 2046,
      "直": 2047,
      "相": 2048,
      "省": 2049,
      "看": 2050,
      "県": 2051,
      "真": 2052,
      "眩": 2053,
      "眼": 2054,
      "着": 2055,
      "睦": 2056,
      "瞎": 2057,
      "瞳": 2058,
      "矢": 2059,
      "知": 2060,
      "石": 2061,
      "码": 2062,
      "砂": 2063,
      "砕": 2064,
      "硝": 2065,
      "硬": 2066,
      "确": 2067,
      "確": 2068,
      "磨": 2069,
      "礱": 2070,
      "示": 2071,
      "礼": 2072,
      "社": 2073,
      "祝": 2074,
      "神": 2075,
      "票": 2076,
      "祸": 2077,
      "祿": 2078,
      "禅": 2079,
      "福": 2080,
      "禪": 2081,
      "秀": 2082,
      "私": 2083,
      "秉": 2084,
      "秋": 2085,
      "种": 2086,
      "科": 2087,
      "秦": 2088,
      "积": 2089,
      "称": 2090,
      "移": 2091,
      "程": 2092,
      "稱": 2093,
      "稼": 2094,
      "空": 2095,
      "立": 2096,
      "站": 2097,
      "竞": 2098,
      "章": 2099,
      "端": 2100,
      "競": 2101,
      "竹": 2102,
      "笠": 2103,
      "第": 2104,
      "筆": 2105,
      "答": 2106,
      "简": 2107,
      "箕": 2108,
      "管": 2109,
      "箱": 2110,
      "篇": 2111,
      "米": 2112,
      "系": 2113,
      "紂": 2114,
      "紅": 2115,
      "納": 2116,
      "純": 2117,
      "級": 2118,
      "素": 2119,
      "索": 2120,
      "紧": 2121,
      "終": 2122,
      "経": 2123,
      "結": 2124,
      "統": 2125,
      "經": 2126,
      "続": 2127,
      "綺": 2128,
      "総": 2129,
      "線": 2130,
      "縮": 2131,
      "繁": 2132,
      "織": 2133,
      "约": 2134,
      "级": 2135,
      "纸": 2136,
      "纹": 2137,
      "纽": 2138,
      "线": 2139,
      "细": 2140,
      "经": 2141,
      "绞": 2142,
      "统": 2143,
      "维": 2144,
      "网": 2145,
      "罗": 2146,
      "罪": 2147,
      "置": 2148,
      "羅": 2149,
      "美": 2150,
      "群": 2151,
      "義": 2152,
      "羲": 2153,
      "羽": 2154,
      "翁": 2155,
      "翠": 2156,
      "翻": 2157,
      "耀": 2158,
      "老": 2159,
      "考": 2160,
      "者": 2161,
      "而": 2162,
      "耳": 2163,
      "耶": 2164,
      "耸": 2165,
      "联": 2166,
      "肥": 2167,
      "育": 2168,
      "背": 2169,
      "胖": 2170,
      "胜": 2171,
      "胞": 2172,
      "胡": 2173,
      "能": 2174,
      "脱": 2175,
      "腕": 2176,
      "腰": 2177,
      "腹": 2178,
      "腺": 2179,
      "膚": 2180,
      "臂": 2181,
      "臈": 2182,
      "臓": 2183,
      "臘": 2184,
      "臣": 2185,
      "臧": 2186,
      "臨": 2187,
      "自": 2188,
      "至": 2189,
      "致": 2190,
      "臺": 2191,
      "舁": 2192,
      "舅": 2193,
      "舊": 2194,
      "舍": 2195,
      "舐": 2196,
      "舖": 2197,
      "舞": 2198,
      "舣": 2199,
      "舩": 2200,
      "航": 2201,
      "舫": 2202,
      "良": 2203,
      "色": 2204,
      "艳": 2205,
      "节": 2206,
      "芝": 2207,
      "花": 2208,
      "苏": 2209,
      "苑": 2210,
      "若": 2211,
      "英": 2212,
      "茂": 2213,
      "茜": 2214,
      "茨": 2215,
      "茶": 2216,
      "荣": 2217,
      "莉": 2218,
      "莞": 2219,
      "获": 2220,
      "莹": 2221,
      "菜": 2222,
      "華": 2223,
      "菱": 2224,
      "萄": 2225,
      "萧": 2226,
      "萬": 2227,
      "落": 2228,
      "葉": 2229,
      "著": 2230,
      "葡": 2231,
      "蒋": 2232,
      "蒸": 2233,
      "蔓": 2234,
      "蔚": 2235,
      "薇": 2236,
      "薔": 2237,
      "薬": 2238,
      "藏": 2239,
      "藤": 2240,
      "蘇": 2241,
      "虑": 2242,
      "蛋": 2243,
      "蜀": 2244,
      "蝦": 2245,
      "螨": 2246,
      "螳": 2247,
      "螺": 2248,
      "蟲": 2249,
      "血": 2250,
      "衆": 2251,
      "行": 2252,
      "術": 2253,
      "街": 2254,
      "衣": 2255,
      "表": 2256,
      "裂": 2257,
      "裕": 2258,
      "製": 2259,
      "西": 2260,
      "要": 2261,
      "見": 2262,
      "視": 2263,
      "覧": 2264,
      "親": 2265,
      "覺": 2266,
      "见": 2267,
      "观": 2268,
      "视": 2269,
      "觉": 2270,
      "角": 2271,
      "解": 2272,
      "言": 2273,
      "訓": 2274,
      "記": 2275,
      "設": 2276,
      "許": 2277,
      "試": 2278,
      "詩": 2279,
      "話": 2280,
      "誓": 2281,
      "語": 2282,
      "說": 2283,
      "読": 2284,
      "談": 2285,
      "請": 2286,
      "諸": 2287,
      "謑": 2288,
      "證": 2289,
      "计": 2290,
      "讣": 2291,
      "讨": 2292,
      "讯": 2293,
      "记": 2294,
      "讲": 2295,
      "许": 2296,
      "论": 2297,
      "设": 2298,
      "证": 2299,
      "识": 2300,
      "译": 2301,
      "试": 2302,
      "诘": 2303,
      "话": 2304,
      "该": 2305,
      "语": 2306,
      "说": 2307,
      "请": 2308,
      "课": 2309,
      "调": 2310,
      "谢": 2311,
      "谷": 2312,
      "豆": 2313,
      "豊": 2314,
      "貌": 2315,
      "販": 2316,
      "貮": 2317,
      "貴": 2318,
      "賀": 2319,
      "資": 2320,
      "賢": 2321,
      "贞": 2322,
      "负": 2323,
      "贡": 2324,
      "贤": 2325,
      "货": 2326,
      "质": 2327,
      "贱": 2328,
      "贳": 2329,
      "费": 2330,
      "资": 2331,
      "赌": 2332,
      "赛": 2333,
      "赞": 2334,
      "赤": 2335,
      "赵": 2336,
      "赶": 2337,
      "起": 2338,
      "超": 2339,
      "越": 2340,
      "趙": 2341,
      "足": 2342,
      "跋": 2343,
      "跟": 2344,
      "跨": 2345,
      "路": 2346,
      "跳": 2347,
      "踌": 2348,
      "躇": 2349,
      "躍": 2350,
      "身": 2351,
      "軍": 2352,
      "転": 2353,
      "輪": 2354,
      "车": 2355,
      "转": 2356,
      "轮": 2357,
      "载": 2358,
      "较": 2359,
      "辑": 2360,
      "辛": 2361,
      "辞": 2362,
      "辱": 2363,
      "込": 2364,
      "达": 2365,
      "迅": 2366,
      "过": 2367,
      "迎": 2368,
      "运": 2369,
      "近": 2370,
      "返": 2371,
      "这": 2372,
      "进": 2373,
      "连": 2374,
      "迷": 2375,
      "送": 2376,
      "逃": 2377,
      "逆": 2378,
      "选": 2379,
      "透": 2380,
      "途": 2381,
      "通": 2382,
      "逸": 2383,
      "遇": 2384,
      "遊": 2385,
      "道": 2386,
      "達": 2387,
      "遗": 2388,
      "遝": 2389,
      "遣": 2390,
      "遪": 2391,
      "遭": 2392,
      "遲": 2393,
      "遽": 2394,
      "那": 2395,
      "邱": 2396,
      "郎": 2397,
      "郑": 2398,
      "郝": 2399,
      "郡": 2400,
      "部": 2401,
      "郷": 2402,
      "都": 2403,
      "鄂": 2404,
      "鄉": 2405,
      "鄭": 2406,
      "酉": 2407,
      "配": 2408,
      "酒": 2409,
      "采": 2410,
      "釉": 2411,
      "里": 2412,
      "重": 2413,
      "野": 2414,
      "量": 2415,
      "金": 2416,
      "鈍": 2417,
      "鈴": 2418,
      "銀": 2419,
      "鋍": 2420,
      "鋑": 2421,
      "鋒": 2422,
      "鋓": 2423,
      "鋖": 2424,
      "鋘": 2425,
      "鋜": 2426,
      "鋝": 2427,
      "鋞": 2428,
      "鋟": 2429,
      "鐵": 2430,
      "针": 2431,
      "钓": 2432,
      "钢": 2433,
      "钦": 2434,
      "钧": 2435,
      "钱": 2436,
      "铃": 2437,
      "铭": 2438,
      "银": 2439,
      "销": 2440,
      "锈": 2441,
      "锋": 2442,
      "错": 2443,
      "键": 2444,
      "镜": 2445,
      "長": 2446,
      "門": 2447,
      "開": 2448,
      "間": 2449,
      "関": 2450,
      "閣": 2451,
      "閩": 2452,
      "门": 2453,
      "问": 2454,
      "间": 2455,
      "闵": 2456,
      "闻": 2457,
      "闽": 2458,
      "阜": 2459,
      "队": 2460,
      "阪": 2461,
      "防": 2462,
      "阳": 2463,
      "阿": 2464,
      "陀": 2465,
      "际": 2466,
      "陈": 2467,
      "降": 2468,
      "限": 2469,
      "除": 2470,
      "陳": 2471,
      "陵": 2472,
      "陶": 2473,
      "隆": 2474,
      "階": 2475,
      "際": 2476,
      "难": 2477,
      "雄": 2478,
      "雅": 2479,
      "集": 2480,
      "雛": 2481,
      "離": 2482,
      "雪": 2483,
      "雲": 2484,
      "雷": 2485,
      "電": 2486,
      "需": 2487,
      "青": 2488,
      "静": 2489,
      "非": 2490,
      "面": 2491,
      "革": 2492,
      "靳": 2493,
      "音": 2494,
      "項": 2495,
      "須": 2496,
      "頑": 2497,
      "頭": 2498,
      "顗": 2499,
      "页": 2500,
      "顶": 2501,
      "顾": 2502,
      "预": 2503,
      "颐": 2504,
      "颖": 2505,
      "题": 2506,
      "颜": 2507,
      "風": 2508,
      "风": 2509,
      "飛": 2510,
      "飞": 2511,
      "食": 2512,
      "飯": 2513,
      "飼": 2514,
      "館": 2515,
      "饮": 2516,
      "首": 2517,
      "香": 2518,
      "馬": 2519,
      "駄": 2520,
      "駅": 2521,
      "験": 2522,
      "騜": 2523,
      "马": 2524,
      "验": 2525,
      "髄": 2526,
      "體": 2527,
      "高": 2528,
      "鬼": 2529,
      "魔": 2530,
      "鰀": 2531,
      "鰃": 2532,
      "鰄": 2533,
      "鰈": 2534,
      "鰊": 2535,
      "鰎": 2536,
      "鱼": 2537,
      "鲁": 2538,
      "鲞": 2539,
      "鳳": 2540,
      "鴻": 2541,
      "鵜": 2542,
      "鹈": 2543,
      "鹤": 2544,
      "鹿": 2545,
      "麗": 2546,
      "麩": 2547,
      "麺": 2548,
      "黃": 2549,
      "黄": 2550,
      "黒": 2551,
      "黚": 2552,
      "黡": 2553,
      "黨": 2554,
      "黮": 2555,
      "黵": 2556,
      "黷": 2557,
      "鼻": 2558,
      "齡": 2559,
      "龍": 2560,
      "龙": 2561,
      "ꭰ": 2562,
      "ꭲ": 2563,
      "ꮊ": 2564,
      "검": 2565,
      "고": 2566,
      "구": 2567,
      "국": 2568,
      "군": 2569,
      "김": 2570,
      "뀌": 2571,
      "나": 2572,
      "널": 2573,
      "녀": 2574,
      "년": 2575,
      "누": 2576,
      "는": 2577,
      "니": 2578,
      "님": 2579,
      "다": 2580,
      "단": 2581,
      "당": 2582,
      "대": 2583,
      "돌": 2584,
      "드": 2585,
      "로": 2586,
      "루": 2587,
      "류": 2588,
      "르": 2589,
      "마": 2590,
      "막": 2591,
      "맨": 2592,
      "문": 2593,
      "미": 2594,
      "바": 2595,
      "박": 2596,
      "반": 2597,
      "번": 2598,
      "법": 2599,
      "베": 2600,
      "별": 2601,
      "비": 2602,
      "빛": 2603,
      "사": 2604,
      "서": 2605,
      "성": 2606,
      "세": 2607,
      "셀": 2608,
      "셜": 2609,
      "소": 2610,
      "스": 2611,
      "습": 2612,
      "시": 2613,
      "신": 2614,
      "아": 2615,
      "어": 2616,
      "었": 2617,
      "에": 2618,
      "엘": 2619,
      "엠": 2620,
      "영": 2621,
      "왕": 2622,
      "요": 2623,
      "웅": 2624,
      "월": 2625,
      "유": 2626,
      "으": 2627,
      "이": 2628,
      "인": 2629,
      "일": 2630,
      "자": 2631,
      "작": 2632,
      "적": 2633,
      "조": 2634,
      "존": 2635,
      "주": 2636,
      "지": 2637,
      "짝": 2638,
      "창": 2639,
      "천": 2640,
      "체": 2641,
      "추": 2642,
      "층": 2643,
      "치": 2644,
      "킨": 2645,
      "터": 2646,
      "톨": 2647,
      "티": 2648,
      "폐": 2649,
      "한": 2650,
      "향": 2651,
      "호": 2652,
      "환": 2653,
      "회": 2654,
      "훈": 2655,
      "": 2656,
      "": 2657,
      "": 2658,
      "": 2659,
      "": 2660,
      "": 2661,
      "": 2662,
      "": 2663,
      "": 2664,
      "": 2665,
      "": 2666,
      "": 2667,
      "": 2668,
      "": 2669,
      "": 2670,
      "": 2671,
      "": 2672,
      "": 2673,
      "": 2674,
      "": 2675,
      "": 2676,
      "": 2677,
      "": 2678,
      "ﬁ": 2679,
      "ﬂ": 2680,
      "ﷲ": 2681,
      "︰": 2682,
      "﻿": 2683,
      "！": 2684,
      "（": 2685,
      "）": 2686,
      "＊": 2687,
      "，": 2688,
      "－": 2689,
      "．": 2690,
      "：": 2691,
      "；": 2692,
      "？": 2693,
      "ｔ": 2694,
      "､": 2695,
      "ｲ": 2696,
      "ｿ": 2697,
      "ﾜ": 2698,
      "ﾟ": 2699,
      "￡": 2700,
      "￥": 2701,
      "￼": 2702,
      "�": 2703,
      "𐌰": 2704,
      "𐌴": 2705,
      "𐌸": 2706,
      "𐌼": 2707,
      "𐌽": 2708,
      "𐍃": 2709,
      "𐍉": 2710,
      "𠐄": 2711,
      "𢥲": 2712,
      "𧵮": 2713,
      "𲠄": 2714,
      "𲠤": 2715,
      "򮬩": 2716,
      "򮮥": 2717,
      "򲤥": 2718,
      "򲵮": 2719,
      "򴩧": 2720,
      "en": 2721,
      "er": 2722,
      "ch": 2723,
      "in": 2724,
      "un": 2725,
      "ie": 2726,
      "st": 2727,
      "ei": 2728,
      "der": 2729,
      "an": 2730,
      "die": 2731,
      "ge": 2732,
      "ich": 2733,
      "ein": 2734,
      "sch": 2735,
      "on": 2736,
      "au": 2737,
      "und": 2738,
      "es": 2739,
      "ung": 2740,
      "al": 2741,
      "den": 2742,
      "te": 2743,
      "ar": 2744,
      "ti": 2745,
      "or": 2746,
      "zu": 2747,
      "as": 2748,
      "ten": 2749,
      "de": 2750,
      "it": 2751,
      "be": 2752,
      "gen": 2753,
      "ver": 2754,
      "re": 2755,
      "se": 2756,
      "wi": 2757,
      "ur": 2758,
      "ll": 2759,
      "ber": 2760,
      "ter": 2761,
      "hr": 2762,
      "das": 2763,
      "lich": 2764,
      "ra": 2765,
      "men": 2766,
      "fü": 2767,
      "le": 2768,
      "mit": 2769,
      "wir": 2770,
      "auf": 2771,
      "eit": 2772,
      "at": 2773,
      "im": 2774,
      "ro": 2775,
      "ist": 2776,
      "eine": 2777,
      "is": 2778,
      "von": 2779,
      "aus": 2780,
      "ab": 2781,
      "ste": 2782,
      "om": 2783,
      "icht": 2784,
      "ier": 2785,
      "ne": 2786,
      "sp": 2787,
      "für": 2788,
      "so": 2789,
      "isch": 2790,
      "tion": 2791,
      "tz": 2792,
      "um": 2793,
      "sie": 2794,
      "des": 2795,
      "sen": 2796,
      "wer": 2797,
      "ach": 2798,
      "am": 2799,
      "ent": 2800,
      "ser": 2801,
      "ck": 2802,
      "ig": 2803,
      "ol": 2804,
      "da": 2805,
      "vor": 2806,
      "dem": 2807,
      "sich": 2808,
      "si": 2809,
      "el": 2810,
      "ft": 2811,
      "la": 2812,
      "ungen": 2813,
      "über": 2814,
      "nen": 2815,
      "rei": 2816,
      "wei": 2817,
      "op": 2818,
      "ben": 2819,
      "and": 2820,
      "her": 2821,
      "nicht": 2822,
      "än": 2823,
      "me": 2824,
      "bei": 2825,
      "ind": 2826,
      "kom": 2827,
      "auch": 2828,
      "gr": 2829,
      "ff": 2830,
      "us": 2831,
      "il": 2832,
      "wie": 2833,
      "kt": 2834,
      "werden": 2835,
      "he": 2836,
      "pro": 2837,
      "dass": 2838,
      "for": 2839,
      "unter": 2840,
      "ger": 2841,
      "ma": 2842,
      "lie": 2843,
      "di": 2844,
      "eur": 2845,
      "ann": 2846,
      "wen": 2847,
      "ischen": 2848,
      "all": 2849,
      "ah": 2850,
      "scha": 2851,
      "hal": 2852,
      "ho": 2853,
      "lei": 2854,
      "europ": 2855,
      "gt": 2856,
      "ahr": 2857,
      "chen": 2858,
      "hen": 2859,
      "als": 2860,
      "einer": 2861,
      "sind": 2862,
      "pr": 2863,
      "ungs": 2864,
      "diese": 2865,
      "je": 2866,
      "stell": 2867,
      "sten": 2868,
      "ation": 2869,
      "nach": 2870,
      "we": 2871,
      "schen": 2872,
      "wird": 2873,
      "einen": 2874,
      "aben": 2875,
      "iel": 2876,
      "ih": 2877,
      "oder": 2878,
      "tr": 2879,
      "ts": 2880,
      "kon": 2881,
      "ön": 2882,
      "imm": 2883,
      "fr": 2884,
      "tel": 2885,
      "och": 2886,
      "sta": 2887,
      "hat": 2888,
      "war": 2889,
      "mö": 2890,
      "00": 2891,
      "ür": 2892,
      "lo": 2893,
      "ut": 2894,
      "ien": 2895,
      "zur": 2896,
      "par": 2897,
      "schaft": 2898,
      "ern": 2899,
      "br": 2900,
      "haben": 2901,
      "tei": 2902,
      "sam": 2903,
      "dur": 2904,
      "unser": 2905,
      "wo": 2906,
      "fe": 2907,
      "durch": 2908,
      "kl": 2909,
      "europä": 2910,
      "ssen": 2911,
      "kön": 2912,
      "tig": 2913,
      "lichen": 2914,
      "gan": 2915,
      "lle": 2916,
      "bes": 2917,
      "komm": 2918,
      "ische": 2919,
      "sion": 2920,
      "cht": 2921,
      "dar": 2922,
      "wä": 2923,
      "ta": 2924,
      "geb": 2925,
      "iti": 2926,
      "tra": 2927,
      "li": 2928,
      "ken": 2929,
      "che": 2930,
      "ing": 2931,
      "ze": 2932,
      "ion": 2933,
      "fin": 2934,
      "tet": 2935,
      "ko": 2936,
      "hin": 2937,
      "hl": 2938,
      "gem": 2939,
      "ihr": 2940,
      "to": 2941,
      "heit": 2942,
      "ru": 2943,
      "ander": 2944,
      "dies": 2945,
      "beit": 2946,
      "ul": 2947,
      "llen": 2948,
      "keit": 2949,
      "man": 2950,
      "wur": 2951,
      "ir": 2952,
      "einem": 2953,
      "kann": 2954,
      "lan": 2955,
      "ort": 2956,
      "was": 2957,
      "herr": 2958,
      "sa": 2959,
      "bar": 2960,
      "ue": 2961,
      "liche": 2962,
      "teil": 2963,
      "setz": 2964,
      "wel": 2965,
      "ün": 2966,
      "änder": 2967,
      "uss": 2968,
      "tiv": 2969,
      "hmen": 2970,
      "können": 2971,
      "gel": 2972,
      "zum": 2973,
      "wenn": 2974,
      "ht": 2975,
      "inter": 2976,
      "gesch": 2977,
      "führ": 2978,
      "itä": 2979,
      "ke": 2980,
      "per": 2981,
      "kommis": 2982,
      "zei": 2983,
      "ment": 2984,
      "fra": 2985,
      "ha": 2986,
      "ör": 2987,
      "fen": 2988,
      "alle": 2989,
      "zi": 2990,
      "du": 2991,
      "chte": 2992,
      "prä": 2993,
      "ihre": 2994,
      "son": 2995,
      "ieren": 2996,
      "nur": 2997,
      "glich": 2998,
      "ück": 2999,
      "arbeit": 3000,
      "sel": 3001,
      "uns": 3002,
      "iert": 3003,
      "mehr": 3004,
      "dieser": 3005,
      "fol": 3006,
      "ktion": 3007,
      "är": 3008,
      "utz": 3009,
      "land": 3010,
      "pol": 3011,
      "the": 3012,
      "jahr": 3013,
      "zeit": 3014,
      "mü": 3015,
      "ffen": 3016,
      "gegen": 3017,
      "weiter": 3018,
      "aber": 3019,
      "europäischen": 3020,
      "lä": 3021,
      "noch": 3022,
      "lin": 3023,
      "ot": 3024,
      "ri": 3025,
      "gra": 3026,
      "pf": 3027,
      "ahl": 3028,
      "eiten": 3029,
      "reg": 3030,
      "han": 3031,
      "nis": 3032,
      "gi": 3033,
      "fahr": 3034,
      "siden": 3035,
      "aten": 3036,
      "kommission": 3037,
      "mar": 3038,
      "bt": 3039,
      "su": 3040,
      "zie": 3041,
      "lu": 3042,
      "ßen": 3043,
      "ierung": 3044,
      "et": 3045,
      "ner": 3046,
      "daß": 3047,
      "ik": 3048,
      "sein": 3049,
      "ak": 3050,
      "fer": 3051,
      "em": 3052,
      "immer": 3053,
      "soll": 3054,
      "del": 3055,
      "zen": 3056,
      "ob": 3057,
      "200": 3058,
      "sicher": 3059,
      "dig": 3060,
      "gro": 3061,
      "po": 3062,
      "grund": 3063,
      "igen": 3064,
      "alen": 3065,
      "sident": 3066,
      "tier": 3067,
      "hotel": 3068,
      "wurde": 3069,
      "ges": 3070,
      "vi": 3071,
      "welt": 3072,
      "vo": 3073,
      "politi": 3074,
      "glie": 3075,
      "kommen": 3076,
      "qu": 3077,
      "wick": 3078,
      "dern": 3079,
      "sehr": 3080,
      "hä": 3081,
      "dr": 3082,
      "bis": 3083,
      "tigen": 3084,
      "mer": 3085,
      "ce": 3086,
      "ant": 3087,
      "mitglie": 3088,
      "str": 3089,
      "sy": 3090,
      "kr": 3091,
      "pa": 3092,
      "möglich": 3093,
      "rat": 3094,
      "nah": 3095,
      "ord": 3096,
      "hn": 3097,
      "präsident": 3098,
      "pe": 3099,
      "nehmen": 3100,
      "halten": 3101,
      "parla": 3102,
      "assen": 3103,
      "müssen": 3104,
      "ütz": 3105,
      "hier": 3106,
      "min": 3107,
      "nation": 3108,
      "entwick": 3109,
      "ale": 3110,
      "det": 3111,
      "tre": 3112,
      "ität": 3113,
      "glei": 3114,
      "gemein": 3115,
      "neu": 3116,
      "stimm": 3117,
      "mittel": 3118,
      "stat": 3119,
      "eines": 3120,
      "ster": 3121,
      "spiel": 3122,
      "ige": 3123,
      "mo": 3124,
      "union": 3125,
      "fä": 3126,
      "ange": 3127,
      "wirt": 3128,
      "fall": 3129,
      "wor": 3130,
      "zusam": 3131,
      "zwei": 3132,
      "zusammen": 3133,
      "ute": 3134,
      "diesem": 3135,
      "mal": 3136,
      "sche": 3137,
      "viel": 3138,
      "doch": 3139,
      "na": 3140,
      "wirtschaft": 3141,
      "bil": 3142,
      "staaten": 3143,
      "rech": 3144,
      "ßer": 3145,
      "anz": 3146,
      "stand": 3147,
      "atz": 3148,
      "ess": 3149,
      "schie": 3150,
      "dieses": 3151,
      "richt": 3152,
      "berei": 3153,
      "unden": 3154,
      "besch": 3155,
      "kte": 3156,
      "19": 3157,
      "tung": 3158,
      "dung": 3159,
      "ok": 3160,
      "tro": 3161,
      "ank": 3162,
      "geben": 3163,
      "mitglied": 3164,
      "trag": 3165,
      "deut": 3166,
      "stellen": 3167,
      "ve": 3168,
      "end": 3169,
      "ex": 3170,
      "wich": 3171,
      "tionen": 3172,
      "eu": 3173,
      "lung": 3174,
      "ga": 3175,
      "ihnen": 3176,
      "stra": 3177,
      "möchte": 3178,
      "produ": 3179,
      "lau": 3180,
      "dien": 3181,
      "fre": 3182,
      "stän": 3183,
      "schlie": 3184,
      "verb": 3185,
      "co": 3186,
      "net": 3187,
      "eigen": 3188,
      "mu": 3189,
      "währ": 3190,
      "bereit": 3191,
      "mach": 3192,
      "vom": 3193,
      "weise": 3194,
      "länder": 3195,
      "vorsch": 3196,
      "ka": 3197,
      "unsere": 3198,
      "bie": 3199,
      "lage": 3200,
      "ausge": 3201,
      "wischen": 3202,
      "stütz": 3203,
      "bericht": 3204,
      "gie": 3205,
      "forder": 3206,
      "onder": 3207,
      "zwischen": 3208,
      "ass": 3209,
      "stehen": 3210,
      "syste": 3211,
      "handel": 3212,
      "ble": 3213,
      "besonder": 3214,
      "gibt": 3215,
      "frau": 3216,
      "tige": 3217,
      "haus": 3218,
      "vie": 3219,
      "chn": 3220,
      "halb": 3221,
      "menschen": 3222,
      "gew": 3223,
      "legen": 3224,
      "zahl": 3225,
      "sicht": 3226,
      "sit": 3227,
      "leben": 3228,
      "pl": 3229,
      "öff": 3230,
      "sowie": 3231,
      "unterstütz": 3232,
      "arbei": 3233,
      "infor": 3234,
      "inst": 3235,
      "ad": 3236,
      "sä": 3237,
      "gar": 3238,
      "hör": 3239,
      "gleich": 3240,
      "bo": 3241,
      "sehen": 3242,
      "sei": 3243,
      "stellt": 3244,
      "ins": 3245,
      "bed": 3246,
      "parlament": 3247,
      "wirk": 3248,
      "ften": 3249,
      "pun": 3250,
      "gram": 3251,
      "frei": 3252,
      "europäische": 3253,
      "gung": 3254,
      "no": 3255,
      "wieder": 3256,
      "denen": 3257,
      "mi": 3258,
      "maß": 3259,
      "wür": 3260,
      "zent": 3261,
      "ang": 3262,
      "bst": 3263,
      "nä": 3264,
      "hand": 3265,
      "ihrer": 3266,
      "innen": 3267,
      "muss": 3268,
      "proble": 3269,
      "fest": 3270,
      "bu": 3271,
      "fach": 3272,
      "keine": 3273,
      "enz": 3274,
      "mon": 3275,
      "nung": 3276,
      "recht": 3277,
      "damit": 3278,
      "up": 3279,
      "iz": 3280,
      "bau": 3281,
      "zeu": 3282,
      "hö": 3283,
      "ker": 3284,
      "fa": 3285,
      "finden": 3286,
      "rit": 3287,
      "eben": 3288,
      "wort": 3289,
      "dann": 3290,
      "rechen": 3291,
      "frage": 3292,
      "europa": 3293,
      "bli": 3294,
      "wohl": 3295,
      "hau": 3296,
      "letz": 3297,
      "com": 3298,
      "hei": 3299,
      "spe": 3300,
      "20": 3301,
      "anderen": 3302,
      "wa": 3303,
      "mitgliedstaaten": 3304,
      "ziel": 3305,
      "nat": 3306,
      "informa": 3307,
      "ler": 3308,
      "form": 3309,
      "besser": 3310,
      "verfü": 3311,
      "fern": 3312,
      "reich": 3313,
      "pt": 3314,
      "schl": 3315,
      "ingen": 3316,
      "äu": 3317,
      "unternehmen": 3318,
      "do": 3319,
      "steht": 3320,
      "sor": 3321,
      "ca": 3322,
      "schei": 3323,
      "daten": 3324,
      "groß": 3325,
      "dt": 3326,
      "gesetz": 3327,
      "reichen": 3328,
      "ischer": 3329,
      "keiten": 3330,
      "art": 3331,
      "alt": 3332,
      "brauch": 3333,
      "hil": 3334,
      "ös": 3335,
      "voll": 3336,
      "seit": 3337,
      "trä": 3338,
      "cken": 3339,
      "tt": 3340,
      "og": 3341,
      "hne": 3342,
      "selbst": 3343,
      "bür": 3344,
      "gehen": 3345,
      "diesen": 3346,
      "fort": 3347,
      "satz": 3348,
      "fahren": 3349,
      "fl": 3350,
      "bereich": 3351,
      "neue": 3352,
      "bi": 3353,
      "schließ": 3354,
      "nahmen": 3355,
      "ffe": 3356,
      "zentr": 3357,
      "markt": 3358,
      "ja": 3359,
      "techn": 3360,
      "bürger": 3361,
      "iger": 3362,
      "gang": 3363,
      "zimmer": 3364,
      "program": 3365,
      "rich": 3366,
      "wissen": 3367,
      "heute": 3368,
      "igkeit": 3369,
      "kur": 3370,
      "10": 3371,
      "system": 3372,
      "lag": 3373,
      "wurden": 3374,
      "seine": 3375,
      "tive": 3376,
      "internation": 3377,
      "os": 3378,
      "ihren": 3379,
      "sicherheit": 3380,
      "sozi": 3381,
      "spra": 3382,
      "unserer": 3383,
      "kun": 3384,
      "sprechen": 3385,
      "aum": 3386,
      "verein": 3387,
      "lassen": 3388,
      "stellung": 3389,
      "habe": 3390,
      "stadt": 3391,
      "aussch": 3392,
      "öffent": 3393,
      "jedoch": 3394,
      "sol": 3395,
      "aut": 3396,
      "hän": 3397,
      "mus": 3398,
      "bewer": 3399,
      "wach": 3400,
      "sondern": 3401,
      "spr": 3402,
      "mich": 3403,
      "res": 3404,
      "rechts": 3405,
      "kolle": 3406,
      "aller": 3407,
      "leist": 3408,
      "dis": 3409,
      "bin": 3410,
      "grö": 3411,
      "weit": 3412,
      "lt": 3413,
      "führen": 3414,
      "punkt": 3415,
      "alis": 3416,
      "folgen": 3417,
      "ganz": 3418,
      "region": 3419,
      "ommen": 3420,
      "entwicklung": 3421,
      "pen": 3422,
      "weil": 3423,
      "ohne": 3424,
      "staat": 3425,
      "zug": 3426,
      "ven": 3427,
      "halt": 3428,
      "politik": 3429,
      "nutz": 3430,
      "lagen": 3431,
      "chten": 3432,
      "con": 3433,
      "betr": 3434,
      "ments": 3435,
      "person": 3436,
      "schutz": 3437,
      "sk": 3438,
      "sto": 3439,
      "bereits": 3440,
      "sollte": 3441,
      "spro": 3442,
      "ds": 3443,
      "prei": 3444,
      "kehr": 3445,
      "pri": 3446,
      "gu": 3447,
      "tur": 3448,
      "dru": 3449,
      "tzt": 3450,
      "tern": 3451,
      "abge": 3452,
      "licher": 3453,
      "not": 3454,
      "ss": 3455,
      "dan": 3456,
      "maßnahmen": 3457,
      "viele": 3458,
      "dazu": 3459,
      "fun": 3460,
      "uer": 3461,
      "verschie": 3462,
      "kre": 3463,
      "inn": 3464,
      "andere": 3465,
      "beg": 3466,
      "hlen": 3467,
      "wichtig": 3468,
      "neuen": 3469,
      "gesam": 3470,
      "hol": 3471,
      "entschei": 3472,
      "tran": 3473,
      "einz": 3474,
      "jahren": 3475,
      "sach": 3476,
      "weg": 3477,
      "führt": 3478,
      "sollten": 3479,
      "essen": 3480,
      "nie": 3481,
      "nisse": 3482,
      "ia": 3483,
      "denn": 3484,
      "gut": 3485,
      "stru": 3486,
      "begr": 3487,
      "fragen": 3488,
      "va": 3489,
      "kosten": 3490,
      "antwort": 3491,
      "part": 3492,
      "ba": 3493,
      "allen": 3494,
      "liegt": 3495,
      "bestimm": 3496,
      "äf": 3497,
      "cher": 3498,
      "qual": 3499,
      "sar": 3500,
      "ph": 3501,
      "tag": 3502,
      "erst": 3503,
      "machen": 3504,
      "mei": 3505,
      "of": 3506,
      "finanz": 3507,
      "außer": 3508,
      "organ": 3509,
      "bit": 3510,
      "jetzt": 3511,
      "rechte": 3512,
      "rahmen": 3513,
      "einige": 3514,
      "regel": 3515,
      "tik": 3516,
      "stär": 3517,
      "inner": 3518,
      "esse": 3519,
      "deu": 3520,
      "druck": 3521,
      "tisch": 3522,
      "tat": 3523,
      "tieren": 3524,
      "ierte": 3525,
      "hält": 3526,
      "star": 3527,
      "kar": 3528,
      "kten": 3529,
      "bietet": 3530,
      "ener": 3531,
      "verwen": 3532,
      "ele": 3533,
      "einfach": 3534,
      "berich": 3535,
      "meine": 3536,
      "setzen": 3537,
      "if": 3538,
      "kam": 3539,
      "schrit": 3540,
      "besondere": 3541,
      "web": 3542,
      "während": 3543,
      "pu": 3544,
      "ktur": 3545,
      "nun": 3546,
      "ungsan": 3547,
      "geht": 3548,
      "genommen": 3549,
      "zeich": 3550,
      "erfol": 3551,
      "ju": 3552,
      "flu": 3553,
      "kul": 3554,
      "öl": 3555,
      "dire": 3556,
      "wahl": 3557,
      "mein": 3558,
      "ic": 3559,
      "tigt": 3560,
      "under": 3561,
      "ländern": 3562,
      "schon": 3563,
      "ende": 3564,
      "findet": 3565,
      "wes": 3566,
      "sagen": 3567,
      "falls": 3568,
      "bel": 3569,
      "funktion": 3570,
      "ahre": 3571,
      "för": 3572,
      "informationen": 3573,
      "ktor": 3574,
      "demok": 3575,
      "ierten": 3576,
      "sätz": 3577,
      "darauf": 3578,
      "sell": 3579,
      "leg": 3580,
      "lös": 3581,
      "dafür": 3582,
      "programm": 3583,
      "beispiel": 3584,
      "que": 3585,
      "seiner": 3586,
      "kün": 3587,
      "könn": 3588,
      "kin": 3589,
      "gebie": 3590,
      "stu": 3591,
      "fel": 3592,
      "blick": 3593,
      "lang": 3594,
      "klär": 3595,
      "grün": 3596,
      "linie": 3597,
      "tä": 3598,
      "raum": 3599,
      "sti": 3600,
      "wert": 3601,
      "posi": 3602,
      "waren": 3603,
      "ag": 3604,
      "tiven": 3605,
      "ersten": 3606,
      "jahre": 3607,
      "will": 3608,
      "itt": 3609,
      "mir": 3610,
      "bs": 3611,
      "dienst": 3612,
      "tex": 3613,
      "kunden": 3614,
      "seite": 3615,
      "komp": 3616,
      "zun": 3617,
      "gesell": 3618,
      "proje": 3619,
      "grup": 3620,
      "zurück": 3621,
      "ationen": 3622,
      "ks": 3623,
      "daher": 3624,
      "natür": 3625,
      "kauf": 3626,
      "hm": 3627,
      "zw": 3628,
      "gestellt": 3629,
      "stau": 3630,
      "ine": 3631,
      "kunft": 3632,
      "ren": 3633,
      "frü": 3634,
      "dab": 3635,
      "stim": 3636,
      "mä": 3637,
      "arbeiten": 3638,
      "lossen": 3639,
      "gemeinschaft": 3640,
      "tiert": 3641,
      "gl": 3642,
      "ard": 3643,
      "acht": 3644,
      "lauf": 3645,
      "nahme": 3646,
      "herrn": 3647,
      "statt": 3648,
      "zer": 3649,
      "vol": 3650,
      "geschä": 3651,
      "liegen": 3652,
      "dabei": 3653,
      "vorschlag": 3654,
      "th": 3655,
      "klar": 3656,
      "würde": 3657,
      "kommissar": 3658,
      "verkehr": 3659,
      "fu": 3660,
      "kra": 3661,
      "bezie": 3662,
      "angeb": 3663,
      "schne": 3664,
      "tischen": 3665,
      "ings": 3666,
      "setzung": 3667,
      "problem": 3668,
      "ordnung": 3669,
      "notwen": 3670,
      "drei": 3671,
      "les": 3672,
      "stä": 3673,
      "tem": 3674,
      "ital": 3675,
      "plan": 3676,
      "go": 3677,
      "hoch": 3678,
      "län": 3679,
      "fo": 3680,
      "bas": 3681,
      "allem": 3682,
      "dat": 3683,
      "heiten": 3684,
      "wollen": 3685,
      "namen": 3686,
      "lichkeit": 3687,
      "ide": 3688,
      "organis": 3689,
      "ap": 3690,
      "199": 3691,
      "prü": 3692,
      "nor": 3693,
      "bal": 3694,
      "umf": 3695,
      "bet": 3696,
      "wahr": 3697,
      "welche": 3698,
      "darüber": 3699,
      "arbeits": 3700,
      "pra": 3701,
      "worden": 3702,
      "verbesser": 3703,
      "los": 3704,
      "einzel": 3705,
      "insbesondere": 3706,
      "unseren": 3707,
      "frie": 3708,
      "itu": 3709,
      "verfahren": 3710,
      "deshalb": 3711,
      "glau": 3712,
      "beim": 3713,
      "flug": 3714,
      "fon": 3715,
      "werk": 3716,
      "umwelt": 3717,
      "haupt": 3718,
      "bild": 3719,
      "strate": 3720,
      "gend": 3721,
      "san": 3722,
      "servi": 3723,
      "bringen": 3724,
      "kontro": 3725,
      "führung": 3726,
      "gemeinsam": 3727,
      "anwen": 3728,
      "uni": 3729,
      "fehl": 3730,
      "legt": 3731,
      "fäh": 3732,
      "seiten": 3733,
      "akt": 3734,
      "ausschuss": 3735,
      "licht": 3736,
      "also": 3737,
      "zo": 3738,
      "ustr": 3739,
      "zü": 3740,
      "etwas": 3741,
      "parlaments": 3742,
      "benutz": 3743,
      "ßt": 3744,
      "gest": 3745,
      "ße": 3746,
      "mor": 3747,
      "verantwort": 3748,
      "tigung": 3749,
      "schein": 3750,
      "ahn": 3751,
      "vertrag": 3752,
      "tragen": 3753,
      "tun": 3754,
      "15": 3755,
      "ware": 3756,
      "port": 3757,
      "aler": 3758,
      "erfolg": 3759,
      "fraktion": 3760,
      "erhalten": 3761,
      "amer": 3762,
      "einge": 3763,
      "schul": 3764,
      "gangen": 3765,
      "isten": 3766,
      "gehör": 3767,
      "kü": 3768,
      "ure": 3769,
      "tions": 3770,
      "einmal": 3771,
      "energie": 3772,
      "mel": 3773,
      "struktur": 3774,
      "bieten": 3775,
      "entwickel": 3776,
      "inte": 3777,
      "zusammenarbeit": 3778,
      "gabe": 3779,
      "verw": 3780,
      "ere": 3781,
      "üs": 3782,
      "mis": 3783,
      "merk": 3784,
      "fam": 3785,
      "schließlich": 3786,
      "schaften": 3787,
      "äm": 3788,
      "letzten": 3789,
      "geschäft": 3790,
      "sprache": 3791,
      "industr": 3792,
      "moder": 3793,
      "kor": 3794,
      "schaffen": 3795,
      "treten": 3796,
      "assung": 3797,
      "iff": 3798,
      "unterstützung": 3799,
      "mente": 3800,
      "olog": 3801,
      "wasser": 3802,
      "euro": 3803,
      "kenn": 3804,
      "bedeu": 3805,
      "natürlich": 3806,
      "hilfe": 3807,
      "erklär": 3808,
      "ina": 3809,
      "ihrem": 3810,
      "macht": 3811,
      "bekann": 3812,
      "jeder": 3813,
      "glichen": 3814,
      "aktiv": 3815,
      "beding": 3816,
      "lebens": 3817,
      "regierung": 3818,
      "darf": 3819,
      "digen": 3820,
      "ci": 3821,
      "offen": 3822,
      "änderungsan": 3823,
      "mill": 3824,
      "gesellschaft": 3825,
      "spar": 3826,
      "tte": 3827,
      "steuer": 3828,
      "sitz": 3829,
      "famil": 3830,
      "itäten": 3831,
      "bl": 3832,
      "stimmung": 3833,
      "uf": 3834,
      "richtung": 3835,
      "ima": 3836,
      "lungs": 3837,
      "bitte": 3838,
      "vier": 3839,
      "ichte": 3840,
      "preis": 3841,
      "wett": 3842,
      "treffen": 3843,
      "12": 3844,
      "alter": 3845,
      "lungen": 3846,
      "rück": 3847,
      "soft": 3848,
      "gesund": 3849,
      "platz": 3850,
      "18": 3851,
      "gä": 3852,
      "auer": 3853,
      "bur": 3854,
      "fil": 3855,
      "besteht": 3856,
      "besu": 3857,
      "met": 3858,
      "por": 3859,
      "30": 3860,
      "eig": 3861,
      "wegen": 3862,
      "chst": 3863,
      "ständig": 3864,
      "oren": 3865,
      "cen": 3866,
      "meiner": 3867,
      "institu": 3868,
      "entsprechen": 3869,
      "bat": 3870,
      "blei": 3871,
      "forsch": 3872,
      "großen": 3873,
      "jen": 3874,
      "seinen": 3875,
      "versu": 3876,
      "industrie": 3877,
      "wäre": 3878,
      "förder": 3879,
      "ade": 3880,
      "ober": 3881,
      "oliti": 3882,
      "weitere": 3883,
      "wohn": 3884,
      "deren": 3885,
      "ku": 3886,
      "abhän": 3887,
      "alles": 3888,
      "vielen": 3889,
      "rie": 3890,
      "minist": 3891,
      "kollegen": 3892,
      "große": 3893,
      "situ": 3894,
      "vorge": 3895,
      "gere": 3896,
      "bahn": 3897,
      "vis": 3898,
      "handelt": 3899,
      "möglichkeit": 3900,
      "dlich": 3901,
      "unterschie": 3902,
      "are": 3903,
      "asse": 3904,
      "sagt": 3905,
      "ller": 3906,
      "terstat": 3907,
      "entfern": 3908,
      "ergeb": 3909,
      "ismus": 3910,
      "hof": 3911,
      "bus": 3912,
      "kinder": 3913,
      "wettbewer": 3914,
      "thema": 3915,
      "deutsch": 3916,
      "stan": 3917,
      "sü": 3918,
      "berichterstat": 3919,
      "richtlinie": 3920,
      "sport": 3921,
      "bung": 3922,
      "stre": 3923,
      "spoliti": 3924,
      "schwi": 3925,
      "hel": 3926,
      "bedeut": 3927,
      "ac": 3928,
      "alten": 3929,
      "zeigt": 3930,
      "tische": 3931,
      "träge": 3932,
      "erforder": 3933,
      "freund": 3934,
      "muß": 3935,
      "ni": 3936,
      "000": 3937,
      "politischen": 3938,
      "span": 3939,
      "kommt": 3940,
      "gewähr": 3941,
      "achten": 3942,
      "heraus": 3943,
      "halts": 3944,
      "notwendig": 3945,
      "netz": 3946,
      "service": 3947,
      "besonders": 3948,
      "hungen": 3949,
      "dort": 3950,
      "gesundheit": 3951,
      "fi": 3952,
      "bedingungen": 3953,
      "olo": 3954,
      "lex": 3955,
      "ign": 3956,
      "amerik": 3957,
      "verfügung": 3958,
      "50": 3959,
      "beschäf": 3960,
      "internationalen": 3961,
      "völ": 3962,
      "betrie": 3963,
      "zess": 3964,
      "restau": 3965,
      "gesetzt": 3966,
      "igung": 3967,
      "pal": 3968,
      "bedeutung": 3969,
      "kein": 3970,
      "tlich": 3971,
      "schri": 3972,
      "zukunft": 3973,
      "verbind": 3974,
      "wirklich": 3975,
      "schließen": 3976,
      "sowohl": 3977,
      "tikel": 3978,
      "internet": 3979,
      "ban": 3980,
      "verbrauch": 3981,
      "tigkeit": 3982,
      "käm": 3983,
      "davon": 3984,
      "probleme": 3985,
      "one": 3986,
      "restaur": 3987,
      "abkommen": 3988,
      "zep": 3989,
      "spezi": 3990,
      "weisen": 3991,
      "meer": 3992,
      "stück": 3993,
      "ichts": 3994,
      "demokra": 3995,
      "partner": 3996,
      "schä": 3997,
      "schwer": 3998,
      "wär": 3999,
      "sh": 4000,
      "dessen": 4001,
      "vertr": 4002,
      "gegenüber": 4003,
      "lösung": 4004,
      "bü": 4005,
      "site": 4006,
      "pan": 4007,
      "personen": 4008,
      "chi": 4009,
      "erreichen": 4010,
      "artikel": 4011,
      "direkt": 4012,
      "pers": 4013,
      "völker": 4014,
      "liefer": 4015,
      "frauen": 4016,
      "gelegen": 4017,
      "eigenen": 4018,
      "hang": 4019,
      "anzu": 4020,
      "ingt": 4021,
      "inve": 4022,
      "glo": 4023,
      "ums": 4024,
      "rolle": 4025,
      "leistungen": 4026,
      "ug": 4027,
      "kan": 4028,
      "samen": 4029,
      "aktion": 4030,
      "dungen": 4031,
      "ed": 4032,
      "uten": 4033,
      "ähr": 4034,
      "buch": 4035,
      "innerhalb": 4036,
      "zwar": 4037,
      "genau": 4038,
      "könnte": 4039,
      "gener": 4040,
      "chan": 4041,
      "stab": 4042,
      "hung": 4043,
      "terr": 4044,
      "dank": 4045,
      "tes": 4046,
      "berichterstatter": 4047,
      "forderungen": 4048,
      "mil": 4049,
      "fte": 4050,
      "frieden": 4051,
      "schluss": 4052,
      "wün": 4053,
      "ieg": 4054,
      "sache": 4055,
      "befindet": 4056,
      "reifen": 4057,
      "jo": 4058,
      "neh": 4059,
      "stimmen": 4060,
      "hunder": 4061,
      "ws": 4062,
      "mlich": 4063,
      "zeug": 4064,
      "erweiter": 4065,
      "pi": 4066,
      "aufge": 4067,
      "hatte": 4068,
      "versch": 4069,
      "kraft": 4070,
      "len": 4071,
      "gaben": 4072,
      "neten": 4073,
      "tür": 4074,
      "gene": 4075,
      "erwar": 4076,
      "age": 4077,
      "pel": 4078,
      "tten": 4079,
      "pla": 4080,
      "mär": 4081,
      "har": 4082,
      "möglichkeiten": 4083,
      "tour": 4084,
      "unterstützen": 4085,
      "verpf": 4086,
      "teilen": 4087,
      "kultur": 4088,
      "qualität": 4089,
      "enzen": 4090,
      "hinter": 4091,
      "gern": 4092,
      "ierungs": 4093,
      "sektor": 4094,
      "gef": 4095,
      "kat": 4096,
      "rom": 4097,
      "inen": 4098,
      "zip": 4099,
      "produktion": 4100,
      "geschlossen": 4101,
      "yp": 4102,
      "verschiedenen": 4103,
      "möchten": 4104,
      "verstän": 4105,
      "schrei": 4106,
      "obil": 4107,
      "näch": 4108,
      "rä": 4109,
      "reicht": 4110,
      "usa": 4111,
      "teile": 4112,
      "genann": 4113,
      "behör": 4114,
      "entfernt": 4115,
      "erste": 4116,
      "char": 4117,
      "sozial": 4118,
      "bildung": 4119,
      "bank": 4120,
      "hervor": 4121,
      "sprä": 4122,
      "schn": 4123,
      "rän": 4124,
      "gerä": 4125,
      "halte": 4126,
      "prof": 4127,
      "tiger": 4128,
      "ifft": 4129,
      "text": 4130,
      "mail": 4131,
      "verschieden": 4132,
      "11": 4133,
      "dür": 4134,
      "produkte": 4135,
      "aner": 4136,
      "ari": 4137,
      "oma": 4138,
      "ome": 4139,
      "situation": 4140,
      "bestehen": 4141,
      "haltung": 4142,
      "fassung": 4143,
      "einzu": 4144,
      "fir": 4145,
      "neben": 4146,
      "dings": 4147,
      "gän": 4148,
      "software": 4149,
      "line": 4150,
      "nutzen": 4151,
      "uhr": 4152,
      "auen": 4153,
      "schrift": 4154,
      "gäste": 4155,
      "ckt": 4156,
      "schnell": 4157,
      "schwier": 4158,
      "instru": 4159,
      "oten": 4160,
      "altung": 4161,
      "musi": 4162,
      "natur": 4163,
      "vorschlä": 4164,
      "mäß": 4165,
      "spä": 4166,
      "persön": 4167,
      "ionen": 4168,
      "16": 4169,
      "eicht": 4170,
      "allerdings": 4171,
      "far": 4172,
      "außerdem": 4173,
      "stet": 4174,
      "stelle": 4175,
      "äußer": 4176,
      "datei": 4177,
      "größ": 4178,
      "minister": 4179,
      "yo": 4180,
      "nehmer": 4181,
      "zugang": 4182,
      "tage": 4183,
      "drück": 4184,
      "klima": 4185,
      "medi": 4186,
      "rates": 4187,
      "sweise": 4188,
      "wind": 4189,
      "geschäfts": 4190,
      "beitra": 4191,
      "list": 4192,
      "bezug": 4193,
      "abgeord": 4194,
      "reise": 4195,
      "weis": 4196,
      "ys": 4197,
      "schritt": 4198,
      "spei": 4199,
      "initi": 4200,
      "gebiet": 4201,
      "vers": 4202,
      "projekt": 4203,
      "spolitik": 4204,
      "tione": 4205,
      "teilung": 4206,
      "setzt": 4207,
      "stimmt": 4208,
      "anst": 4209,
      "konn": 4210,
      "vorschri": 4211,
      "drit": 4212,
      "eren": 4213,
      "gerade": 4214,
      "version": 4215,
      "sichtlich": 4216,
      "ologie": 4217,
      "kommun": 4218,
      "lange": 4219,
      "lätz": 4220,
      "strategie": 4221,
      "fiz": 4222,
      "wesent": 4223,
      "don": 4224,
      "park": 4225,
      "get": 4226,
      "igten": 4227,
      "meinung": 4228,
      "ehmen": 4229,
      "ris": 4230,
      "jahres": 4231,
      "gesamt": 4232,
      "gegeben": 4233,
      "geführt": 4234,
      "tin": 4235,
      "früh": 4236,
      "dok": 4237,
      "eng": 4238,
      "gruppe": 4239,
      "onen": 4240,
      "off": 4241,
      "gil": 4242,
      "ations": 4243,
      "zusammenhang": 4244,
      "unde": 4245,
      "gute": 4246,
      "zweiten": 4247,
      "kop": 4248,
      "verhand": 4249,
      "pre": 4250,
      "ehr": 4251,
      "cke": 4252,
      "dlichen": 4253,
      "jähr": 4254,
      "wider": 4255,
      "14": 4256,
      "hotels": 4257,
      "gü": 4258,
      "außen": 4259,
      "größer": 4260,
      "geld": 4261,
      "gefä": 4262,
      "politische": 4263,
      "beiden": 4264,
      "jeden": 4265,
      "mb": 4266,
      "zusätz": 4267,
      "racht": 4268,
      "doku": 4269,
      "burg": 4270,
      "oper": 4271,
      "schö": 4272,
      "unserem": 4273,
      "einander": 4274,
      "präsidentin": 4275,
      "mut": 4276,
      "wirtschafts": 4277,
      "entschließ": 4278,
      "etwa": 4279,
      "indem": 4280,
      "dam": 4281,
      "reiche": 4282,
      "veränder": 4283,
      "17": 4284,
      "spie": 4285,
      "chs": 4286,
      "2009": 4287,
      "begrü": 4288,
      "russ": 4289,
      "hinaus": 4290,
      "daran": 4291,
      "mode": 4292,
      "gemeinsamen": 4293,
      "finan": 4294,
      "tele": 4295,
      "deutschland": 4296,
      "asst": 4297,
      "weniger": 4298,
      "aufgrund": 4299,
      "vereinbar": 4300,
      "berg": 4301,
      "car": 4302,
      "gei": 4303,
      "wachst": 4304,
      "gesagt": 4305,
      "mitt": 4306,
      "chlich": 4307,
      "alisierung": 4308,
      "fast": 4309,
      "vorschriften": 4310,
      "ct": 4311,
      "lö": 4312,
      "folge": 4313,
      "ferenz": 4314,
      "ip": 4315,
      "haushalts": 4316,
      "able": 4317,
      "ase": 4318,
      "rise": 4319,
      "heim": 4320,
      "ate": 4321,
      "aktue": 4322,
      "ial": 4323,
      "denken": 4324,
      "bzw": 4325,
      "abhäng": 4326,
      "initia": 4327,
      "erfahr": 4328,
      "nam": 4329,
      "13": 4330,
      "publi": 4331,
      "nov": 4332,
      "kennt": 4333,
      "sogar": 4334,
      "öffentlichen": 4335,
      "entscheiden": 4336,
      "laden": 4337,
      "troffen": 4338,
      "danken": 4339,
      "gol": 4340,
      "kennen": 4341,
      "wan": 4342,
      "zentrum": 4343,
      "tie": 4344,
      "leit": 4345,
      "emp": 4346,
      "ebenfalls": 4347,
      "tradi": 4348,
      "empf": 4349,
      "gilt": 4350,
      "wander": 4351,
      "flü": 4352,
      "debat": 4353,
      "chter": 4354,
      "wähl": 4355,
      "id": 4356,
      "nämlich": 4357,
      "langen": 4358,
      "zeitig": 4359,
      "gemacht": 4360,
      "haft": 4361,
      "see": 4362,
      "darin": 4363,
      "frist": 4364,
      "allgem": 4365,
      "nichts": 4366,
      "orien": 4367,
      "millionen": 4368,
      "auto": 4369,
      "leisten": 4370,
      "ierungen": 4371,
      "insel": 4372,
      "ebene": 4373,
      "europas": 4374,
      "berück": 4375,
      "enden": 4376,
      "hist": 4377,
      "berücksich": 4378,
      "abstimmung": 4379,
      "tien": 4380,
      "grundlage": 4381,
      "by": 4382,
      "hnt": 4383,
      "atur": 4384,
      "sprochen": 4385,
      "ihm": 4386,
      "besten": 4387,
      "mitteln": 4388,
      "llig": 4389,
      "viell": 4390,
      "eff": 4391,
      "betra": 4392,
      "vielleicht": 4393,
      "zeigen": 4394,
      "gemä": 4395,
      "einigen": 4396,
      "baren": 4397,
      "tis": 4398,
      "vergangen": 4399,
      "fischer": 4400,
      "präsen": 4401,
      "entwicklungs": 4402,
      "ihn": 4403,
      "betrifft": 4404,
      "zä": 4405,
      "ket": 4406,
      "ziellen": 4407,
      "itz": 4408,
      "mater": 4409,
      "meisten": 4410,
      "agen": 4411,
      "iter": 4412,
      "verbraucher": 4413,
      "verbunden": 4414,
      "italien": 4415,
      "stabil": 4416,
      "weiterhin": 4417,
      "llt": 4418,
      "ratie": 4419,
      "interess": 4420,
      "ast": 4421,
      "priv": 4422,
      "fan": 4423,
      "produkt": 4424,
      "anischen": 4425,
      "zeichnet": 4426,
      "25": 4427,
      "wissenschaft": 4428,
      "prin": 4429,
      "nationalen": 4430,
      "bevölker": 4431,
      "konf": 4432,
      "bew": 4433,
      "neuer": 4434,
      "sc": 4435,
      "handels": 4436,
      "seinem": 4437,
      "zunehmen": 4438,
      "ziele": 4439,
      "hnen": 4440,
      "mals": 4441,
      "ity": 4442,
      "unterstützt": 4443,
      "formen": 4444,
      "trotz": 4445,
      "foto": 4446,
      "erfü": 4447,
      "brauchen": 4448,
      "fün": 4449,
      "hinder": 4450,
      "prozess": 4451,
      "bru": 4452,
      "aussprache": 4453,
      "kunst": 4454,
      "nete": 4455,
      "arbeitet": 4456,
      "erhö": 4457,
      "weiß": 4458,
      "solche": 4459,
      "glaube": 4460,
      "ebenso": 4461,
      "indi": 4462,
      "spa": 4463,
      "anal": 4464,
      "jahrhunder": 4465,
      "isches": 4466,
      "künf": 4467,
      "wiesen": 4468,
      "bekäm": 4469,
      "hafen": 4470,
      "konta": 4471,
      "bekannt": 4472,
      "bro": 4473,
      "gleichzeitig": 4474,
      "läs": 4475,
      "forschung": 4476,
      "histor": 4477,
      "gebung": 4478,
      "schön": 4479,
      "mm": 4480,
      "schritte": 4481,
      "ktiv": 4482,
      "erwä": 4483,
      "kurz": 4484,
      "masch": 4485,
      "türk": 4486,
      "üssel": 4487,
      "lig": 4488,
      "fonds": 4489,
      "möglichen": 4490,
      "partei": 4491,
      "genie": 4492,
      "gte": 4493,
      "vertre": 4494,
      "geschichte": 4495,
      "zin": 4496,
      "spru": 4497,
      "zielle": 4498,
      "io": 4499,
      "dürfen": 4500,
      "oft": 4501,
      "km": 4502,
      "glob": 4503,
      "website": 4504,
      "tungen": 4505,
      "sollen": 4506,
      "minuten": 4507,
      "liches": 4508,
      "gruppen": 4509,
      "linien": 4510,
      "dor": 4511,
      "bere": 4512,
      "alität": 4513,
      "vorschläge": 4514,
      "mann": 4515,
      "ron": 4516,
      "auszu": 4517,
      "luft": 4518,
      "zogen": 4519,
      "24": 4520,
      "vent": 4521,
      "schaff": 4522,
      "sal": 4523,
      "ill": 4524,
      "last": 4525,
      "verkehrs": 4526,
      "online": 4527,
      "bare": 4528,
      "liste": 4529,
      "bemü": 4530,
      "fähigkeit": 4531,
      "flä": 4532,
      "kür": 4533,
      "ausschusses": 4534,
      "ession": 4535,
      "keinen": 4536,
      "musik": 4537,
      "laub": 4538,
      "wenig": 4539,
      "konferenz": 4540,
      "dio": 4541,
      "prak": 4542,
      "tatsä": 4543,
      "umfassen": 4544,
      "alog": 4545,
      "igkeiten": 4546,
      "bevor": 4547,
      "frank": 4548,
      "elekt": 4549,
      "cu": 4550,
      "zehn": 4551,
      "log": 4552,
      "nähe": 4553,
      "ergebnis": 4554,
      "rund": 4555,
      "pp": 4556,
      "krise": 4557,
      "van": 4558,
      "systeme": 4559,
      "obwohl": 4560,
      "wichtige": 4561,
      "zwe": 4562,
      "brei": 4563,
      "2010": 4564,
      "dienstleistungen": 4565,
      "gliche": 4566,
      "mitglieder": 4567,
      "worten": 4568,
      "ator": 4569,
      "geschlagen": 4570,
      "immt": 4571,
      "zunä": 4572,
      "zustellen": 4573,
      "läu": 4574,
      "west": 4575,
      "zunächst": 4576,
      "werde": 4577,
      "arbeiter": 4578,
      "dige": 4579,
      "unge": 4580,
      "anderer": 4581,
      "wirtschaftlichen": 4582,
      "dest": 4583,
      "seits": 4584,
      "aspe": 4585,
      "val": 4586,
      "werte": 4587,
      "ww": 4588,
      "beteil": 4589,
      "nieder": 4590,
      "reihe": 4591,
      "würden": 4592,
      "position": 4593,
      "bedeutet": 4594,
      "benö": 4595,
      "kus": 4596,
      "plat": 4597,
      "kriti": 4598,
      "effe": 4599,
      "mie": 4600,
      "krieg": 4601,
      "haushalt": 4602,
      "gefähr": 4603,
      "haup": 4604,
      "deutlich": 4605,
      "gemeinsame": 4606,
      "spielen": 4607,
      "anwendung": 4608,
      "icken": 4609,
      "kolleg": 4610,
      "fung": 4611,
      "verantwortung": 4612,
      "einsatz": 4613,
      "beispielsweise": 4614,
      "wit": 4615,
      "suchen": 4616,
      "voraus": 4617,
      "iden": 4618,
      "demokratie": 4619,
      "igt": 4620,
      "handeln": 4621,
      "mas": 4622,
      "pfung": 4623,
      "teilt": 4624,
      "tete": 4625,
      "za": 4626,
      "freu": 4627,
      "fang": 4628,
      "ansicht": 4629,
      "verkauf": 4630,
      "sicherheits": 4631,
      "greifen": 4632,
      "darum": 4633,
      "weder": 4634,
      "gien": 4635,
      "regionen": 4636,
      "zahlen": 4637,
      "veranst": 4638,
      "mt": 4639,
      "gebracht": 4640,
      "soli": 4641,
      "freiheit": 4642,
      "züglich": 4643,
      "ton": 4644,
      "ligen": 4645,
      "gehört": 4646,
      "nächsten": 4647,
      "pass": 4648,
      "kontrolle": 4649,
      "umsetzung": 4650,
      "lla": 4651,
      "verhandlungen": 4652,
      "herren": 4653,
      "wal": 4654,
      "beziehungen": 4655,
      "menschenrechte": 4656,
      "din": 4657,
      "2008": 4658,
      "restaurant": 4659,
      "wettbewerbs": 4660,
      "wirkungen": 4661,
      "hinzu": 4662,
      "ziehen": 4663,
      "bleiben": 4664,
      "behörden": 4665,
      "bereichen": 4666,
      "rum": 4667,
      "institutionen": 4668,
      "verpflich": 4669,
      "sin": 4670,
      "weiteren": 4671,
      "stei": 4672,
      "einzi": 4673,
      "ihres": 4674,
      "izien": 4675,
      "standen": 4676,
      "wn": 4677,
      "förderung": 4678,
      "cor": 4679,
      "jede": 4680,
      "dliche": 4681,
      "entscheidung": 4682,
      "tages": 4683,
      "dy": 4684,
      "fünf": 4685,
      "kate": 4686,
      "100": 4687,
      "schwe": 4688,
      "zem": 4689,
      "jedes": 4690,
      "kleinen": 4691,
      "angelegen": 4692,
      "interesse": 4693,
      "enthalten": 4694,
      "landes": 4695,
      "überein": 4696,
      "debatte": 4697,
      "familien": 4698,
      "mand": 4699,
      "schaffung": 4700,
      "scht": 4701,
      "vide": 4702,
      "anti": 4703,
      "leider": 4704,
      "investi": 4705,
      "tter": 4706,
      "internationale": 4707,
      "opti": 4708,
      "volle": 4709,
      "überzeu": 4710,
      "erziel": 4711,
      "bre": 4712,
      "hoffe": 4713,
      "mensch": 4714,
      "wachstum": 4715,
      "ces": 4716,
      "nimmt": 4717,
      "air": 4718,
      "team": 4719,
      "test": 4720,
      "miss": 4721,
      "kap": 4722,
      "sozialen": 4723,
      "itäts": 4724,
      "fordern": 4725,
      "lätze": 4726,
      "win": 4727,
      "gerich": 4728,
      "lation": 4729,
      "verur": 4730,
      "flex": 4731,
      "scheint": 4732,
      "gerung": 4733,
      "aufmerk": 4734,
      "gleichen": 4735,
      "verfüg": 4736,
      "ühr": 4737,
      "verwendet": 4738,
      "automa": 4739,
      "punkte": 4740,
      "ermöglich": 4741,
      "grenz": 4742,
      "ly": 4743,
      "interessen": 4744,
      "bisher": 4745,
      "karte": 4746,
      "verschiedene": 4747,
      "metho": 4748,
      "defin": 4749,
      "bevölkerung": 4750,
      "feld": 4751,
      "schu": 4752,
      "kampf": 4753,
      "lis": 4754,
      "terror": 4755,
      "akzep": 4756,
      "sorgen": 4757,
      "kräf": 4758,
      "design": 4759,
      "sab": 4760,
      "sour": 4761,
      "verbindung": 4762,
      "fordert": 4763,
      "publik": 4764,
      "hy": 4765,
      "dop": 4766,
      "franz": 4767,
      "arbeitsp": 4768,
      "aufmerksam": 4769,
      "gelten": 4770,
      "chsel": 4771,
      "anten": 4772,
      "einzelnen": 4773,
      "dauer": 4774,
      "erreicht": 4775,
      "preise": 4776,
      "konkre": 4777,
      "china": 4778,
      "erhe": 4779,
      "frik": 4780,
      "wechsel": 4781,
      "leistungs": 4782,
      "unver": 4783,
      "lok": 4784,
      "wand": 4785,
      "arbeitung": 4786,
      "angebot": 4787,
      "risi": 4788,
      "archi": 4789,
      "könnten": 4790,
      "forderung": 4791,
      "später": 4792,
      "such": 4793,
      "gab": 4794,
      "kussion": 4795,
      "weltweit": 4796,
      "mul": 4797,
      "herz": 4798,
      "vid": 4799,
      "effizien": 4800,
      "folgt": 4801,
      "damen": 4802,
      "zeichen": 4803,
      "binnen": 4804,
      "befinden": 4805,
      "stellungen": 4806,
      "nachhal": 4807,
      "diskussion": 4808,
      "überprü": 4809,
      "gesichts": 4810,
      "kateg": 4811,
      "grenzen": 4812,
      "sinn": 4813,
      "40": 4814,
      "ruh": 4815,
      "bald": 4816,
      "änderungsantrag": 4817,
      "schnitt": 4818,
      "schwei": 4819,
      "gemäß": 4820,
      "abgeordneten": 4821,
      "fluss": 4822,
      "ture": 4823,
      "auswirkungen": 4824,
      "kir": 4825,
      "entwickelt": 4826,
      "lösungen": 4827,
      "hohe": 4828,
      "frühstück": 4829,
      "behand": 4830,
      "vorgeschlagen": 4831,
      "helfen": 4832,
      "lieb": 4833,
      "manage": 4834,
      "vö": 4835,
      "fs": 4836,
      "läss": 4837,
      "hinblick": 4838,
      "fehler": 4839,
      "fahrt": 4840,
      "transpar": 4841,
      "jan": 4842,
      "entde": 4843,
      "reform": 4844,
      "benutzer": 4845,
      "itär": 4846,
      "ms": 4847,
      "material": 4848,
      "beginn": 4849,
      "verordnung": 4850,
      "esen": 4851,
      "steller": 4852,
      "ermöglicht": 4853,
      "verfügt": 4854,
      "auftrag": 4855,
      "gegenwär": 4856,
      "wunder": 4857,
      "iffen": 4858,
      "2007": 4859,
      "nehm": 4860,
      "krim": 4861,
      "ünst": 4862,
      "gefü": 4863,
      "stattet": 4864,
      "dro": 4865,
      "leistung": 4866,
      "tatsächlich": 4867,
      "woch": 4868,
      "kör": 4869,
      "gestimmt": 4870,
      "beitrag": 4871,
      "scher": 4872,
      "ont": 4873,
      "systems": 4874,
      "erforderlich": 4875,
      "istischen": 4876,
      "stein": 4877,
      "ausdruck": 4878,
      "hatten": 4879,
      "kommunik": 4880,
      "2000": 4881,
      "gemessen": 4882,
      "richten": 4883,
      "ther": 4884,
      "stens": 4885,
      "clu": 4886,
      "garan": 4887,
      "ii": 4888,
      "einheit": 4889,
      "od": 4890,
      "rieben": 4891,
      "gesamten": 4892,
      "cker": 4893,
      "jenigen": 4894,
      "digung": 4895,
      "ches": 4896,
      "formul": 4897,
      "tatsache": 4898,
      "bedeuten": 4899,
      "strand": 4900,
      "cas": 4901,
      "mag": 4902,
      "änderungsanträge": 4903,
      "kung": 4904,
      "pfel": 4905,
      "ite": 4906,
      "stoff": 4907,
      "reisen": 4908,
      "abzu": 4909,
      "fallen": 4910,
      "angesichts": 4911,
      "pfen": 4912,
      "sidenten": 4913,
      "morgen": 4914,
      "spricht": 4915,
      "technologie": 4916,
      "nutzung": 4917,
      "ies": 4918,
      "som": 4919,
      "staats": 4920,
      "griff": 4921,
      "chr": 4922,
      "can": 4923,
      "hohen": 4924,
      "verhält": 4925,
      "dialog": 4926,
      "hü": 4927,
      "bra": 4928,
      "dadurch": 4929,
      "ktionen": 4930,
      "warum": 4931,
      "fischerei": 4932,
      "rin": 4933,
      "nahe": 4934,
      "wünschen": 4935,
      "regeln": 4936,
      "gebäu": 4937,
      "themen": 4938,
      "dit": 4939,
      "kontroll": 4940,
      "kolleginnen": 4941,
      "zeiten": 4942,
      "stunden": 4943,
      "män": 4944,
      "denke": 4945,
      "ote": 4946,
      "wachsen": 4947,
      "russland": 4948,
      "bestä": 4949,
      "übr": 4950,
      "heu": 4951,
      "komple": 4952,
      "ps": 4953,
      "ersch": 4954,
      "zudem": 4955,
      "wählen": 4956,
      "angenommen": 4957,
      "schlus": 4958,
      "user": 4959,
      "cam": 4960,
      "richtig": 4961,
      "aufgabe": 4962,
      "technolog": 4963,
      "60": 4964,
      "hätte": 4965,
      "beitrit": 4966,
      "standard": 4967,
      "umfang": 4968,
      "richtungen": 4969,
      "tu": 4970,
      "jedem": 4971,
      "bereiche": 4972,
      "prinzip": 4973,
      "kleine": 4974,
      "doppel": 4975,
      "tal": 4976,
      "gelegt": 4977,
      "vereinigten": 4978,
      "ziell": 4979,
      "iere": 4980,
      "sage": 4981,
      "anlage": 4982,
      "uß": 4983,
      "lux": 4984,
      "menten": 4985,
      "lässt": 4986,
      "room": 4987,
      "bekämpfung": 4988,
      "urspr": 4989,
      "auber": 4990,
      "bad": 4991,
      "derzeit": 4992,
      "gewi": 4993,
      "augen": 4994,
      "integr": 4995,
      "beschrei": 4996,
      "aufent": 4997,
      "gerichtet": 4998,
      "konnte": 4999,
      "anspru": 5000,
      "erweiterung": 5001,
      "eg": 5002,
      "heißt": 5003,
      "zeichn": 5004,
      "tiges": 5005,
      "ium": 5006,
      "kern": 5007,
      "hinsichtlich": 5008,
      "fuß": 5009,
      "leistet": 5010,
      "veröffent": 5011,
      "ehe": 5012,
      "80": 5013,
      "fäl": 5014,
      "gerne": 5015,
      "verl": 5016,
      "usst": 5017,
      "mehrere": 5018,
      "höher": 5019,
      "vel": 5020,
      "mitarbeiter": 5021,
      "öst": 5022,
      "stimme": 5023,
      "sprach": 5024,
      "beruf": 5025,
      "ordin": 5026,
      "wichtigen": 5027,
      "fehlen": 5028,
      "auswahl": 5029,
      "nissen": 5030,
      "trans": 5031,
      "büro": 5032,
      "berech": 5033,
      "nungs": 5034,
      "verstär": 5035,
      "nord": 5036,
      "wirtschaftliche": 5037,
      "telefon": 5038,
      "iten": 5039,
      "unseres": 5040,
      "vertei": 5041,
      "entschließung": 5042,
      "meinen": 5043,
      "programme": 5044,
      "städ": 5045,
      "graf": 5046,
      "fällen": 5047,
      "adr": 5048,
      "klu": 5049,
      "23": 5050,
      "ganzen": 5051,
      "mobil": 5052,
      "ganze": 5053,
      "türkei": 5054,
      "information": 5055,
      "verständlich": 5056,
      "barkeit": 5057,
      "mot": 5058,
      "gipfel": 5059,
      "stil": 5060,
      "server": 5061,
      "gewalt": 5062,
      "volk": 5063,
      "sub": 5064,
      "somit": 5065,
      "schle": 5066,
      "bekommen": 5067,
      "stag": 5068,
      "wochen": 5069,
      "bestimmungen": 5070,
      "bleibt": 5071,
      "beein": 5072,
      "lam": 5073,
      "gast": 5074,
      "krank": 5075,
      "proto": 5076,
      "würdig": 5077,
      "zentral": 5078,
      "bezüglich": 5079,
      "national": 5080,
      "gas": 5081,
      "änderungen": 5082,
      "überwach": 5083,
      "meines": 5084,
      "fas": 5085,
      "flexi": 5086,
      "integra": 5087,
      "tifiz": 5088,
      "teten": 5089,
      "schlussel": 5090,
      "mes": 5091,
      "modell": 5092,
      "typ": 5093,
      "kal": 5094,
      "wein": 5095,
      "berlin": 5096,
      "ran": 5097,
      "muse": 5098,
      "dra": 5099,
      "compu": 5100,
      "gül": 5101,
      "anfang": 5102,
      "häuf": 5103,
      "sieht": 5104,
      "militär": 5105,
      "vertrauen": 5106,
      "sive": 5107,
      "koordin": 5108,
      "schätz": 5109,
      "sur": 5110,
      "französ": 5111,
      "kulture": 5112,
      "wäl": 5113,
      "vil": 5114,
      "wesen": 5115,
      "prior": 5116,
      "verletz": 5117,
      "bedarf": 5118,
      "unabhäng": 5119,
      "regist": 5120,
      "management": 5121,
      "sse": 5122,
      "univers": 5123,
      "frankreich": 5124,
      "klicken": 5125,
      "beschäftigung": 5126,
      "ktive": 5127,
      "2006": 5128,
      "red": 5129,
      "chin": 5130,
      "liber": 5131,
      "bestand": 5132,
      "ferien": 5133,
      "rael": 5134,
      "klein": 5135,
      "deta": 5136,
      "tember": 5137,
      "künst": 5138,
      "speicher": 5139,
      "betreffen": 5140,
      "könig": 5141,
      "best": 5142,
      "israel": 5143,
      "verwenden": 5144,
      "zept": 5145,
      "redu": 5146,
      "eigent": 5147,
      "binnenmarkt": 5148,
      "komfort": 5149,
      "erlau": 5150,
      "basis": 5151,
      "ernst": 5152,
      "genießen": 5153,
      "verbesserung": 5154,
      "familie": 5155,
      "freien": 5156,
      "bedür": 5157,
      "versor": 5158,
      "ziert": 5159,
      "engl": 5160,
      "juni": 5161,
      "trei": 5162,
      "tagen": 5163,
      "blo": 5164,
      "inform": 5165,
      "koll": 5166,
      "konfli": 5167,
      "21": 5168,
      "ino": 5169,
      "wichtigsten": 5170,
      "reser": 5171,
      "höhe": 5172,
      "initiative": 5173,
      "vollen": 5174,
      "verwendung": 5175,
      "ham": 5176,
      "mün": 5177,
      "angemessen": 5178,
      "very": 5179,
      "erweise": 5180,
      "mai": 5181,
      "irgend": 5182,
      "wobei": 5183,
      "aktivitäten": 5184,
      "aufbau": 5185,
      "personal": 5186,
      "höch": 5187,
      "sabon": 5188,
      "einzig": 5189,
      "grundsätz": 5190,
      "fördern": 5191,
      "spann": 5192,
      "lissabon": 5193,
      "gre": 5194,
      "woche": 5195,
      "stark": 5196,
      "enthält": 5197,
      "fal": 5198,
      "international": 5199,
      "lehr": 5200,
      "use": 5201,
      "wirksam": 5202,
      "ledig": 5203,
      "with": 5204,
      "entwickeln": 5205,
      "spräsident": 5206,
      "vertrags": 5207,
      "ergebnisse": 5208,
      "aufzu": 5209,
      "geeig": 5210,
      "hle": 5211,
      "ira": 5212,
      "krimin": 5213,
      "öster": 5214,
      "mehrheit": 5215,
      "dri": 5216,
      "anzahl": 5217,
      "new": 5218,
      "betroffen": 5219,
      "nern": 5220,
      "obje": 5221,
      "bein": 5222,
      "ermöglichen": 5223,
      "umgebung": 5224,
      "max": 5225,
      "dungs": 5226,
      "guten": 5227,
      "üsse": 5228,
      "grie": 5229,
      "gründen": 5230,
      "computer": 5231,
      "offi": 5232,
      "genannten": 5233,
      "insgesamt": 5234,
      "eigene": 5235,
      "körper": 5236,
      "nu": 5237,
      "öhn": 5238,
      "lose": 5239,
      "spezif": 5240,
      "volks": 5241,
      "behandlung": 5242,
      "hor": 5243,
      "gelegenheit": 5244,
      "ume": 5245,
      "splan": 5246,
      "leicht": 5247,
      "org": 5248,
      "stärker": 5249,
      "bot": 5250,
      "leb": 5251,
      "cel": 5252,
      "vorhan": 5253,
      "cal": 5254,
      "dritten": 5255,
      "soziale": 5256,
      "übrigen": 5257,
      "samm": 5258,
      "pool": 5259,
      "jugend": 5260,
      "spiele": 5261,
      "hoben": 5262,
      "film": 5263,
      "ick": 5264,
      "standar": 5265,
      "karten": 5266,
      "beschrän": 5267,
      "lesen": 5268,
      "allgemeinen": 5269,
      "nachdem": 5270,
      "medien": 5271,
      "ändern": 5272,
      "wandel": 5273,
      "ressour": 5274,
      "zt": 5275,
      "völlig": 5276,
      "uellen": 5277,
      "analy": 5278,
      "häre": 5279,
      "wettbewerb": 5280,
      "urlaub": 5281,
      "einführung": 5282,
      "mod": 5283,
      "schließend": 5284,
      "großer": 5285,
      "hum": 5286,
      "grundlegen": 5287,
      "num": 5288,
      "tor": 5289,
      "erzeu": 5290,
      "zahlreiche": 5291,
      "informations": 5292,
      "ile": 5293,
      "technik": 5294,
      "ers": 5295,
      "deutschen": 5296,
      "verbessern": 5297,
      "las": 5298,
      "sommer": 5299,
      "wann": 5300,
      "cent": 5301,
      "fälle": 5302,
      "dienste": 5303,
      "herzen": 5304,
      "akter": 5305,
      "ld": 5306,
      "sprachen": 5307,
      "pas": 5308,
      "ähn": 5309,
      "lernen": 5310,
      "notwendigkeit": 5311,
      "inten": 5312,
      "ple": 5313,
      "play": 5314,
      "beste": 5315,
      "sphäre": 5316,
      "af": 5317,
      "ände": 5318,
      "österreich": 5319,
      "dennoch": 5320,
      "zeitpunkt": 5321,
      "garten": 5322,
      "mechan": 5323,
      "enga": 5324,
      "organisationen": 5325,
      "rats": 5326,
      "arten": 5327,
      "gehören": 5328,
      "passen": 5329,
      "erfahrung": 5330,
      "präsidenten": 5331,
      "afrik": 5332,
      "links": 5333,
      "verfügen": 5334,
      "sep": 5335,
      "hoff": 5336,
      "günst": 5337,
      "22": 5338,
      "agr": 5339,
      "bilder": 5340,
      "beru": 5341,
      "organisation": 5342,
      "mäßig": 5343,
      "äst": 5344,
      "ffer": 5345,
      "versuchen": 5346,
      "optim": 5347,
      "süd": 5348,
      "regierungen": 5349,
      "hlt": 5350,
      "gefunden": 5351,
      "mp": 5352,
      "disku": 5353,
      "bewusst": 5354,
      "integration": 5355,
      "cro": 5356,
      "größten": 5357,
      "ness": 5358,
      "vorher": 5359,
      "tiver": 5360,
      "sprogram": 5361,
      "projekte": 5362,
      "meinem": 5363,
      "verhalten": 5364,
      "dienen": 5365,
      "bund": 5366,
      "my": 5367,
      "nö": 5368,
      "out": 5369,
      "bewertungen": 5370,
      "liebe": 5371,
      "gesamte": 5372,
      "uell": 5373,
      "individ": 5374,
      "isierung": 5375,
      "kompro": 5376,
      "mat": 5377,
      "verstehen": 5378,
      "straße": 5379,
      "privat": 5380,
      "stam": 5381,
      "trie": 5382,
      "straßen": 5383,
      "ragen": 5384,
      "kontakt": 5385,
      "istan": 5386,
      "vertreter": 5387,
      "bedürf": 5388,
      "allein": 5389,
      "bestimmte": 5390,
      "eindeu": 5391,
      "multi": 5392,
      "erster": 5393,
      "achtung": 5394,
      "schaf": 5395,
      "siv": 5396,
      "vern": 5397,
      "gesundheits": 5398,
      "kriter": 5399,
      "öffnet": 5400,
      "verwaltung": 5401,
      "lediglich": 5402,
      "traditione": 5403,
      "berü": 5404,
      "schütz": 5405,
      "maschinen": 5406,
      "2005": 5407,
      "übernach": 5408,
      "bef": 5409,
      "hören": 5410,
      "anforderungen": 5411,
      "rela": 5412,
      "vertreten": 5413,
      "exper": 5414,
      "schriftlich": 5415,
      "post": 5416,
      "dringen": 5417,
      "ständigen": 5418,
      "ausschuß": 5419,
      "xis": 5420,
      "früher": 5421,
      "ost": 5422,
      "inhalt": 5423,
      "erklärung": 5424,
      "äußerst": 5425,
      "waffen": 5426,
      "tritt": 5427,
      "zweite": 5428,
      "schlüssel": 5429,
      "zivil": 5430,
      "peten": 5431,
      "wun": 5432,
      "dateien": 5433,
      "invest": 5434,
      "erachten": 5435,
      "genehm": 5436,
      "vergleich": 5437,
      "bien": 5438,
      "rad": 5439,
      "dokument": 5440,
      "schiff": 5441,
      "70": 5442,
      "istische": 5443,
      "ore": 5444,
      "ressourcen": 5445,
      "mittler": 5446,
      "woll": 5447,
      "ty": 5448,
      "vir": 5449,
      "lon": 5450,
      "schla": 5451,
      "flughafen": 5452,
      "bran": 5453,
      "bon": 5454,
      "got": 5455,
      "beob": 5456,
      "schlag": 5457,
      "alterna": 5458,
      "dre": 5459,
      "kel": 5460,
      "landwirtschaft": 5461,
      "apart": 5462,
      "sagte": 5463,
      "geber": 5464,
      "geist": 5465,
      "vollständig": 5466,
      "exist": 5467,
      "trägt": 5468,
      "zeuge": 5469,
      "befür": 5470,
      "glauben": 5471,
      "ski": 5472,
      "minder": 5473,
      "page": 5474,
      "lück": 5475,
      "gewährleisten": 5476,
      "bringt": 5477,
      "besitz": 5478,
      "sitzen": 5479,
      "ante": 5480,
      "video": 5481,
      "gefahr": 5482,
      "hindern": 5483,
      "pli": 5484,
      "dischen": 5485,
      "gerichte": 5486,
      "sonder": 5487,
      "banken": 5488,
      "erheb": 5489,
      "ows": 5490,
      "konstru": 5491,
      "küche": 5492,
      "erfahren": 5493,
      "est": 5494,
      "wahrschein": 5495,
      "vorliegen": 5496,
      "ausgestattet": 5497,
      "investitionen": 5498,
      "änderung": 5499,
      "äl": 5500,
      "ille": 5501,
      "book": 5502,
      "kommissarin": 5503,
      "solidar": 5504,
      "spielt": 5505,
      "gebäude": 5506,
      "ereig": 5507,
      "japan": 5508,
      "jahrhundert": 5509,
      "bestimmten": 5510,
      "einrichtungen": 5511,
      "republik": 5512,
      "uelle": 5513,
      "wurf": 5514,
      "beschl": 5515,
      "jün": 5516,
      "anlagen": 5517,
      "erfolgreich": 5518,
      "kn": 5519,
      "standpunkt": 5520,
      "artige": 5521,
      "protokoll": 5522,
      "finanzierung": 5523,
      "real": 5524,
      "urop": 5525,
      "aufgaben": 5526,
      "fläche": 5527,
      "einschließlich": 5528,
      "zweitens": 5529,
      "briti": 5530,
      "setzungen": 5531,
      "lern": 5532,
      "ants": 5533,
      "präsidentschaft": 5534,
      "betrieb": 5535,
      "verz": 5536,
      "selbstverständlich": 5537,
      "ian": 5538,
      "unternehmens": 5539,
      "tv": 5540,
      "erhält": 5541,
      "innov": 5542,
      "verge": 5543,
      "berühm": 5544,
      "gerichts": 5545,
      "september": 5546,
      "rop": 5547,
      "dinge": 5548,
      "2004": 5549,
      "down": 5550,
      "aufgenommen": 5551,
      "harmon": 5552,
      "erachtens": 5553,
      "antworten": 5554,
      "komplex": 5555,
      "ahme": 5556,
      "danke": 5557,
      "lass": 5558,
      "berichts": 5559,
      "langt": 5560,
      "eigentlich": 5561,
      "legung": 5562,
      "vorgesehen": 5563,
      "ame": 5564,
      "sitzung": 5565,
      "spieler": 5566,
      "freie": 5567,
      "dient": 5568,
      "führer": 5569,
      "perfe": 5570,
      "stoffe": 5571,
      "hu": 5572,
      "geln": 5573,
      "sionen": 5574,
      "schlä": 5575,
      "instrument": 5576,
      "firma": 5577,
      "fortschritte": 5578,
      "einzige": 5579,
      "oben": 5580,
      "nr": 5581,
      "okt": 5582,
      "glück": 5583,
      "paar": 5584,
      "rein": 5585,
      "priva": 5586,
      "mark": 5587,
      "zweck": 5588,
      "kompeten": 5589,
      "archite": 5590,
      "altungs": 5591,
      "kons": 5592,
      "agentur": 5593,
      "stände": 5594,
      "entscheidungen": 5595,
      "tren": 5596,
      "rede": 5597,
      "poten": 5598,
      "folgenden": 5599,
      "atmo": 5600,
      "dezem": 5601,
      "reis": 5602,
      "wirken": 5603,
      "dezember": 5604,
      "sofort": 5605,
      "spun": 5606,
      "super": 5607,
      "juli": 5608,
      "aufenthalt": 5609,
      "wahlen": 5610,
      "zufrieden": 5611,
      "stabilität": 5612,
      "gert": 5613,
      "aufnahme": 5614,
      "deten": 5615,
      "198": 5616,
      "home": 5617,
      "nommen": 5618,
      "solchen": 5619,
      "pap": 5620,
      "testen": 5621,
      "wunsch": 5622,
      "rü": 5623,
      "anders": 5624,
      "christ": 5625,
      "ursprün": 5626,
      "sachen": 5627,
      "beide": 5628,
      "ären": 5629,
      "kombin": 5630,
      "sign": 5631,
      "verab": 5632,
      "iffe": 5633,
      "leute": 5634,
      "zy": 5635,
      "charakter": 5636,
      "ansatz": 5637,
      "häufig": 5638,
      "kle": 5639,
      "streng": 5640,
      "vorzu": 5641,
      "keiner": 5642,
      "zweifel": 5643,
      "sonst": 5644,
      "gemeinschafts": 5645,
      "diejenigen": 5646,
      "vergessen": 5647,
      "standards": 5648,
      "sim": 5649,
      "ausreichen": 5650,
      "2003": 5651,
      "station": 5652,
      "gebaut": 5653,
      "arbeitnehmer": 5654,
      "tan": 5655,
      "öffentliche": 5656,
      "werke": 5657,
      "ona": 5658,
      "untersuch": 5659,
      "europäischer": 5660,
      "breit": 5661,
      "kontin": 5662,
      "gebühr": 5663,
      "stellten": 5664,
      "bundes": 5665,
      "nive": 5666,
      "vergangenen": 5667,
      "tätig": 5668,
      "this": 5669,
      "erne": 5670,
      "lösen": 5671,
      "kategorien": 5672,
      "opfer": 5673,
      "27": 5674,
      "tar": 5675,
      "fisch": 5676,
      "verrin": 5677,
      "aufmerksamkeit": 5678,
      "ration": 5679,
      "agrar": 5680,
      "cre": 5681,
      "profession": 5682,
      "laufen": 5683,
      "sprü": 5684,
      "but": 5685,
      "anfrage": 5686,
      "öffentlichkeit": 5687,
      "ball": 5688,
      "demokratischen": 5689,
      "hab": 5690,
      "termin": 5691,
      "wenige": 5692,
      "erlei": 5693,
      "uar": 5694,
      "zung": 5695,
      "märz": 5696,
      "firmen": 5697,
      "cd": 5698,
      "braucht": 5699,
      "wege": 5700,
      "band": 5701,
      "gelt": 5702,
      "konzentr": 5703,
      "uren": 5704,
      "just": 5705,
      "frem": 5706,
      "well": 5707,
      "fur": 5708,
      "neues": 5709,
      "schreiben": 5710,
      "boden": 5711,
      "rig": 5712,
      "dorf": 5713,
      "iar": 5714,
      "falt": 5715,
      "pat": 5716,
      "install": 5717,
      "moderne": 5718,
      "gigen": 5719,
      "ausführ": 5720,
      "wichtiger": 5721,
      "kräfte": 5722,
      "versicher": 5723,
      "nacht": 5724,
      "rechten": 5725,
      "moment": 5726,
      "kleiner": 5727,
      "jewei": 5728,
      "gewöhn": 5729,
      "schlu": 5730,
      "sequ": 5731,
      "ausdrück": 5732,
      "stel": 5733,
      "you": 5734,
      "dritt": 5735,
      "gerecht": 5736,
      "transparenz": 5737,
      "flo": 5738,
      "gewicht": 5739,
      "dist": 5740,
      "produkten": 5741,
      "ausgaben": 5742,
      "dete": 5743,
      "unmittel": 5744,
      "sucht": 5745,
      "vention": 5746,
      "asy": 5747,
      "bewe": 5748,
      "verantwortlich": 5749,
      "kapital": 5750,
      "onnen": 5751,
      "märkte": 5752,
      "häuser": 5753,
      "schieden": 5754,
      "erwarten": 5755,
      "event": 5756,
      "ov": 5757,
      "erinner": 5758,
      "gästebewertungen": 5759,
      "oktober": 5760,
      "vorsitz": 5761,
      "kenntnis": 5762,
      "regul": 5763,
      "zeichnung": 5764,
      "zieren": 5765,
      "erstens": 5766,
      "alisiert": 5767,
      "nationen": 5768,
      "ratspräsident": 5769,
      "anische": 5770,
      "bahnhof": 5771,
      "gesprä": 5772,
      "spanien": 5773,
      "vari": 5774,
      "astrop": 5775,
      "kriterien": 5776,
      "verständ": 5777,
      "schw": 5778,
      "empfehl": 5779,
      "sho": 5780,
      "eingesetzt": 5781,
      "tierung": 5782,
      "restaurants": 5783,
      "elektron": 5784,
      "ichten": 5785,
      "vin": 5786,
      "konnten": 5787,
      "tagesordnung": 5788,
      "itten": 5789,
      "roh": 5790,
      "extre": 5791,
      "gemü": 5792,
      "januar": 5793,
      "angeboten": 5794,
      "mbh": 5795,
      "pack": 5796,
      "ux": 5797,
      "euch": 5798,
      "bemühungen": 5799,
      "2001": 5800,
      "verhältnis": 5801,
      "kommunikation": 5802,
      "registr": 5803,
      "sämt": 5804,
      "slo": 5805,
      "kurs": 5806,
      "praxis": 5807,
      "katastrop": 5808,
      "besuch": 5809,
      "berat": 5810,
      "sprozess": 5811,
      "abend": 5812,
      "xi": 5813,
      "ert": 5814,
      "hilfen": 5815,
      "beziehen": 5816,
      "fei": 5817,
      "90": 5818,
      "ater": 5819,
      "una": 5820,
      "größte": 5821,
      "ted": 5822,
      "ierter": 5823,
      "volu": 5824,
      "durchgeführt": 5825,
      "ita": 5826,
      "bürgern": 5827,
      "benötigen": 5828,
      "künstler": 5829,
      "relig": 5830,
      "center": 5831,
      "sex": 5832,
      "heben": 5833,
      "gebieten": 5834,
      "funktionen": 5835,
      "lebensmittel": 5836,
      "sinne": 5837,
      "instal": 5838,
      "bilden": 5839,
      "windows": 5840,
      "human": 5841,
      "hause": 5842,
      "monaten": 5843,
      "wenden": 5844,
      "apr": 5845,
      "gehend": 5846,
      "austau": 5847,
      "erneut": 5848,
      "aktuellen": 5849,
      "sorge": 5850,
      "qualif": 5851,
      "spor": 5852,
      "regierungs": 5853,
      "sigen": 5854,
      "ki": 5855,
      "ergän": 5856,
      "gmbh": 5857,
      "kennung": 5858,
      "langfrist": 5859,
      "altet": 5860,
      "auffassung": 5861,
      "erd": 5862,
      "transport": 5863,
      "kannst": 5864,
      "auern": 5865,
      "ktiven": 5866,
      "zone": 5867,
      "griffen": 5868,
      "nachbar": 5869,
      "holz": 5870,
      "geworden": 5871,
      "eher": 5872,
      "herstellung": 5873,
      "zeichnen": 5874,
      "spezial": 5875,
      "sser": 5876,
      "prozent": 5877,
      "geschaffen": 5878,
      "haf": 5879,
      "freuen": 5880,
      "risiko": 5881,
      "bauen": 5882,
      "richtige": 5883,
      "vermei": 5884,
      "technischen": 5885,
      "schönen": 5886,
      "begrenz": 5887,
      "lizen": 5888,
      "hi": 5889,
      "sechs": 5890,
      "gten": 5891,
      "zuge": 5892,
      "schwar": 5893,
      "getan": 5894,
      "paket": 5895,
      "unten": 5896,
      "bürgerinnen": 5897,
      "fertig": 5898,
      "hersteller": 5899,
      "wortern": 5900,
      "kamer": 5901,
      "leitung": 5902,
      "infra": 5903,
      "2002": 5904,
      "wiederhol": 5905,
      "ständige": 5906,
      "entsprechend": 5907,
      "kredit": 5908,
      "code": 5909,
      "begrüße": 5910,
      "einrichtung": 5911,
      "dom": 5912,
      "ändert": 5913,
      "beitragen": 5914,
      "fein": 5915,
      "sammlung": 5916,
      "faktor": 5917,
      "int": 5918,
      "oli": 5919,
      "ano": 5920,
      "aspekte": 5921,
      "later": 5922,
      "kooper": 5923,
      "bedingt": 5924,
      "betrei": 5925,
      "entsprechenden": 5926,
      "parteien": 5927,
      "zuver": 5928,
      "suche": 5929,
      "gewähl": 5930,
      "pflan": 5931,
      "deine": 5932,
      "sichern": 5933,
      "atmosphäre": 5934,
      "tätigkeit": 5935,
      "hätten": 5936,
      "erkennen": 5937,
      "ember": 5938,
      "trägen": 5939,
      "medizin": 5940,
      "regelung": 5941,
      "zuführen": 5942,
      "behalten": 5943,
      "golf": 5944,
      "wirkung": 5945,
      "genutz": 5946,
      "modern": 5947,
      "verstanden": 5948,
      "gerin": 5949,
      "spannen": 5950,
      "welches": 5951,
      "ausgezeich": 5952,
      "behandelt": 5953,
      "paläst": 5954,
      "gangs": 5955,
      "innern": 5956,
      "strateg": 5957,
      "verf": 5958,
      "schlusselwortern": 5959,
      "bett": 5960,
      "alismus": 5961,
      "besuchen": 5962,
      "anspruch": 5963,
      "verhindern": 5964,
      "konzept": 5965,
      "winter": 5966,
      "fügen": 5967,
      "graph": 5968,
      "erfolgt": 5969,
      "vision": 5970,
      "korre": 5971,
      "berücksichtigt": 5972,
      "belieb": 5973,
      "vorhanden": 5974,
      "zerst": 5975,
      "beginnen": 5976,
      "enter": 5977,
      "grü": 5978,
      "uner": 5979,
      "ama": 5980,
      "zuständig": 5981,
      "betriebs": 5982,
      "losen": 5983,
      "adresse": 5984,
      "schaden": 5985,
      "gewesen": 5986,
      "ierenden": 5987,
      "wahrscheinlich": 5988,
      "instrumente": 5989,
      "from": 5990,
      "nova": 5991,
      "26": 5992,
      "zeitraum": 5993,
      "anderem": 5994,
      "zumin": 5995,
      "angelegenheiten": 5996,
      "begrüßen": 5997,
      "stri": 5998,
      "geschrieben": 5999,
      "hafte": 6000,
      "milliar": 6001,
      "november": 6002,
      "orden": 6003,
      "paris": 6004,
      "äumen": 6005,
      "versucht": 6006,
      "zumindest": 6007,
      "endlich": 6008,
      "gleiche": 6009,
      "chtet": 6010,
      "schöne": 6011,
      "aren": 6012,
      "jüng": 6013,
      "ry": 6014,
      "ana": 6015,
      "ging": 6016,
      "wünsche": 6017,
      "llo": 6018,
      "gebiete": 6019,
      "attra": 6020,
      "legten": 6021,
      "verfassung": 6022,
      "kro": 6023,
      "reformen": 6024,
      "erfahrungen": 6025,
      "ausbildung": 6026,
      "ime": 6027,
      "500": 6028,
      "weist": 6029,
      "hiel": 6030,
      "meter": 6031,
      "absol": 6032,
      "vereinbarung": 6033,
      "laut": 6034,
      "minde": 6035,
      "stehenden": 6036,
      "terrasse": 6037,
      "historischen": 6038,
      "sterne": 6039,
      "schützen": 6040,
      "fran": 6041,
      "april": 6042,
      "automatisch": 6043,
      "ökon": 6044,
      "etc": 6045,
      "pag": 6046,
      "tief": 6047,
      "gesellschaften": 6048,
      "ucht": 6049,
      "shop": 6050,
      "niveau": 6051,
      "amerika": 6052,
      "infrastruktur": 6053,
      "general": 6054,
      "hervorragen": 6055,
      "detail": 6056,
      "beschäftig": 6057,
      "para": 6058,
      "lat": 6059,
      "itzen": 6060,
      "sofern": 6061,
      "rechtsvorschriften": 6062,
      "monat": 6063,
      "ged": 6064,
      "modernen": 6065,
      "erhol": 6066,
      "ping": 6067,
      "überhaupt": 6068,
      "währung": 6069,
      "erfüllen": 6070,
      "irak": 6071,
      "sper": 6072,
      "rauch": 6073,
      "menge": 6074,
      "gal": 6075,
      "alte": 6076,
      "außerhalb": 6077,
      "emis": 6078,
      "steigen": 6079,
      "llar": 6080,
      "antrag": 6081,
      "28": 6082,
      "komplett": 6083,
      "usw": 6084,
      "letzte": 6085,
      "mitten": 6086,
      "kontext": 6087,
      "äre": 6088,
      "austausch": 6089,
      "terrorismus": 6090,
      "erklärt": 6091,
      "einfluss": 6092,
      "igur": 6093,
      "institutione": 6094,
      "üb": 6095,
      "www": 6096,
      "plätze": 6097,
      "zahlreichen": 6098,
      "lager": 6099,
      "senden": 6100,
      "wh": 6101,
      "poli": 6102,
      "losigkeit": 6103,
      "gesehen": 6104,
      "cy": 6105,
      "titel": 6106,
      "getroffen": 6107,
      "schwierigkeiten": 6108,
      "vergangenheit": 6109,
      "nütz": 6110,
      "entgegen": 6111,
      "berichterstatterin": 6112,
      "amerikanischen": 6113,
      "leiden": 6114,
      "zusätzlich": 6115,
      "respe": 6116,
      "nei": 6117,
      "beschreibung": 6118,
      "siehe": 6119,
      "nt": 6120,
      "aktu": 6121,
      "verpflicht": 6122,
      "forschungs": 6123,
      "osten": 6124,
      "landschaft": 6125,
      "wagen": 6126,
      "stets": 6127,
      "versorgung": 6128,
      "dynam": 6129,
      "orig": 6130,
      "erinnern": 6131,
      "hig": 6132,
      "gige": 6133,
      "pc": 6134,
      "busin": 6135,
      "col": 6136,
      "taus": 6137,
      "behinder": 6138,
      "geschütz": 6139,
      "politisch": 6140,
      "mögen": 6141,
      "richtlinien": 6142,
      "abschluss": 6143,
      "mess": 6144,
      "angen": 6145,
      "stellte": 6146,
      "jeweiligen": 6147,
      "diskrimin": 6148,
      "erwartet": 6149,
      "motor": 6150,
      "verpflichtet": 6151,
      "zusetzen": 6152,
      "ses": 6153,
      "verpflichtungen": 6154,
      "gren": 6155,
      "zahlt": 6156,
      "immobil": 6157,
      "angelegenheit": 6158,
      "sand": 6159,
      "seines": 6160,
      "geg": 6161,
      "orie": 6162,
      "verlu": 6163,
      "erreich": 6164,
      "kol": 6165,
      "nationale": 6166,
      "bade": 6167,
      "bessere": 6168,
      "our": 6169,
      "letzt": 6170,
      "länger": 6171,
      "einwander": 6172,
      "weiten": 6173,
      "worte": 6174,
      "persönlichen": 6175,
      "annahme": 6176,
      "finanziellen": 6177,
      "schule": 6178,
      "lichkeiten": 6179,
      "technologien": 6180,
      "vorgehen": 6181,
      "herunter": 6182,
      "bio": 6183,
      "deutsche": 6184,
      "berichte": 6185,
      "load": 6186,
      "mik": 6187,
      "geräte": 6188,
      "name": 6189,
      "erlaubt": 6190,
      "dir": 6191,
      "innova": 6192,
      "genug": 6193,
      "mitte": 6194,
      "ausschließlich": 6195,
      "meister": 6196,
      "herausforderungen": 6197,
      "cle": 6198,
      "vielfalt": 6199,
      "gs": 6200,
      "solidarität": 6201,
      "menschenrechts": 6202,
      "abschließend": 6203,
      "status": 6204,
      "business": 6205,
      "käu": 6206,
      "barer": 6207,
      "konsequ": 6208,
      "heutigen": 6209,
      "bren": 6210,
      "bitten": 6211,
      "ehemal": 6212,
      "sil": 6213,
      "privaten": 6214,
      "anken": 6215,
      "konflikt": 6216,
      "tauch": 6217,
      "autom": 6218,
      "programms": 6219,
      "zukünf": 6220,
      "konzer": 6221,
      "phil": 6222,
      "villa": 6223,
      "erzeug": 6224,
      "führte": 6225,
      "1999": 6226,
      "cks": 6227,
      "iens": 6228,
      "beziehung": 6229,
      "regen": 6230,
      "altungen": 6231,
      "zusätzliche": 6232,
      "museum": 6233,
      "kund": 6234,
      "indung": 6235,
      "achtet": 6236,
      "genutzt": 6237,
      "mitteilung": 6238,
      "sätze": 6239,
      "besucher": 6240,
      "aktionen": 6241,
      "bul": 6242,
      "gekommen": 6243,
      "hinsicht": 6244,
      "anwendungen": 6245,
      "verlei": 6246,
      "35": 6247,
      "ou": 6248,
      "armut": 6249,
      "nummer": 6250,
      "ya": 6251,
      "willkommen": 6252,
      "start": 6253,
      "bezogen": 6254,
      "falle": 6255,
      "zahlung": 6256,
      "iö": 6257,
      "übernehmen": 6258,
      "technische": 6259,
      "partnerschaft": 6260,
      "idee": 6261,
      "beque": 6262,
      "zerstör": 6263,
      "iges": 6264,
      "arbeitsplätze": 6265,
      "wesentlichen": 6266,
      "ständen": 6267,
      "viertel": 6268,
      "kürz": 6269,
      "selben": 6270,
      "maxim": 6271,
      "cli": 6272,
      "netzwerk": 6273,
      "top": 6274,
      "hostel": 6275,
      "29": 6276,
      "stren": 6277,
      "analyse": 6278,
      "paten": 6279,
      "schafft": 6280,
      "stock": 6281,
      "eingesch": 6282,
      "train": 6283,
      "paz": 6284,
      "kaum": 6285,
      "speziell": 6286,
      "bildungs": 6287,
      "mig": 6288,
      "kno": 6289,
      "schreiten": 6290,
      "erleben": 6291,
      "akte": 6292,
      "ökonom": 6293,
      "dische": 6294,
      "ruhe": 6295,
      "grunde": 6296,
      "ferner": 6297,
      "effizienz": 6298,
      "king": 6299,
      "messe": 6300,
      "vorteile": 6301,
      "haften": 6302,
      "arch": 6303,
      "milliarden": 6304,
      "mittelmeer": 6305,
      "ppe": 6306,
      "wald": 6307,
      "anteil": 6308,
      "strengungen": 6309,
      "häl": 6310,
      "danach": 6311,
      "digt": 6312,
      "aktuelle": 6313,
      "inhalte": 6314,
      "lebt": 6315,
      "matisch": 6316,
      "tain": 6317,
      "normal": 6318,
      "veröffentlich": 6319,
      "vorsitzen": 6320,
      "andi": 6321,
      "gesche": 6322,
      "spart": 6323,
      "dollar": 6324,
      "darstellt": 6325,
      "rechnung": 6326,
      "sehens": 6327,
      "immern": 6328,
      "benutzen": 6329,
      "lands": 6330,
      "profiti": 6331,
      "besonderen": 6332,
      "größere": 6333,
      "city": 6334,
      "positiv": 6335,
      "hauses": 6336,
      "möglicherweise": 6337,
      "uern": 6338,
      "ire": 6339,
      "chines": 6340,
      "einkauf": 6341,
      "methoden": 6342,
      "ierende": 6343,
      "stärken": 6344,
      "fördert": 6345,
      "räume": 6346,
      "nungen": 6347,
      "dringend": 6348,
      "denk": 6349,
      "lieben": 6350,
      "argu": 6351,
      "hinweisen": 6352,
      "une": 6353,
      "syn": 6354,
      "fenster": 6355,
      "dach": 6356,
      "presse": 6357,
      "eindeutig": 6358,
      "betre": 6359,
      "verständnis": 6360,
      "bemerk": 6361,
      "grenze": 6362,
      "entschieden": 6363,
      "kirche": 6364,
      "ison": 6365,
      "mitgliedstaat": 6366,
      "anstrengungen": 6367,
      "eingehen": 6368,
      "ideal": 6369,
      "mindestens": 6370,
      "läuft": 6371,
      "pop": 6372,
      "mittag": 6373,
      "benutzt": 6374,
      "unbedingt": 6375,
      "hon": 6376,
      "zustimmung": 6377,
      "autor": 6378,
      "anerkennung": 6379,
      "strom": 6380,
      "hren": 6381,
      "begriff": 6382,
      "reag": 6383,
      "press": 6384,
      "ep": 6385,
      "flei": 6386,
      "nel": 6387,
      "nahr": 6388,
      "liefert": 6389,
      "45": 6390,
      "finde": 6391,
      "bian": 6392,
      "sorg": 6393,
      "wesentlich": 6394,
      "stad": 6395,
      "verwaltungs": 6396,
      "cc": 6397,
      "pä": 6398,
      "durchführung": 6399,
      "hintergrund": 6400,
      "sent": 6401,
      "führten": 6402,
      "initiativen": 6403,
      "nega": 6404,
      "beschlossen": 6405,
      "entspricht": 6406,
      "leitet": 6407,
      "stunde": 6408,
      "schlaf": 6409,
      "genannt": 6410,
      "hner": 6411,
      "kompromiss": 6412,
      "fund": 6413,
      "dimen": 6414,
      "beiträ": 6415,
      "sonnen": 6416,
      "rang": 6417,
      "klang": 6418,
      "gegrün": 6419,
      "überzeugt": 6420,
      "hoffen": 6421,
      "stor": 6422,
      "hochwer": 6423,
      "sobald": 6424,
      "augu": 6425,
      "haupts": 6426,
      "andererseits": 6427,
      "maschine": 6428,
      "erneuer": 6429,
      "entschließungsan": 6430,
      "gewiesen": 6431,
      "verfügbar": 6432,
      "spunkt": 6433,
      "eisen": 6434,
      "berücksichtigen": 6435,
      "pake": 6436,
      "lligen": 6437,
      "vorgelegt": 6438,
      "london": 6439,
      "kannt": 6440,
      "farben": 6441,
      "stern": 6442,
      "quellen": 6443,
      "club": 6444,
      "gefühl": 6445,
      "197": 6446,
      "erwähnt": 6447,
      "schü": 6448,
      "brit": 6449,
      "isen": 6450,
      "sicherlich": 6451,
      "entsprechende": 6452,
      "prüfen": 6453,
      "entweder": 6454,
      "globalen": 6455,
      "rele": 6456,
      "produktions": 6457,
      "mio": 6458,
      "pau": 6459,
      "finanzielle": 6460,
      "zeugen": 6461,
      "dv": 6462,
      "vorbereit": 6463,
      "enor": 6464,
      "qualitäts": 6465,
      "unterschiedlichen": 6466,
      "gesprochen": 6467,
      "stattung": 6468,
      "vorteil": 6469,
      "warten": 6470,
      "bedro": 6471,
      "gezeigt": 6472,
      "angaben": 6473,
      "bestimmt": 6474,
      "angegeben": 6475,
      "näher": 6476,
      "trotzdem": 6477,
      "ction": 6478,
      "systemen": 6479,
      "appar": 6480,
      "sions": 6481,
      "erstellen": 6482,
      "tation": 6483,
      "palästinen": 6484,
      "til": 6485,
      "nachfolgen": 6486,
      "beitritt": 6487,
      "zuletzt": 6488,
      "sichten": 6489,
      "omen": 6490,
      "ergreifen": 6491,
      "ori": 6492,
      "professione": 6493,
      "option": 6494,
      "kapaz": 6495,
      "arischen": 6496,
      "eindruck": 6497,
      "pon": 6498,
      "world": 6499,
      "verabschie": 6500,
      "willen": 6501,
      "öffnen": 6502,
      "jene": 6503,
      "mehreren": 6504,
      "marken": 6505,
      "darunter": 6506,
      "beitritts": 6507,
      "gelöst": 6508,
      "akzeptieren": 6509,
      "roman": 6510,
      "rüst": 6511,
      "bewertung": 6512,
      "entsch": 6513,
      "methode": 6514,
      "engage": 6515,
      "werten": 6516,
      "vertrie": 6517,
      "geeignet": 6518,
      "pft": 6519,
      "derzei": 6520,
      "rufen": 6521,
      "größe": 6522,
      "weite": 6523,
      "kindern": 6524,
      "erde": 6525,
      "verbin": 6526,
      "entstehen": 6527,
      "stati": 6528,
      "back": 6529,
      "var": 6530,
      "angesprochen": 6531,
      "origin": 6532,
      "gerungen": 6533,
      "klasse": 6534,
      "monate": 6535,
      "cs": 6536,
      "polizei": 6537,
      "bilität": 6538,
      "griechen": 6539,
      "artigen": 6540,
      "zentrale": 6541,
      "gehalten": 6542,
      "eln": 6543,
      "grundsatz": 6544,
      "formular": 6545,
      "kreis": 6546,
      "yor": 6547,
      "bestehenden": 6548,
      "leiten": 6549,
      "cr": 6550,
      "einigung": 6551,
      "atten": 6552,
      "chance": 6553,
      "sicherzustellen": 6554,
      "entwurf": 6555,
      "begrün": 6556,
      "open": 6557,
      "ruf": 6558,
      "schlagen": 6559,
      "kommenden": 6560,
      "download": 6561,
      "britann": 6562,
      "breite": 6563,
      "elegan": 6564,
      "gerichtshof": 6565,
      "that": 6566,
      "veränderungen": 6567,
      "serie": 6568,
      "august": 6569,
      "eingerichtet": 6570,
      "steuern": 6571,
      "norm": 6572,
      "ib": 6573,
      "kopf": 6574,
      "homepage": 6575,
      "chern": 6576,
      "dich": 6577,
      "bewegung": 6578,
      "anderes": 6579,
      "vereinfach": 6580,
      "tiere": 6581,
      "ding": 6582,
      "vereinten": 6583,
      "welcher": 6584,
      "polen": 6585,
      "reserv": 6586,
      "ada": 6587,
      "lätzen": 6588,
      "dagegen": 6589,
      "erzielt": 6590,
      "wien": 6591,
      "notwendigen": 6592,
      "ukra": 6593,
      "cl": 6594,
      "voller": 6595,
      "kil": 6596,
      "stechn": 6597,
      "empfehlen": 6598,
      "lastung": 6599,
      "format": 6600,
      "300": 6601,
      "vermeiden": 6602,
      "forma": 6603,
      "bern": 6604,
      "tierten": 6605,
      "pho": 6606,
      "via": 6607,
      "wettbewerbsfähigkeit": 6608,
      "überwachung": 6609,
      "festgelegt": 6610,
      "att": 6611,
      "gewinn": 6612,
      "gegenwärtig": 6613,
      "sämtliche": 6614,
      "ml": 6615,
      "manch": 6616,
      "misch": 6617,
      "barcel": 6618,
      "krie": 6619,
      "erfüllt": 6620,
      "installation": 6621,
      "informieren": 6622,
      "bruch": 6623,
      "news": 6624,
      "umgesetzt": 6625,
      "distri": 6626,
      "geändert": 6627,
      "behaup": 6628,
      "beglei": 6629,
      "tierte": 6630,
      "illeg": 6631,
      "schweiz": 6632,
      "bereitet": 6633,
      "ologischen": 6634,
      "besei": 6635,
      "teilweise": 6636,
      "geschehen": 6637,
      "getragen": 6638,
      "ufen": 6639,
      "kandi": 6640,
      "angebote": 6641,
      "komponen": 6642,
      "unabhängig": 6643,
      "pres": 6644,
      "fit": 6645,
      "zimmern": 6646,
      "gegensei": 6647,
      "ini": 6648,
      "amt": 6649,
      "spekt": 6650,
      "regelungen": 6651,
      "schwä": 6652,
      "gn": 6653,
      "lab": 6654,
      "plä": 6655,
      "ans": 6656,
      "unterkategorien": 6657,
      "ai": 6658,
      "dex": 6659,
      "gelassen": 6660,
      "kunde": 6661,
      "tif": 6662,
      "plen": 6663,
      "mögliche": 6664,
      "sige": 6665,
      "verursach": 6666,
      "market": 6667,
      "gewinnen": 6668,
      "übereinkommen": 6669,
      "gutes": 6670,
      "lizenz": 6671,
      "deleg": 6672,
      "sprech": 6673,
      "jeweil": 6674,
      "siven": 6675,
      "arn": 6676,
      "küste": 6677,
      "reden": 6678,
      "hard": 6679,
      "seh": 6680,
      "anbie": 6681,
      "unterschied": 6682,
      "unabhän": 6683,
      "block": 6684,
      "jederzeit": 6685,
      "wohnung": 6686,
      "kritik": 6687,
      "staatlichen": 6688,
      "31": 6689,
      "fällt": 6690,
      "febru": 6691,
      "zellen": 6692,
      "februar": 6693,
      "richtet": 6694,
      "kompli": 6695,
      "ausgewo": 6696,
      "absatz": 6697,
      "ition": 6698,
      "fair": 6699,
      "abgeordnete": 6700,
      "flächen": 6701,
      "jeweils": 6702,
      "ausgehen": 6703,
      "schrän": 6704,
      "zählen": 6705,
      "tourismus": 6706,
      "rest": 6707,
      "vermie": 6708,
      "starke": 6709,
      "eingeschrän": 6710,
      "zuvor": 6711,
      "webseite": 6712,
      "absolut": 6713,
      "erf": 6714,
      "teilnehmer": 6715,
      "tsche": 6716,
      "ppen": 6717,
      "immobilien": 6718,
      "schwierig": 6719,
      "dritte": 6720,
      "stattfinden": 6721,
      "196": 6722,
      "schluß": 6723,
      "schir": 6724,
      "beachten": 6725,
      "benach": 6726,
      "onom": 6727,
      "möglichst": 6728,
      "zustand": 6729,
      "erzielen": 6730,
      "übernachten": 6731,
      "pul": 6732,
      "unbe": 6733,
      "gewün": 6734,
      "gerät": 6735,
      "deck": 6736,
      "wären": 6737,
      "grad": 6738,
      "zeption": 6739,
      "innovation": 6740,
      "klare": 6741,
      "schau": 6742,
      "betroffenen": 6743,
      "interne": 6744,
      "erfolgen": 6745,
      "städte": 6746,
      "wollte": 6747,
      "einhaltung": 6748,
      "gelangen": 6749,
      "glas": 6750,
      "erhöhen": 6751,
      "verfolgen": 6752,
      "währungs": 6753,
      "schr": 6754,
      "täglich": 6755,
      "flie": 6756,
      "ausdrücklich": 6757,
      "einkommen": 6758,
      "deswegen": 6759,
      "großbritann": 6760,
      "jour": 6761,
      "fahrer": 6762,
      "angezeigt": 6763,
      "cation": 6764,
      "wohner": 6765,
      "funktioniert": 6766,
      "verlassen": 6767,
      "klass": 6768,
      "kind": 6769,
      "hre": 6770,
      "verbessert": 6771,
      "elemente": 6772,
      "gründe": 6773,
      "bab": 6774,
      "debian": 6775,
      "steuerung": 6776,
      "cur": 6777,
      "nachfolgend": 6778,
      "jur": 6779,
      "ktieren": 6780,
      "maßen": 6781,
      "entschlossen": 6782,
      "mack": 6783,
      "beschluss": 6784,
      "zielen": 6785,
      "tent": 6786,
      "texte": 6787,
      "view": 6788,
      "fleisch": 6789,
      "sammel": 6790,
      "micro": 6791,
      "qualifiz": 6792,
      "lokalen": 6793,
      "hnung": 6794,
      "manchmal": 6795,
      "mangel": 6796,
      "allgemein": 6797,
      "sum": 6798,
      "private": 6799,
      "bud": 6800,
      "erstellt": 6801,
      "streben": 6802,
      "fortschritt": 6803,
      "serv": 6804,
      "tischer": 6805,
      "tradition": 6806,
      "unterschiedliche": 6807,
      "geschwind": 6808,
      "quar": 6809,
      "klimawandel": 6810,
      "papier": 6811,
      "ption": 6812,
      "betonen": 6813,
      "mutter": 6814,
      "verpflichtung": 6815,
      "funktionieren": 6816,
      "swert": 6817,
      "richtigen": 6818,
      "geräum": 6819,
      "tool": 6820,
      "gericht": 6821,
      "stem": 6822,
      "aspekt": 6823,
      "ausgang": 6824,
      "ón": 6825,
      "beteiligung": 6826,
      "allgemeine": 6827,
      "dium": 6828,
      "linux": 6829,
      "darstellen": 6830,
      "pflicht": 6831,
      "höchst": 6832,
      "cia": 6833,
      "tere": 6834,
      "nennen": 6835,
      "staff": 6836,
      "normen": 6837,
      "alisieren": 6838,
      "ript": 6839,
      "konfigur": 6840,
      "glaub": 6841,
      "veranstaltungen": 6842,
      "zig": 6843,
      "licherweise": 6844,
      "tienten": 6845,
      "bewahr": 6846,
      "profitieren": 6847,
      "konkrete": 6848,
      "iran": 6849,
      "einiger": 6850,
      "entwicklungen": 6851,
      "gefordert": 6852,
      "gesetzgebung": 6853,
      "nutzer": 6854,
      "unterkunft": 6855,
      "mana": 6856,
      "angene": 6857,
      "überra": 6858,
      "prioritäten": 6859,
      "zugän": 6860,
      "teren": 6861,
      "aussicht": 6862,
      "berge": 6863,
      "engagement": 6864,
      "ffet": 6865,
      "kulturellen": 6866,
      "verfahrens": 6867,
      "ideen": 6868,
      "vielfäl": 6869,
      "statten": 6870,
      "flücht": 6871,
      "beihilfen": 6872,
      "been": 6873,
      "architektur": 6874,
      "brüssel": 6875,
      "tell": 6876,
      "studien": 6877,
      "services": 6878,
      "global": 6879,
      "gestalten": 6880,
      "loss": 6881,
      "tschech": 6882,
      "zugleich": 6883,
      "daraus": 6884,
      "bor": 6885,
      "verehr": 6886,
      "sup": 6887,
      "traum": 6888,
      "wenigen": 6889,
      "patienten": 6890,
      "dimension": 6891,
      "ye": 6892,
      "straf": 6893,
      "pflanzen": 6894,
      "problemen": 6895,
      "lit": 6896,
      "überprüfen": 6897,
      "übertragen": 6898,
      "cer": 6899,
      "durchaus": 6900,
      "unterschei": 6901,
      "verloren": 6902,
      "symb": 6903,
      "work": 6904,
      "sehenswürdig": 6905,
      "befu": 6906,
      "nächste": 6907,
      "verteidigung": 6908,
      "med": 6909,
      "uch": 6910,
      "niedr": 6911,
      "kostenlos": 6912,
      "veröffentlicht": 6913,
      "gegründet": 6914,
      "vas": 6915,
      "konto": 6916,
      "erklären": 6917,
      "ado": 6918,
      "sicherung": 6919,
      "herzlich": 6920,
      "bedenken": 6921,
      "peratur": 6922,
      "ters": 6923,
      "mitgliedern": 6924,
      "pil": 6925,
      "bir": 6926,
      "atom": 6927,
      "gewährleistet": 6928,
      "soweit": 6929,
      "bedürfnisse": 6930,
      "gig": 6931,
      "ctor": 6932,
      "link": 6933,
      "uld": 6934,
      "benötigt": 6935,
      "herausforderung": 6936,
      "gestaltung": 6937,
      "phase": 6938,
      "entspannen": 6939,
      "datenbank": 6940,
      "digit": 6941,
      "fähig": 6942,
      "offensichtlich": 6943,
      "lege": 6944,
      "betrachtet": 6945,
      "übertrag": 6946,
      "lesung": 6947,
      "behörde": 6948,
      "strukturen": 6949,
      "antie": 6950,
      "meeres": 6951,
      "königreich": 6952,
      "freue": 6953,
      "sou": 6954,
      "abgeschlossen": 6955,
      "vorbe": 6956,
      "versuch": 6957,
      "haber": 6958,
      "ök": 6959,
      "grenzüber": 6960,
      "positive": 6961,
      "afrika": 6962,
      "bene": 6963,
      "persönlich": 6964,
      "erscheint": 6965,
      "sprogramm": 6966,
      "französischen": 6967,
      "angehör": 6968,
      "ara": 6969,
      "amster": 6970,
      "day": 6971,
      "rechnungs": 6972,
      "tut": 6973,
      "führungs": 6974,
      "jahrhunderts": 6975,
      "lim": 6976,
      "überall": 6977,
      "schulden": 6978,
      "ight": 6979,
      "symbol": 6980,
      "gebrauch": 6981,
      "arbeitslosigkeit": 6982,
      "prüfung": 6983,
      "sauber": 6984,
      "entdeck": 6985,
      "konzentrieren": 6986,
      "verbrechen": 6987,
      "stellungnahme": 6988,
      "betten": 6989,
      "hielt": 6990,
      "strich": 6991,
      "planung": 6992,
      "grat": 6993,
      "genü": 6994,
      "folgende": 6995,
      "geo": 6996,
      "politischer": 6997,
      "zählt": 6998,
      "barcelona": 6999,
      "studen": 7000,
      "arm": 7001,
      "jungen": 7002,
      "lles": 7003,
      "rand": 7004,
      "dipl": 7005,
      "gelungen": 7006,
      "ünf": 7007,
      "breiten": 7008,
      "schäden": 7009,
      "ieht": 7010,
      "drogen": 7011,
      "erleb": 7012,
      "entschließungsantrag": 7013,
      "platt": 7014,
      "kamera": 7015,
      "hauptstadt": 7016,
      "flüge": 7017,
      "diskutieren": 7018,
      "bereiten": 7019,
      "legte": 7020,
      "miteinander": 7021,
      "universität": 7022,
      "maße": 7023,
      "scho": 7024,
      "damals": 7025,
      "mittels": 7026,
      "volution": 7027,
      "miß": 7028,
      "jährigen": 7029,
      "kungen": 7030,
      "tzent": 7031,
      "gott": 7032,
      "booking": 7033,
      "gesetze": 7034,
      "freut": 7035,
      "sehenswürdigkeiten": 7036,
      "ette": 7037,
      "menü": 7038,
      "regionalen": 7039,
      "geh": 7040,
      "way": 7041,
      "zesse": 7042,
      "auseinander": 7043,
      "worfen": 7044,
      "rumän": 7045,
      "llos": 7046,
      "dol": 7047,
      "reaktion": 7048,
      "gold": 7049,
      "mini": 7050,
      "heimat": 7051,
      "geplan": 7052,
      "endgül": 7053,
      "umfasst": 7054,
      "chancen": 7055,
      "rö": 7056,
      "entdecken": 7057,
      "punkten": 7058,
      "unt": 7059,
      "vollkommen": 7060,
      "fotos": 7061,
      "nahrungs": 7062,
      "bö": 7063,
      "wirkt": 7064,
      "spezielle": 7065,
      "schulen": 7066,
      "arab": 7067,
      "zoll": 7068,
      "geleistet": 7069,
      "steurop": 7070,
      "risiken": 7071,
      "ausgewähl": 7072,
      "demokratische": 7073,
      "fla": 7074,
      "passt": 7075,
      "großbritannien": 7076,
      "live": 7077,
      "verbindungen": 7078,
      "anmel": 7079,
      "kaufen": 7080,
      "verbrei": 7081,
      "instit": 7082,
      "free": 7083,
      "cat": 7084,
      "stärkung": 7085,
      "stands": 7086,
      "ologische": 7087,
      "tert": 7088,
      "solu": 7089,
      "bill": 7090,
      "garantiert": 7091,
      "englisch": 7092,
      "prakti": 7093,
      "kas": 7094,
      "strategien": 7095,
      "ausstattung": 7096,
      "exklu": 7097,
      "nahm": 7098,
      "erforderlichen": 7099,
      "führenden": 7100,
      "36": 7101,
      "aufsicht": 7102,
      "vielmehr": 7103,
      "feststellen": 7104,
      "gedanken": 7105,
      "atoren": 7106,
      "niemand": 7107,
      "verfolgt": 7108,
      "materialien": 7109,
      "vene": 7110,
      "abkommens": 7111,
      "landwir": 7112,
      "islam": 7113,
      "haltet": 7114,
      "32": 7115,
      "verfol": 7116,
      "einsetzen": 7117,
      "cham": 7118,
      "koso": 7119,
      "vernünf": 7120,
      "tab": 7121,
      "modul": 7122,
      "einfache": 7123,
      "vielzahl": 7124,
      "farb": 7125,
      "mäch": 7126,
      "fangen": 7127,
      "justiz": 7128,
      "ghan": 7129,
      "großes": 7130,
      "lige": 7131,
      "swi": 7132,
      "wto": 7133,
      "break": 7134,
      "box": 7135,
      "taten": 7136,
      "hingewiesen": 7137,
      "relativ": 7138,
      "oso": 7139,
      "schauen": 7140,
      "element": 7141,
      "geschmack": 7142,
      "bezeichnet": 7143,
      "betracht": 7144,
      "gebil": 7145,
      "winden": 7146,
      "boot": 7147,
      "streit": 7148,
      "raucher": 7149,
      "tlichen": 7150,
      "westen": 7151,
      "betrachten": 7152,
      "verträge": 7153,
      "klei": 7154,
      "iv": 7155,
      "exter": 7156,
      "besitzt": 7157,
      "orte": 7158,
      "inseln": 7159,
      "internationaler": 7160,
      "öffnung": 7161,
      "bekannten": 7162,
      "beur": 7163,
      "datenschutz": 7164,
      "bay": 7165,
      "klas": 7166,
      "asien": 7167,
      "sonn": 7168,
      "krisen": 7169,
      "gegenwärtigen": 7170,
      "weiterer": 7171,
      "anschluss": 7172,
      "indien": 7173,
      "eingeführt": 7174,
      "wachstums": 7175,
      "ance": 7176,
      "bez": 7177,
      "atlan": 7178,
      "knü": 7179,
      "pati": 7180,
      "zugriff": 7181,
      "geor": 7182,
      "stoffen": 7183,
      "buffet": 7184,
      "renov": 7185,
      "messen": 7186,
      "still": 7187,
      "krea": 7188,
      "bemer": 7189,
      "massen": 7190,
      "wichtigste": 7191,
      "einger": 7192,
      "1998": 7193,
      "irland": 7194,
      "hauptsä": 7195,
      "globalisierung": 7196,
      "experten": 7197,
      "erwer": 7198,
      "käufer": 7199,
      "ratsvorsitz": 7200,
      "minim": 7201,
      "maler": 7202,
      "geschützt": 7203,
      "umfassende": 7204,
      "grünen": 7205,
      "kommissions": 7206,
      "fron": 7207,
      "kla": 7208,
      "audio": 7209,
      "priorität": 7210,
      "arme": 7211,
      "jun": 7212,
      "effektiv": 7213,
      "resul": 7214,
      "kore": 7215,
      "gästen": 7216,
      "mitglieds": 7217,
      "demon": 7218,
      "feuer": 7219,
      "zz": 7220,
      "gebe": 7221,
      "persönliche": 7222,
      "dring": 7223,
      "fand": 7224,
      "beweg": 7225,
      "bungen": 7226,
      "wellness": 7227,
      "haut": 7228,
      "praktisch": 7229,
      "bestätigt": 7230,
      "europäer": 7231,
      "diesel": 7232,
      "brow": 7233,
      "beginnt": 7234,
      "apparte": 7235,
      "vermögen": 7236,
      "geschäftsordnung": 7237,
      "befug": 7238,
      "griechenland": 7239,
      "bindung": 7240,
      "üben": 7241,
      "keinerlei": 7242,
      "dia": 7243,
      "gestern": 7244,
      "vorliegenden": 7245,
      "stö": 7246,
      "bras": 7247,
      "brück": 7248,
      "fremden": 7249,
      "bert": 7250,
      "lieferung": 7251,
      "generation": 7252,
      "bibli": 7253,
      "beratung": 7254,
      "nachrichten": 7255,
      "unterstütze": 7256,
      "marktes": 7257,
      "kö": 7258,
      "temperatur": 7259,
      "diskriminierung": 7260,
      "forum": 7261,
      "geschwindigkeit": 7262,
      "beteiligt": 7263,
      "sieben": 7264,
      "zahlungs": 7265,
      "blu": 7266,
      "berichten": 7267,
      "zustimmen": 7268,
      "hinweis": 7269,
      "extrem": 7270,
      "ideale": 7271,
      "kosovo": 7272,
      "bewäl": 7273,
      "redner": 7274,
      "leich": 7275,
      "empfän": 7276,
      "prim": 7277,
      "sischen": 7278,
      "hergestellt": 7279,
      "konsul": 7280,
      "müs": 7281,
      "drän": 7282,
      "dos": 7283,
      "fahrzeug": 7284,
      "erklärungen": 7285,
      "alternative": 7286,
      "stör": 7287,
      "ay": 7288,
      "high": 7289,
      "ukraine": 7290,
      "media": 7291,
      "selten": 7292,
      "voraussetzungen": 7293,
      "freiwill": 7294,
      "branche": 7295,
      "agenda": 7296,
      "friedens": 7297,
      "ruhigen": 7298,
      "männer": 7299,
      "ausreichend": 7300,
      "dokumente": 7301,
      "tagung": 7302,
      "haushaltsplan": 7303,
      "ometer": 7304,
      "ule": 7305,
      "solcher": 7306,
      "sah": 7307,
      "mischen": 7308,
      "größeren": 7309,
      "schneller": 7310,
      "01": 7311,
      "ergeben": 7312,
      "wortet": 7313,
      "zuerst": 7314,
      "nötig": 7315,
      "tau": 7316,
      "altstadt": 7317,
      "eigenschaften": 7318,
      "48": 7319,
      "tabel": 7320,
      "ffee": 7321,
      "stahl": 7322,
      "händ": 7323,
      "sky": 7324,
      "werbe": 7325,
      "genannte": 7326,
      "dition": 7327,
      "has": 7328,
      "todes": 7329,
      "stadtzent": 7330,
      "garantie": 7331,
      "entspann": 7332,
      "good": 7333,
      "junge": 7334,
      "freunde": 7335,
      "politiker": 7336,
      "bla": 7337,
      "spir": 7338,
      "ling": 7339,
      "teilnehmen": 7340,
      "garantieren": 7341,
      "beinhaltet": 7342,
      "demokraten": 7343,
      "märkten": 7344,
      "gerech": 7345,
      "ratifiz": 7346,
      "modi": 7347,
      "york": 7348,
      "gewal": 7349,
      "mun": 7350,
      "verbundenen": 7351,
      "humanitä": 7352,
      "unabhängigkeit": 7353,
      "bewegen": 7354,
      "cho": 7355,
      "radio": 7356,
      "pin": 7357,
      "gerufen": 7358,
      "chtern": 7359,
      "75": 7360,
      "urt": 7361,
      "istisch": 7362,
      "rent": 7363,
      "digital": 7364,
      "administ": 7365,
      "sau": 7366,
      "flexibilität": 7367,
      "bequem": 7368,
      "beschäftigungs": 7369,
      "liberalisierung": 7370,
      "iso": 7371,
      "verarbeitung": 7372,
      "erwachsen": 7373,
      "öder": 7374,
      "einkaufs": 7375,
      "laufe": 7376,
      "wör": 7377,
      "tri": 7378,
      "welchen": 7379,
      "geschle": 7380,
      "speziellen": 7381,
      "kriegs": 7382,
      "geheim": 7383,
      "set": 7384,
      "browser": 7385,
      "gran": 7386,
      "teuer": 7387,
      "gratul": 7388,
      "hop": 7389,
      "hängt": 7390,
      "stieg": 7391,
      "rezeption": 7392,
      "botschaft": 7393,
      "cop": 7394,
      "its": 7395,
      "kohä": 7396,
      "britischen": 7397,
      "kandidaten": 7398,
      "starken": 7399,
      "biblio": 7400,
      "anliegen": 7401,
      "blog": 7402,
      "bulgar": 7403,
      "getr": 7404,
      "verhinder": 7405,
      "apartments": 7406,
      "seien": 7407,
      "regional": 7408,
      "angriff": 7409,
      "put": 7410,
      "erscheinen": 7411,
      "armen": 7412,
      "prise": 7413,
      "afghan": 7414,
      "gezogen": 7415,
      "diver": 7416,
      "beglück": 7417,
      "durchschnitt": 7418,
      "av": 7419,
      "hrt": 7420,
      "unterschiede": 7421,
      "wohnungen": 7422,
      "überprüfung": 7423,
      "ereignisse": 7424,
      "szen": 7425,
      "tö": 7426,
      "häfen": 7427,
      "refer": 7428,
      "portug": 7429,
      "ablen": 7430,
      "sing": 7431,
      "erhöht": 7432,
      "hauptsächlich": 7433,
      "auso": 7434,
      "radi": 7435,
      "kreu": 7436,
      "stol": 7437,
      "isol": 7438,
      "asyl": 7439,
      "geöffnet": 7440,
      "house": 7441,
      "kranken": 7442,
      "freiheiten": 7443,
      "mindest": 7444,
      "és": 7445,
      "mr": 7446,
      "bedien": 7447,
      "guter": 7448,
      "lehnt": 7449,
      "verbot": 7450,
      "leiter": 7451,
      "how": 7452,
      "empfehlungen": 7453,
      "passung": 7454,
      "geschäf": 7455,
      "assungs": 7456,
      "inzwischen": 7457,
      "saison": 7458,
      "sites": 7459,
      "flor": 7460,
      "verzeich": 7461,
      "betrag": 7462,
      "unzu": 7463,
      "were": 7464,
      "identi": 7465,
      "maßnahme": 7466,
      "gegensatz": 7467,
      "nahen": 7468,
      "lob": 7469,
      "psy": 7470,
      "kenntnisse": 7471,
      "manche": 7472,
      "hälfte": 7473,
      "finn": 7474,
      "ots": 7475,
      "cial": 7476,
      "einzelne": 7477,
      "jahrzehn": 7478,
      "mittelt": 7479,
      "verlust": 7480,
      "betreu": 7481,
      "einerseits": 7482,
      "dä": 7483,
      "wall": 7484,
      "parti": 7485,
      "rechtlichen": 7486,
      "verlangen": 7487,
      "realität": 7488,
      "isation": 7489,
      "repräsen": 7490,
      "nehmern": 7491,
      "abil": 7492,
      "peti": 7493,
      "fraktionen": 7494,
      "nein": 7495,
      "grand": 7496,
      "mikro": 7497,
      "ons": 7498,
      "amsterdam": 7499,
      "latz": 7500,
      "legis": 7501,
      "ausland": 7502,
      "kontinent": 7503,
      "time": 7504,
      "rate": 7505,
      "tliche": 7506,
      "auslän": 7507,
      "unterst": 7508,
      "verändert": 7509,
      "zufolge": 7510,
      "ärm": 7511,
      "unternehmer": 7512,
      "erhöhung": 7513,
      "informiert": 7514,
      "fahrzeuge": 7515,
      "theater": 7516,
      "griech": 7517,
      "nationaler": 7518,
      "langsam": 7519,
      "konkur": 7520,
      "38": 7521,
      "seg": 7522,
      "anpassung": 7523,
      "kürzlich": 7524,
      "gebühren": 7525,
      "süden": 7526,
      "uno": 7527,
      "einverstanden": 7528,
      "nachhaltige": 7529,
      "anbieter": 7530,
      "sens": 7531,
      "freundliche": 7532,
      "journ": 7533,
      "genauso": 7534,
      "aka": 7535,
      "studie": 7536,
      "außerorden": 7537,
      "sorgfäl": 7538,
      "teilnahme": 7539,
      "plus": 7540,
      "jüngsten": 7541,
      "täu": 7542,
      "ish": 7543,
      "echte": 7544,
      "mall": 7545,
      "schloss": 7546,
      "ev": 7547,
      "hoffnung": 7548,
      "territ": 7549,
      "bibliothe": 7550,
      "schre": 7551,
      "kompetenz": 7552,
      "besorg": 7553,
      "här": 7554,
      "perspe": 7555,
      "vorbereitung": 7556,
      "geschieht": 7557,
      "bä": 7558,
      "liefern": 7559,
      "emissionen": 7560,
      "bestandteil": 7561,
      "komponenten": 7562,
      "verste": 7563,
      "kna": 7564,
      "sensi": 7565,
      "kampag": 7566,
      "legiti": 7567,
      "einzigen": 7568,
      "gewisse": 7569,
      "frühstücks": 7570,
      "touristen": 7571,
      "gewissen": 7572,
      "98": 7573,
      "orten": 7574,
      "df": 7575,
      "berühmten": 7576,
      "salz": 7577,
      "ausgesetzt": 7578,
      "programmen": 7579,
      "hilfs": 7580,
      "regelmäßig": 7581,
      "bese": 7582,
      "freit": 7583,
      "nachfrage": 7584,
      "fle": 7585,
      "rüstung": 7586,
      "tät": 7587,
      "kontinu": 7588,
      "freude": 7589,
      "ats": 7590,
      "breitung": 7591,
      "wol": 7592,
      "marketing": 7593,
      "kontrollen": 7594,
      "veran": 7595,
      "power": 7596,
      "trifft": 7597,
      "bauern": 7598,
      "grundrechte": 7599,
      "buchen": 7600,
      "europe": 7601,
      "mission": 7602,
      "deiner": 7603,
      "absicht": 7604,
      "auftreten": 7605,
      "expor": 7606,
      "betrug": 7607,
      "drucken": 7608,
      "minderheiten": 7609,
      "gegenteil": 7610,
      "beteiligten": 7611,
      "umgeben": 7612,
      "norden": 7613,
      "az": 7614,
      "ausstellung": 7615,
      "gress": 7616,
      "betrieben": 7617,
      "34": 7618,
      "zahlungen": 7619,
      "meist": 7620,
      "dun": 7621,
      "pfer": 7622,
      "festgestellt": 7623,
      "beraten": 7624,
      "have": 7625,
      "besseren": 7626,
      "kroa": 7627,
      "einstellung": 7628,
      "jährlich": 7629,
      "globale": 7630,
      "zugänglich": 7631,
      "over": 7632,
      "weiteres": 7633,
      "original": 7634,
      "gesetzes": 7635,
      "unternommen": 7636,
      "kombination": 7637,
      "versammlung": 7638,
      "mutz": 7639,
      "fühlen": 7640,
      "erfordert": 7641,
      "vorgeschlagenen": 7642,
      "iertes": 7643,
      "igte": 7644,
      "linge": 7645,
      "begei": 7646,
      "kabel": 7647,
      "klaren": 7648,
      "blut": 7649,
      "ese": 7650,
      "projekten": 7651,
      "breakfast": 7652,
      "strö": 7653,
      "leun": 7654,
      "anbieten": 7655,
      "gewünsch": 7656,
      "geboren": 7657,
      "beschleun": 7658,
      "partnern": 7659,
      "fuhr": 7660,
      "raft": 7661,
      "kategorie": 7662,
      "übernommen": 7663,
      "voraussetzung": 7664,
      "zuverläss": 7665,
      "äng": 7666,
      "kommunikations": 7667,
      "brie": 7668,
      "meinungs": 7669,
      "ordnungs": 7670,
      "llung": 7671,
      "gefahren": 7672,
      "wodurch": 7673,
      "ismen": 7674,
      "niederlan": 7675,
      "vermitt": 7676,
      "anstatt": 7677,
      "wesentliche": 7678,
      "card": 7679,
      "old": 7680,
      "farbe": 7681,
      "werfen": 7682,
      "abhängig": 7683,
      "historische": 7684,
      "koordinierung": 7685,
      "stop": 7686,
      "bergen": 7687,
      "eltern": 7688,
      "vorhaben": 7689,
      "decken": 7690,
      "sym": 7691,
      "schwerpunkt": 7692,
      "quelle": 7693,
      "spartner": 7694,
      "ausnahme": 7695,
      "details": 7696,
      "1997": 7697,
      "solange": 7698,
      "klimaanlage": 7699,
      "tod": 7700,
      "kooperation": 7701,
      "amen": 7702,
      "zel": 7703,
      "fän": 7704,
      "ica": 7705,
      "einschrän": 7706,
      "sektors": 7707,
      "untersuchung": 7708,
      "ausgabe": 7709,
      "delt": 7710,
      "verteilung": 7711,
      "revolution": 7712,
      "fertigt": 7713,
      "wendet": 7714,
      "bah": 7715,
      "zweife": 7716,
      "überzeugen": 7717,
      "ow": 7718,
      "transpor": 7719,
      "starten": 7720,
      "drittens": 7721,
      "fragt": 7722,
      "platten": 7723,
      "vig": 7724,
      "safe": 7725,
      "vorschlagen": 7726,
      "wicklung": 7727,
      "traditionellen": 7728,
      "güter": 7729,
      "manager": 7730,
      "intensiv": 7731,
      "german": 7732,
      "stift": 7733,
      "geschäfte": 7734,
      "gam": 7735,
      "date": 7736,
      "beschäftigt": 7737,
      "enterprise": 7738,
      "beauftrag": 7739,
      "hart": 7740,
      "faktoren": 7741,
      "ansprü": 7742,
      "regionale": 7743,
      "seitens": 7744,
      "spezifischen": 7745,
      "nochmals": 7746,
      "nichtraucher": 7747,
      "kette": 7748,
      "satell": 7749,
      "züge": 7750,
      "fab": 7751,
      "itor": 7752,
      "alien": 7753,
      "ads": 7754,
      "37": 7755,
      "entlich": 7756,
      "kos": 7757,
      "zweifellos": 7758,
      "wahrheit": 7759,
      "zern": 7760,
      "kommer": 7761,
      "studio": 7762,
      "voran": 7763,
      "cket": 7764,
      "hann": 7765,
      "beam": 7766,
      "blau": 7767,
      "teils": 7768,
      "angeht": 7769,
      "entstanden": 7770,
      "verfügbarkeit": 7771,
      "prüft": 7772,
      "verzö": 7773,
      "provin": 7774,
      "grenzüberschreiten": 7775,
      "läuf": 7776,
      "diskutiert": 7777,
      "gesicht": 7778,
      "beweis": 7779,
      "hängen": 7780,
      "asen": 7781,
      "wegs": 7782,
      "reagieren": 7783,
      "dvd": 7784,
      "krankheiten": 7785,
      "fac": 7786,
      "ungleich": 7787,
      "gewählt": 7788,
      "ash": 7789,
      "marke": 7790,
      "bezieht": 7791,
      "krankheit": 7792,
      "extra": 7793,
      "your": 7794,
      "höchste": 7795,
      "leu": 7796,
      "brand": 7797,
      "annehm": 7798,
      "rot": 7799,
      "wässer": 7800,
      "spür": 7801,
      "group": 7802,
      "prem": 7803,
      "haftung": 7804,
      "jung": 7805,
      "schwach": 7806,
      "feier": 7807,
      "moral": 7808,
      "spezifische": 7809,
      "photo": 7810,
      "amerikanische": 7811,
      "weshalb": 7812,
      "zwungen": 7813,
      "utt": 7814,
      "datum": 7815,
      "bedauer": 7816,
      "veranstaltung": 7817,
      "let": 7818,
      "ickt": 7819,
      "schweden": 7820,
      "prinzipien": 7821,
      "zusatz": 7822,
      "fitness": 7823,
      "stehende": 7824,
      "grundsätze": 7825,
      "regime": 7826,
      "sound": 7827,
      "mac": 7828,
      "geträn": 7829,
      "kurzem": 7830,
      "schutzes": 7831,
      "transfer": 7832,
      "ally": 7833,
      "isieren": 7834,
      "lassung": 7835,
      "definition": 7836,
      "räumen": 7837,
      "positiven": 7838,
      "prote": 7839,
      "preisen": 7840,
      "grei": 7841,
      "leitlinien": 7842,
      "stadtzentrum": 7843,
      "tisierung": 7844,
      "freizeit": 7845,
      "anfragen": 7846,
      "location": 7847,
      "stik": 7848,
      "regelmäß": 7849,
      "zier": 7850,
      "zentren": 7851,
      "impor": 7852,
      "brasil": 7853,
      "behandeln": 7854,
      "iode": 7855,
      "betont": 7856,
      "akzeptiert": 7857,
      "fut": 7858,
      "begann": 7859,
      "prüf": 7860,
      "schirm": 7861,
      "schlecht": 7862,
      "gos": 7863,
      "standort": 7864,
      "ausgewogen": 7865,
      "ecu": 7866,
      "ls": 7867,
      "bemühen": 7868,
      "isiert": 7869,
      "jährige": 7870,
      "rt": 7871,
      "treiben": 7872,
      "konzep": 7873,
      "kret": 7874,
      "rasch": 7875,
      "signal": 7876,
      "zeß": 7877,
      "einstellungen": 7878,
      "400": 7879,
      "ix": 7880,
      "erläu": 7881,
      "reduz": 7882,
      "dé": 7883,
      "lug": 7884,
      "strä": 7885,
      "schien": 7886,
      "tp": 7887,
      "vorschlägen": 7888,
      "mern": 7889,
      "diskussionen": 7890,
      "ländlichen": 7891,
      "verstärkt": 7892,
      "keines": 7893,
      "zwang": 7894,
      "entlang": 7895,
      "goog": 7896,
      "deckt": 7897,
      "bildet": 7898,
      "alp": 7899,
      "kollege": 7900,
      "berühr": 7901,
      "150": 7902,
      "portugal": 7903,
      "frien": 7904,
      "kühl": 7905,
      "gänge": 7906,
      "runde": 7907,
      "jemand": 7908,
      "suite": 7909,
      "annt": 7910,
      "unmittelbar": 7911,
      "kulturelle": 7912,
      "cap": 7913,
      "raten": 7914,
      "ambien": 7915,
      "brü": 7916,
      "begonnen": 7917,
      "wid": 7918,
      "verantwortungs": 7919,
      "liter": 7920,
      "vertra": 7921,
      "gearbeitet": 7922,
      "auben": 7923,
      "aktive": 7924,
      "ehemaligen": 7925,
      "umständen": 7926,
      "betriebe": 7927,
      "univer": 7928,
      "hoher": 7929,
      "poker": 7930,
      "intelligen": 7931,
      "iken": 7932,
      "optionen": 7933,
      "italienischen": 7934,
      "ischem": 7935,
      "99": 7936,
      "sicherstellen": 7937,
      "wichtiges": 7938,
      "gebunden": 7939,
      "itze": 7940,
      "verlieren": 7941,
      "ez": 7942,
      "nes": 7943,
      "einklang": 7944,
      "gemeinde": 7945,
      "mechanismen": 7946,
      "einwanderung": 7947,
      "kapi": 7948,
      "komment": 7949,
      "ersatz": 7950,
      "falsch": 7951,
      "buchung": 7952,
      "ise": 7953,
      "33": 7954,
      "unterschiedlich": 7955,
      "berücksichtigung": 7956,
      "microsoft": 7957,
      "bör": 7958,
      "tigten": 7959,
      "beschrieben": 7960,
      "beiträge": 7961,
      "google": 7962,
      "folgerungen": 7963,
      "berufs": 7964,
      "fuer": 7965,
      "basiert": 7966,
      "benen": 7967,
      "wiederum": 7968,
      "wil": 7969,
      "kämpfen": 7970,
      "werken": 7971,
      "gespeicher": 7972,
      "stellungs": 7973,
      "katastrophen": 7974,
      "zonen": 7975,
      "sat": 7976,
      "ary": 7977,
      "wissenschaftlichen": 7978,
      "unsten": 7979,
      "bucht": 7980,
      "spruch": 7981,
      "ero": 7982,
      "beeinfl": 7983,
      "krä": 7984,
      "phy": 7985,
      "qualita": 7986,
      "vater": 7987,
      "verlän": 7988,
      "kit": 7989,
      "gestellten": 7990,
      "subst": 7991,
      "mehrwert": 7992,
      "alb": 7993,
      "sied": 7994,
      "front": 7995,
      "contro": 7996,
      "ola": 7997,
      "journal": 7998,
      "gering": 7999,
      "zwecke": 8000,
      "ql": 8001,
      "ergriffen": 8002,
      "gleicher": 8003,
      "philoso": 8004,
      "werbung": 8005,
      "staatliche": 8006,
      "inf": 8007,
      "plattform": 8008,
      "urlau": 8009,
      "hierbei": 8010,
      "inne": 8011,
      "gy": 8012,
      "arität": 8013,
      "key": 8014,
      "fax": 8015,
      "derzeitigen": 8016,
      "kaffee": 8017,
      "php": 8018,
      "scheinen": 8019,
      "195": 8020,
      "arbeitsmarkt": 8021,
      "konkreten": 8022,
      "latein": 8023,
      "erör": 8024,
      "befassen": 8025,
      "institutionellen": 8026,
      "besorgnis": 8027,
      "fak": 8028,
      "erlauben": 8029,
      "vorgenommen": 8030,
      "geschen": 8031,
      "1996": 8032,
      "pic": 8033,
      "mechanismus": 8034,
      "schätzen": 8035,
      "mau": 8036,
      "institution": 8037,
      "strukturfonds": 8038,
      "interessante": 8039,
      "außergewöhn": 8040,
      "ktiver": 8041,
      "metro": 8042,
      "email": 8043,
      "abschnitt": 8044,
      "schnei": 8045,
      "anerkannt": 8046,
      "landwirte": 8047,
      "appli": 8048,
      "delegation": 8049,
      "vorschlags": 8050,
      "studenten": 8051,
      "gungs": 8052,
      "tom": 8053,
      "höhere": 8054,
      "empfehlung": 8055,
      "sidi": 8056,
      "gespräche": 8057,
      "sele": 8058,
      "vereinbarungen": 8059,
      "ernähr": 8060,
      "zielt": 8061,
      "geehr": 8062,
      "mob": 8063,
      "male": 8064,
      "umfassenden": 8065,
      "ambiente": 8066,
      "gepä": 8067,
      "spanischen": 8068,
      "engag": 8069,
      "dienstleistungs": 8070,
      "entscheidend": 8071,
      "hilft": 8072,
      "begeg": 8073,
      "modelle": 8074,
      "absich": 8075,
      "matik": 8076,
      "erhältlich": 8077,
      "sanktionen": 8078,
      "dusche": 8079,
      "kilometer": 8080,
      "zulegen": 8081,
      "panor": 8082,
      "97": 8083,
      "player": 8084,
      "eten": 8085,
      "fie": 8086,
      "schuld": 8087,
      "differ": 8088,
      "ley": 8089,
      "änden": 8090,
      "frankfur": 8091,
      "know": 8092,
      "bekannte": 8093,
      "casino": 8094,
      "übersetzung": 8095,
      "luxur": 8096,
      "turn": 8097,
      "95": 8098,
      "ival": 8099,
      "ehrgei": 8100,
      "erzeugnisse": 8101,
      "strafe": 8102,
      "beispiele": 8103,
      "jegliche": 8104,
      "menschlichen": 8105,
      "anwes": 8106,
      "renten": 8107,
      "direkte": 8108,
      "halle": 8109,
      "gue": 8110,
      "roma": 8111,
      "verletzungen": 8112,
      "händler": 8113,
      "http": 8114,
      "spartei": 8115,
      "ali": 8116,
      "herrscht": 8117,
      "appe": 8118,
      "badezimmer": 8119,
      "künftig": 8120,
      "ziemlich": 8121,
      "legisla": 8122,
      "herrschen": 8123,
      "harmonisierung": 8124,
      "ika": 8125,
      "positionen": 8126,
      "support": 8127,
      "heber": 8128,
      "ausführung": 8129,
      "ré": 8130,
      "schnelle": 8131,
      "ato": 8132,
      "wohnen": 8133,
      "versand": 8134,
      "verpack": 8135,
      "kapitel": 8136,
      "fotograf": 8137,
      "cha": 8138,
      "versprechen": 8139,
      "saal": 8140,
      "klärung": 8141,
      "zunehmend": 8142,
      "egal": 8143,
      "griffe": 8144,
      "pakete": 8145,
      "gegend": 8146,
      "sorgan": 8147,
      "zentralen": 8148,
      "arische": 8149,
      "eröffnet": 8150,
      "schmer": 8151,
      "stoßen": 8152,
      "himm": 8153,
      "eis": 8154,
      "oly": 8155,
      "lasten": 8156,
      "eth": 8157,
      "füllen": 8158,
      "ony": 8159,
      "wirklichkeit": 8160,
      "führende": 8161,
      "küsten": 8162,
      "fähigkeiten": 8163,
      "bereitschaft": 8164,
      "städten": 8165,
      "motiv": 8166,
      "sorgt": 8167,
      "schweizer": 8168,
      "mitgliedschaft": 8169,
      "metall": 8170,
      "verfassungs": 8171,
      "detaill": 8172,
      "verbesserungen": 8173,
      "beifall": 8174,
      "nato": 8175,
      "kurze": 8176,
      "pläne": 8177,
      "ausser": 8178,
      "freundlich": 8179,
      "yer": 8180,
      "apartment": 8181,
      "derartige": 8182,
      "niemals": 8183,
      "trend": 8184,
      "entz": 8185,
      "stolz": 8186,
      "geboten": 8187,
      "amts": 8188,
      "aktivieren": 8189,
      "münchen": 8190,
      "träch": 8191,
      "felder": 8192,
      "pflich": 8193,
      "bearbeitung": 8194,
      "russischen": 8195,
      "fassen": 8196,
      "gegangen": 8197,
      "beach": 8198,
      "glaubwürdig": 8199,
      "schließt": 8200,
      "milch": 8201,
      "stärke": 8202,
      "zurückzu": 8203,
      "staates": 8204,
      "zieht": 8205,
      "korru": 8206,
      "eigenes": 8207,
      "charta": 8208,
      "herkunft": 8209,
      "besitzen": 8210,
      "schatten": 8211,
      "erwartungen": 8212,
      "genere": 8213,
      "gyp": 8214,
      "interessiert": 8215,
      "schätzung": 8216,
      "berechtigt": 8217,
      "96": 8218,
      "kamen": 8219,
      "zusätzlichen": 8220,
      "ausgezeichnete": 8221,
      "arbeitern": 8222,
      "beträgt": 8223,
      "konver": 8224,
      "weltweiten": 8225,
      "weile": 8226,
      "bestimmung": 8227,
      "politiken": 8228,
      "hervorragende": 8229,
      "ones": 8230,
      "master": 8231,
      "übrigens": 8232,
      "schiffe": 8233,
      "profil": 8234,
      "filter": 8235,
      "hom": 8236,
      "pak": 8237,
      "religiö": 8238,
      "kehren": 8239,
      "gefördert": 8240,
      "wak": 8241,
      "schönsten": 8242,
      "inklu": 8243,
      "baum": 8244,
      "grundlegenden": 8245,
      "verbringen": 8246,
      "urheber": 8247,
      "sinnvoll": 8248,
      "grundsätzlich": 8249,
      "chron": 8250,
      "verändern": 8251,
      "natürlichen": 8252,
      "umfeld": 8253,
      "problems": 8254,
      "arz": 8255,
      "nachzu": 8256,
      "ungefähr": 8257,
      "sektoren": 8258,
      "zwingen": 8259,
      "mittelpunkt": 8260,
      "nahrungsmittel": 8261,
      "zucker": 8262,
      "parame": 8263,
      "tast": 8264,
      "erweitert": 8265,
      "ägyp": 8266,
      "strahl": 8267,
      "orgt": 8268,
      "gründung": 8269,
      "ierend": 8270,
      "anspruchs": 8271,
      "installiert": 8272,
      "ethn": 8273,
      "schwierigen": 8274,
      "rooms": 8275,
      "bestellung": 8276,
      "44": 8277,
      "anzeigen": 8278,
      "offenen": 8279,
      "verbreitung": 8280,
      "betreffenden": 8281,
      "versionen": 8282,
      "eisenbahn": 8283,
      "gepäck": 8284,
      "weisung": 8285,
      "strei": 8286,
      "muster": 8287,
      "schriften": 8288,
      "erlebnis": 8289,
      "balkon": 8290,
      "klin": 8291,
      "cio": 8292,
      "centre": 8293,
      "anen": 8294,
      "agrarpolitik": 8295,
      "ek": 8296,
      "08": 8297,
      "alli": 8298,
      "sehe": 8299,
      "neter": 8300,
      "transa": 8301,
      "ventionen": 8302,
      "stärkt": 8303,
      "ermu": 8304,
      "trin": 8305,
      "neuesten": 8306,
      "gewonnen": 8307,
      "afghanistan": 8308,
      "funda": 8309,
      "werkzeug": 8310,
      "main": 8311,
      "künfte": 8312,
      "höchsten": 8313,
      "grundlegende": 8314,
      "onomie": 8315,
      "amtieren": 8316,
      "schicken": 8317,
      "aufen": 8318,
      "luxem": 8319,
      "tags": 8320,
      "räum": 8321,
      "schung": 8322,
      "entwickelten": 8323,
      "konkurr": 8324,
      "laufenden": 8325,
      "durchzuführen": 8326,
      "organisiert": 8327,
      "ktions": 8328,
      "vieler": 8329,
      "stande": 8330,
      "schwim": 8331,
      "entwicklungsländern": 8332,
      "sty": 8333,
      "deln": 8334,
      "habt": 8335,
      "rea": 8336,
      "günstig": 8337,
      "westlichen": 8338,
      "beabsich": 8339,
      "modernis": 8340,
      "schlafzimmer": 8341,
      "39": 8342,
      "jer": 8343,
      "wetter": 8344,
      "angst": 8345,
      "hinzufügen": 8346,
      "aufzunehmen": 8347,
      "sonne": 8348,
      "bücher": 8349,
      "kräften": 8350,
      "export": 8351,
      "kalen": 8352,
      "beträ": 8353,
      "eins": 8354,
      "verlangt": 8355,
      "board": 8356,
      "föder": 8357,
      "aktien": 8358,
      "spitzen": 8359,
      "haar": 8360,
      "sauna": 8361,
      "schwarz": 8362,
      "ice": 8363,
      "tabe": 8364,
      "interpre": 8365,
      "tzei": 8366,
      "tic": 8367,
      "ursprünglich": 8368,
      "cm": 8369,
      "linken": 8370,
      "bemüht": 8371,
      "perfekt": 8372,
      "ausgesprochen": 8373,
      "pie": 8374,
      "brechen": 8375,
      "zial": 8376,
      "produziert": 8377,
      "quer": 8378,
      "kostet": 8379,
      "kab": 8380,
      "notwendige": 8381,
      "änderungsanträgen": 8382,
      "ausgezeichneten": 8383,
      "beträcht": 8384,
      "begeister": 8385,
      "ral": 8386,
      "itar": 8387,
      "einfachen": 8388,
      "alters": 8389,
      "gres": 8390,
      "hierzu": 8391,
      "iegen": 8392,
      "ausgeschlossen": 8393,
      "überzeugung": 8394,
      "ügen": 8395,
      "anschließend": 8396,
      "ursprünglichen": 8397,
      "betreuung": 8398,
      "kä": 8399,
      "alko": 8400,
      "jam": 8401,
      "ny": 8402,
      "erheblich": 8403,
      "galer": 8404,
      "ziffer": 8405,
      "religion": 8406,
      "quis": 8407,
      "letztlich": 8408,
      "legungen": 8409,
      "ät": 8410,
      "umzusetzen": 8411,
      "hes": 8412,
      "verehrte": 8413,
      "09": 8414,
      "anschließen": 8415,
      "einig": 8416,
      "popul": 8417,
      "beizu": 8418,
      "präsentiert": 8419,
      "übereinstimmung": 8420,
      "stud": 8421,
      "interessant": 8422,
      "zweit": 8423,
      "izi": 8424,
      "gerü": 8425,
      "ns": 8426,
      "anrei": 8427,
      "fiel": 8428,
      "festlegung": 8429,
      "sichert": 8430,
      "speichern": 8431,
      "wirklichen": 8432,
      "offenbar": 8433,
      "check": 8434,
      "64": 8435,
      "angehen": 8436,
      "absolu": 8437,
      "züg": 8438,
      "verknü": 8439,
      "ics": 8440,
      "philosoph": 8441,
      "speisen": 8442,
      "eist": 8443,
      "vollständige": 8444,
      "vit": 8445,
      "vorrang": 8446,
      "strecke": 8447,
      "poln": 8448,
      "vill": 8449,
      "abgelehnt": 8450,
      "geprä": 8451,
      "ausgangspunkt": 8452,
      "vot": 8453,
      "musste": 8454,
      "ausführungen": 8455,
      "hervorheben": 8456,
      "elektro": 8457,
      "genehmigung": 8458,
      "verletzung": 8459,
      "friend": 8460,
      "osteurop": 8461,
      "verzeichnis": 8462,
      "bars": 8463,
      "fertigung": 8464,
      "eingeschränkt": 8465,
      "infolge": 8466,
      "souver": 8467,
      "sekret": 8468,
      "gleichgewicht": 8469,
      "bestimmen": 8470,
      "festival": 8471,
      "heil": 8472,
      "caf": 8473,
      "zö": 8474,
      "wiegen": 8475,
      "zeige": 8476,
      "produktiv": 8477,
      "verursacht": 8478,
      "erleichter": 8479,
      "übernimmt": 8480,
      "liegenden": 8481,
      "öffentlich": 8482,
      "austr": 8483,
      "stoß": 8484,
      "lokale": 8485,
      "künftigen": 8486,
      "gratulieren": 8487,
      "katastrophe": 8488,
      "zuständigkeit": 8489,
      "ky": 8490,
      "ente": 8491,
      "annehmen": 8492,
      "eingang": 8493,
      "semin": 8494,
      "schönheit": 8495,
      "teiligen": 8496,
      "anwendungs": 8497,
      "bekämpfen": 8498,
      "costa": 8499,
      "fällig": 8500,
      "distribu": 8501,
      "situationen": 8502,
      "werks": 8503,
      "bour": 8504,
      "zauber": 8505,
      "websites": 8506,
      "john": 8507,
      "55": 8508,
      "pfei": 8509,
      "dikt": 8510,
      "fordere": 8511,
      "erwähn": 8512,
      "stür": 8513,
      "komme": 8514,
      "aufgefordert": 8515,
      "aktiven": 8516,
      "fehlt": 8517,
      "riesigen": 8518,
      "client": 8519,
      "erholung": 8520,
      "niedri": 8521,
      "pala": 8522,
      "vorder": 8523,
      "tigte": 8524,
      "brut": 8525,
      "herausge": 8526,
      "verschiedener": 8527,
      "rumänien": 8528,
      "pflege": 8529,
      "orts": 8530,
      "angesehen": 8531,
      "tifik": 8532,
      "word": 8533,
      "ratspräsidentschaft": 8534,
      "abstimm": 8535,
      "ando": 8536,
      "lautet": 8537,
      "bestätigen": 8538,
      "installieren": 8539,
      "enttäu": 8540,
      "mung": 8541,
      "imple": 8542,
      "verschmutz": 8543,
      "psych": 8544,
      "itts": 8545,
      "holen": 8546,
      "kmu": 8547,
      "beschränkt": 8548,
      "vertrau": 8549,
      "arbeitsplatz": 8550,
      "kapazität": 8551,
      "co2": 8552,
      "ypern": 8553,
      "kurzfrist": 8554,
      "tungs": 8555,
      "bos": 8556,
      "kurse": 8557,
      "alkohol": 8558,
      "mobilität": 8559,
      "kontinuier": 8560,
      "bezahlen": 8561,
      "drittländern": 8562,
      "domin": 8563,
      "verlauf": 8564,
      "demo": 8565,
      "kolon": 8566,
      "chinesischen": 8567,
      "spre": 8568,
      "show": 8569,
      "spiegel": 8570,
      "schlägt": 8571,
      "untersuchungen": 8572,
      "ziplin": 8573,
      "gegebenen": 8574,
      "klau": 8575,
      "gestatten": 8576,
      "cook": 8577,
      "zypern": 8578,
      "cell": 8579,
      "ros": 8580,
      "tenden": 8581,
      "oler": 8582,
      "zugunsten": 8583,
      "einwohner": 8584,
      "ignor": 8585,
      "hebung": 8586,
      "netze": 8587,
      "kroatien": 8588,
      "kter": 8589,
      "zuständigen": 8590,
      "premier": 8591,
      "himmel": 8592,
      "ausgestat": 8593,
      "platte": 8594,
      "ergänzen": 8595,
      "mengen": 8596,
      "begriffen": 8597,
      "möbel": 8598,
      "prag": 8599,
      "pdf": 8600,
      "oberfläche": 8601,
      "residen": 8602,
      "verringerung": 8603,
      "sul": 8604,
      "letzter": 8605,
      "herunterladen": 8606,
      "durchführen": 8607,
      "angemessene": 8608,
      "individuelle": 8609,
      "ave": 8610,
      "konsens": 8611,
      "aufnehmen": 8612,
      "paralle": 8613,
      "kurzen": 8614,
      "denkt": 8615,
      "lou": 8616,
      "arbeitsplätzen": 8617,
      "verlie": 8618,
      "tam": 8619,
      "wissens": 8620,
      "disziplin": 8621,
      "commun": 8622,
      "nachhaltigen": 8623,
      "grosse": 8624,
      "07": 8625,
      "agenturen": 8626,
      "dal": 8627,
      "too": 8628,
      "aktionsplan": 8629,
      "serviert": 8630,
      "plug": 8631,
      "vous": 8632,
      "nahezu": 8633,
      "geringer": 8634,
      "drücken": 8635,
      "beglückwünschen": 8636,
      "koch": 8637,
      "big": 8638,
      "abl": 8639,
      "ausgezeichnet": 8640,
      "analys": 8641,
      "wollten": 8642,
      "individuell": 8643,
      "works": 8644,
      "entwicklungsländer": 8645,
      "kapit": 8646,
      "einzigartige": 8647,
      "zulassen": 8648,
      "letter": 8649,
      "hagen": 8650,
      "veröffentlichung": 8651,
      "spaß": 8652,
      "konvent": 8653,
      "konzern": 8654,
      "bilanz": 8655,
      "automobil": 8656,
      "03": 8657,
      "echten": 8658,
      "plo": 8659,
      "ors": 8660,
      "neun": 8661,
      "rechtliche": 8662,
      "1995": 8663,
      "früheren": 8664,
      "raums": 8665,
      "dreh": 8666,
      "außenpolitik": 8667,
      "übersetz": 8668,
      "wechseln": 8669,
      "kongress": 8670,
      "tausende": 8671,
      "05": 8672,
      "trup": 8673,
      "träger": 8674,
      "kohäsion": 8675,
      "sodass": 8676,
      "bemerkungen": 8677,
      "bean": 8678,
      "balkan": 8679,
      "zentralbank": 8680,
      "geprüft": 8681,
      "einbeziehung": 8682,
      "ée": 8683,
      "jetz": 8684,
      "definiert": 8685,
      "übertragung": 8686,
      "verabschiedet": 8687,
      "gleichheit": 8688,
      "mord": 8689,
      "sparen": 8690,
      "institut": 8691,
      "bislang": 8692,
      "prozesse": 8693,
      "internets": 8694,
      "umgang": 8695,
      "erhebliche": 8696,
      "verhaltens": 8697,
      "zit": 8698,
      "zieller": 8699,
      "mittleren": 8700,
      "satelliten": 8701,
      "zertifiz": 8702,
      "mc": 8703,
      "ves": 8704,
      "unmöglich": 8705,
      "befugnisse": 8706,
      "ungarn": 8707,
      "ankun": 8708,
      "2020": 8709,
      "sag": 8710,
      "mische": 8711,
      "bip": 8712,
      "cess": 8713,
      "gor": 8714,
      "06": 8715,
      "weichen": 8716,
      "parkplatz": 8717,
      "bom": 8718,
      "subsidi": 8719,
      "einzigar": 8720,
      "festge": 8721,
      "webseiten": 8722,
      "bord": 8723,
      "wild": 8724,
      "spazier": 8725,
      "nunmehr": 8726,
      "verleihen": 8727,
      "lässlich": 8728,
      "verhindert": 8729,
      "bewusstsein": 8730,
      "regierungskonferenz": 8731,
      "ales": 8732,
      "lehrer": 8733,
      "aktuell": 8734,
      "plenum": 8735,
      "heizung": 8736,
      "straft": 8737,
      "gegenstand": 8738,
      "eingegangen": 8739,
      "street": 8740,
      "grös": 8741,
      "hervorge": 8742,
      "pour": 8743,
      "mobile": 8744,
      "klausel": 8745,
      "toch": 8746,
      "wlan": 8747,
      "gestaltet": 8748,
      "videos": 8749,
      "04": 8750,
      "file": 8751,
      "beeinträch": 8752,
      "traditionelle": 8753,
      "tsch": 8754,
      "iser": 8755,
      "geräten": 8756,
      "there": 8757,
      "izient": 8758,
      "ankunft": 8759,
      "freitag": 8760,
      "mischung": 8761,
      "bemerken": 8762,
      "äischen": 8763,
      "identität": 8764,
      "gefallen": 8765,
      "portu": 8766,
      "befehl": 8767,
      "direkten": 8768,
      "letztendlich": 8769,
      "views": 8770,
      "ähnlich": 8771,
      "stur": 8772,
      "welchem": 8773,
      "europäisches": 8774,
      "fundament": 8775,
      "verbinden": 8776,
      "besich": 8777,
      "gelder": 8778,
      "nör": 8779,
      "gespielt": 8780,
      "urs": 8781,
      "sow": 8782,
      "sichere": 8783,
      "zähl": 8784,
      "ars": 8785,
      "tru": 8786,
      "herrschaft": 8787,
      "eigentum": 8788,
      "entsteht": 8789,
      "ussen": 8790,
      "erreichbar": 8791,
      "gb": 8792,
      "wirtschaften": 8793,
      "ala": 8794,
      "fabri": 8795,
      "pfe": 8796,
      "bekräf": 8797,
      "wertung": 8798,
      "vorstellung": 8799,
      "medika": 8800,
      "pos": 8801,
      "passiert": 8802,
      "hundert": 8803,
      "begrüßt": 8804,
      "dou": 8805,
      "bestehende": 8806,
      "inmitten": 8807,
      "vieles": 8808,
      "erfolgreiche": 8809,
      "präz": 8810,
      "sorgfältig": 8811,
      "65": 8812,
      "freunden": 8813,
      "belie": 8814,
      "getren": 8815,
      "luxus": 8816,
      "einheitlichen": 8817,
      "appell": 8818,
      "vorbei": 8819,
      "hostels": 8820,
      "gefangen": 8821,
      "prozesses": 8822,
      "höheren": 8823,
      "wissenschaftliche": 8824,
      "normalerweise": 8825,
      "gespeichert": 8826,
      "geäußer": 8827,
      "geltenden": 8828,
      "itzer": 8829,
      "vize": 8830,
      "erleichtern": 8831,
      "organisieren": 8832,
      "other": 8833,
      "lohn": 8834,
      "anwender": 8835,
      "place": 8836,
      "provinz": 8837,
      "eure": 8838,
      "fußball": 8839,
      "ache": 8840,
      "gezwungen": 8841,
      "stitu": 8842,
      "dahin": 8843,
      "pension": 8844,
      "tatsäch": 8845,
      "innovative": 8846,
      "host": 8847,
      "teilungen": 8848,
      "erinnert": 8849,
      "ausgeführt": 8850,
      "qui": 8851,
      "binden": 8852,
      "däm": 8853,
      "bilater": 8854,
      "tennis": 8855,
      "vergn": 8856,
      "dafrik": 8857,
      "olymp": 8858,
      "anmerk": 8859,
      "umsatz": 8860,
      "identifiz": 8861,
      "assozi": 8862,
      "verkaufen": 8863,
      "ruhig": 8864,
      "arznei": 8865,
      "had": 8866,
      "aufsichts": 8867,
      "vorlegen": 8868,
      "ione": 8869,
      "kreuz": 8870,
      "verringern": 8871,
      "einstimm": 8872,
      "info": 8873,
      "kost": 8874,
      "ähnliche": 8875,
      "kredi": 8876,
      "repar": 8877,
      "desig": 8878,
      "reicher": 8879,
      "schüler": 8880,
      "fernsehen": 8881,
      "britische": 8882,
      "direktor": 8883,
      "strasse": 8884,
      "entscheidende": 8885,
      "heutige": 8886,
      "kw": 8887,
      "piel": 8888,
      "reduzierung": 8889,
      "strecken": 8890,
      "grundlagen": 8891,
      "umweltschutz": 8892,
      "autobahn": 8893,
      "französische": 8894,
      "startet": 8895,
      "aku": 8896,
      "zeitung": 8897,
      "bibliothek": 8898,
      "funk": 8899,
      "defiz": 8900,
      "voraussch": 8901,
      "non": 8902,
      "donner": 8903,
      "ausflüge": 8904,
      "ßern": 8905,
      "alpen": 8906,
      "existenz": 8907,
      "unent": 8908,
      "gefügt": 8909,
      "here": 8910,
      "pay": 8911,
      "reihen": 8912,
      "jet": 8913,
      "inklusive": 8914,
      "hingegen": 8915,
      "verkauft": 8916,
      "betreiben": 8917,
      "mitarbeitern": 8918,
      "einfacher": 8919,
      "hilf": 8920,
      "160": 8921,
      "schweren": 8922,
      "bemerkung": 8923,
      "kulturen": 8924,
      "blin": 8925,
      "friendly": 8926,
      "ael": 8927,
      "bach": 8928,
      "asia": 8929,
      "abteilung": 8930,
      "sohn": 8931,
      "diag": 8932,
      "tochter": 8933,
      "objekt": 8934,
      "beschlüsse": 8935,
      "betreiber": 8936,
      "zeichnungen": 8937,
      "rau": 8938,
      "respekt": 8939,
      "listen": 8940,
      "ungsverfahren": 8941,
      "länge": 8942,
      "tests": 8943,
      "ded": 8944,
      "abgesehen": 8945,
      "ansprechen": 8946,
      "kopen": 8947,
      "ax": 8948,
      "ansehen": 8949,
      "martin": 8950,
      "nice": 8951,
      "einst": 8952,
      "nachricht": 8953,
      "erstellung": 8954,
      "verfas": 8955,
      "empfang": 8956,
      "schil": 8957,
      "kehrt": 8958,
      "hell": 8959,
      "47": 8960,
      "49": 8961,
      "rechtsstaat": 8962,
      "nitten": 8963,
      "ohlen": 8964,
      "antwortet": 8965,
      "anstieg": 8966,
      "spf": 8967,
      "empfohlen": 8968,
      "verurteilt": 8969,
      "abgestimmt": 8970,
      "archiv": 8971,
      "abfall": 8972,
      "hoffentlich": 8973,
      "anbe": 8974,
      "burger": 8975,
      "spo": 8976,
      "wc": 8977,
      "quoten": 8978,
      "apie": 8979,
      "akzeptabel": 8980,
      "abwe": 8981,
      "kontaktieren": 8982,
      "tha": 8983,
      "katalog": 8984,
      "slowak": 8985,
      "erbe": 8986,
      "portugie": 8987,
      "eignet": 8988,
      "bou": 8989,
      "beschäftigen": 8990,
      "bestätigung": 8991,
      "cul": 8992,
      "läßt": 8993,
      "ogen": 8994,
      "gewährt": 8995,
      "bahnen": 8996,
      "verboten": 8997,
      "tiro": 8998,
      "istik": 8999,
      "energien": 9000,
      "außerordentlich": 9001,
      "aufwand": 9002,
      "kompati": 9003,
      "ließen": 9004,
      "erstmals": 9005,
      "jenen": 9006,
      "bereitstellung": 9007,
      "stamm": 9008,
      "verdient": 9009,
      "ersetzt": 9010,
      "organe": 9011,
      "auge": 9012,
      "strategischen": 9013,
      "äußern": 9014,
      "bün": 9015,
      "übt": 9016,
      "wiederholen": 9017,
      "face": 9018,
      "tätigkeiten": 9019,
      "angewand": 9020,
      "niedriger": 9021,
      "ders": 9022,
      "spakt": 9023,
      "menschliche": 9024,
      "knapp": 9025,
      "effizient": 9026,
      "vorsitzenden": 9027,
      "airport": 9028,
      "parks": 9029,
      "1990": 9030,
      "stammen": 9031,
      "dokumenten": 9032,
      "nachmittag": 9033,
      "selbe": 9034,
      "reduzieren": 9035,
      "rechtzei": 9036,
      "bedeutend": 9037,
      "implemen": 9038,
      "schritten": 9039,
      "camping": 9040,
      "individuellen": 9041,
      "clean": 9042,
      "vorstellen": 9043,
      "zusammenarbeiten": 9044,
      "dans": 9045,
      "begrenzt": 9046,
      "flugzeug": 9047,
      "vorhandenen": 9048,
      "andal": 9049,
      "fernen": 9050,
      "männern": 9051,
      "dürfte": 9052,
      "jener": 9053,
      "frankfurt": 9054,
      "kleines": 9055,
      "anfän": 9056,
      "kontakte": 9057,
      "vertrages": 9058,
      "bewähr": 9059,
      "modu": 9060,
      "rechner": 9061,
      "46": 9062,
      "life": 9063,
      "madri": 9064,
      "solid": 9065,
      "beruht": 9066,
      "zügigkeit": 9067,
      "dei": 9068,
      "gau": 9069,
      "mrd": 9070,
      "erfüllung": 9071,
      "kirchen": 9072,
      "py": 9073,
      "konser": 9074,
      "sammeln": 9075,
      "bring": 9076,
      "3d": 9077,
      "verstärken": 9078,
      "branchen": 9079,
      "ergie": 9080,
      "versuche": 9081,
      "offiziellen": 9082,
      "hts": 9083,
      "ausmaß": 9084,
      "läng": 9085,
      "gebir": 9086,
      "update": 9087,
      "abhängigkeit": 9088,
      "frequ": 9089,
      "praktiken": 9090,
      "job": 9091,
      "unverzüglich": 9092,
      "übergangs": 9093,
      "eingerichte": 9094,
      "leichter": 9095,
      "ott": 9096,
      "versicherung": 9097,
      "ford": 9098,
      "hardware": 9099,
      "rechnungshof": 9100,
      "luxemburg": 9101,
      "cis": 9102,
      "palette": 9103,
      "armee": 9104,
      "kampagne": 9105,
      "hein": 9106,
      "zivilgesellschaft": 9107,
      "lobby": 9108,
      "02": 9109,
      "ane": 9110,
      "nukle": 9111,
      "regulierung": 9112,
      "tabak": 9113,
      "anhand": 9114,
      "übersicht": 9115,
      "zugreifen": 9116,
      "ities": 9117,
      "gänger": 9118,
      "investitions": 9119,
      "betreffend": 9120,
      "sicheren": 9121,
      "aussprechen": 9122,
      "wirtschaftlicher": 9123,
      "klassi": 9124,
      "vorbereitet": 9125,
      "phone": 9126,
      "cast": 9127,
      "bestimmter": 9128,
      "herum": 9129,
      "ansprüche": 9130,
      "entwickelte": 9131,
      "rotar": 9132,
      "verteidig": 9133,
      "2011": 9134,
      "modus": 9135,
      "besetz": 9136,
      "erschien": 9137,
      "beobachten": 9138,
      "alternativen": 9139,
      "gess": 9140,
      "unterricht": 9141,
      "klassen": 9142,
      "more": 9143,
      "rez": 9144,
      "faßt": 9145,
      "schick": 9146,
      "subsidiarität": 9147,
      "akadem": 9148,
      "fertigen": 9149,
      "suiten": 9150,
      "brief": 9151,
      "weih": 9152,
      "mexi": 9153,
      "baut": 9154,
      "gross": 9155,
      "bedrohung": 9156,
      "sprin": 9157,
      "eingereicht": 9158,
      "album": 9159,
      "mittelalter": 9160,
      "brenn": 9161,
      "rock": 9162,
      "ques": 9163,
      "kriminalität": 9164,
      "mittlerweile": 9165,
      "vermitteln": 9166,
      "bush": 9167,
      "teams": 9168,
      "angegebenen": 9169,
      "wu": 9170,
      "tos": 9171,
      "versicherungs": 9172,
      "diesbezüglich": 9173,
      "bestellen": 9174,
      "ebenen": 9175,
      "schlussfolgerungen": 9176,
      "alex": 9177,
      "hierfür": 9178,
      "empfangen": 9179,
      "akp": 9180,
      "coun": 9181,
      "relevan": 9182,
      "belgien": 9183,
      "schar": 9184,
      "vorlage": 9185,
      "allzu": 9186,
      "bungs": 9187,
      "vice": 9188,
      "newsletter": 9189,
      "nom": 9190,
      "42": 9191,
      "erlebt": 9192,
      "gewerk": 9193,
      "herzustellen": 9194,
      "gerechtigkeit": 9195,
      "dum": 9196,
      "navig": 9197,
      "namens": 9198,
      "filme": 9199,
      "gottes": 9200,
      "stattdessen": 9201,
      "gewährleistung": 9202,
      "leid": 9203,
      "hall": 9204,
      "pakistan": 9205,
      "pg": 9206,
      "erhielt": 9207,
      "physi": 9208,
      "sozialer": 9209,
      "veränderung": 9210,
      "augenblick": 9211,
      "fernseh": 9212,
      "kritis": 9213,
      "mehrfach": 9214,
      "textil": 9215,
      "produzieren": 9216,
      "erfolgreichen": 9217,
      "wissenschaftler": 9218,
      "leiste": 9219,
      "fire": 9220,
      "gebildet": 9221,
      "konvention": 9222,
      "drückt": 9223,
      "konsum": 9224,
      "cript": 9225,
      "ansichten": 9226,
      "frucht": 9227,
      "800": 9228,
      "elektronischen": 9229,
      "bezo": 9230,
      "ción": 9231,
      "derung": 9232,
      "lly": 9233,
      "korrekt": 9234,
      "schriftliche": 9235,
      "angebracht": 9236,
      "sig": 9237,
      "minute": 9238,
      "gär": 9239,
      "rechter": 9240,
      "alisierten": 9241,
      "finanziert": 9242,
      "konzent": 9243,
      "mund": 9244,
      "beigetragen": 9245,
      "schefs": 9246,
      "zykl": 9247,
      "zins": 9248,
      "gö": 9249,
      "rechtsgrundlage": 9250,
      "trau": 9251,
      "belar": 9252,
      "elektr": 9253,
      "großem": 9254,
      "won": 9255,
      "geburt": 9256,
      "gemeinschaften": 9257,
      "niederlän": 9258,
      "sendung": 9259,
      "mol": 9260,
      "ersetzen": 9261,
      "beteiligen": 9262,
      "verschär": 9263,
      "chinas": 9264,
      "erzeugt": 9265,
      "cos": 9266,
      "unvergess": 9267,
      "stiftung": 9268,
      "gewässer": 9269,
      "perspektive": 9270,
      "anwesend": 9271,
      "etabl": 9272,
      "poly": 9273,
      "heißen": 9274,
      "überlegungen": 9275,
      "bulgarien": 9276,
      "nachdrück": 9277,
      "inneren": 9278,
      "kompliz": 9279,
      "anim": 9280,
      "korea": 9281,
      "spitze": 9282,
      "gepf": 9283,
      "eingehalten": 9284,
      "brücke": 9285,
      "ugh": 9286,
      "gekenn": 9287,
      "great": 9288,
      "rien": 9289,
      "angenehm": 9290,
      "index": 9291,
      "separ": 9292,
      "virt": 9293,
      "600": 9294,
      "folglich": 9295,
      "faszin": 9296,
      "resort": 9297,
      "üssen": 9298,
      "wohlstand": 9299,
      "auswär": 9300,
      "operation": 9301,
      "wunderschönen": 9302,
      "gefäng": 9303,
      "ließ": 9304,
      "xt": 9305,
      "ablauf": 9306,
      "stufen": 9307,
      "ual": 9308,
      "lar": 9309,
      "entscheidender": 9310,
      "integriert": 9311,
      "ausgerichtet": 9312,
      "machte": 9313,
      "trieben": 9314,
      "donnerstag": 9315,
      "bele": 9316,
      "becken": 9317,
      "zutage": 9318,
      "mart": 9319,
      "offene": 9320,
      "lieber": 9321,
      "trieb": 9322,
      "solches": 9323,
      "parameter": 9324,
      "nien": 9325,
      "html": 9326,
      "finanzierungs": 9327,
      "pression": 9328,
      "einzigartigen": 9329,
      "sieg": 9330,
      "internen": 9331,
      "tipp": 9332,
      "wiederholt": 9333,
      "aqu": 9334,
      "ordnungen": 9335,
      "einbezogen": 9336,
      "ward": 9337,
      "konsequenzen": 9338,
      "ferenzen": 9339,
      "peter": 9340,
      "konflikte": 9341,
      "glaubwürdigkeit": 9342,
      "western": 9343,
      "kollegin": 9344,
      "flotte": 9345,
      "übergang": 9346,
      "gemeinschaftlichen": 9347,
      "ida": 9348,
      "steigerung": 9349,
      "bedeutende": 9350,
      "kürze": 9351,
      "eads": 9352,
      "weisungen": 9353,
      "erstre": 9354,
      "beantworten": 9355,
      "prob": 9356,
      "weilen": 9357,
      "hro": 9358,
      "bereitgestellt": 9359,
      "ras": 9360,
      "mium": 9361,
      "unehmen": 9362,
      "optimale": 9363,
      "dchen": 9364,
      "konfron": 9365,
      "look": 9366,
      "übernachtung": 9367,
      "erwähnen": 9368,
      "vertrieb": 9369,
      "verbindet": 9370,
      "jes": 9371,
      "istischer": 9372,
      "entlastung": 9373,
      "68": 9374,
      "ticket": 9375,
      "gelände": 9376,
      "schläge": 9377,
      "comfort": 9378,
      "flash": 9379,
      "anbelangt": 9380,
      "tauchen": 9381,
      "roll": 9382,
      "souverän": 9383,
      "opposition": 9384,
      "übernahme": 9385,
      "passwort": 9386,
      "natürliche": 9387,
      "geladen": 9388,
      "vorange": 9389,
      "anlass": 9390,
      "gelingt": 9391,
      "gleichstellung": 9392,
      "anzeige": 9393,
      "rollen": 9394,
      "darstellung": 9395,
      "stufe": 9396,
      "verteidigen": 9397,
      "reservierung": 9398,
      "vidu": 9399,
      "sproble": 9400,
      "häusern": 9401,
      "perfor": 9402,
      "pix": 9403,
      "investieren": 9404,
      "unabhängigen": 9405,
      "krieges": 9406,
      "mys": 9407,
      "senkung": 9408,
      "kohlen": 9409,
      "distribution": 9410,
      "entscheidungs": 9411,
      "langfristig": 9412,
      "übung": 9413,
      "zugangs": 9414,
      "ketten": 9415,
      "iii": 9416,
      "roy": 9417,
      "ausrüstung": 9418,
      "riere": 9419,
      "fig": 9420,
      "zenten": 9421,
      "büros": 9422,
      "genügend": 9423,
      "nachbarschaft": 9424,
      "sem": 9425,
      "individu": 9426,
      "gegner": 9427,
      "bestände": 9428,
      "geraten": 9429,
      "skrise": 9430,
      "überprüft": 9431,
      "eien": 9432,
      "blue": 9433,
      "effekt": 9434,
      "michael": 9435,
      "horiz": 9436,
      "bonus": 9437,
      "voranzu": 9438,
      "zar": 9439,
      "vertretern": 9440,
      "brasilien": 9441,
      "gewe": 9442,
      "ktiert": 9443,
      "tas": 9444,
      "now": 9445,
      "planeten": 9446,
      "liberalen": 9447,
      "klick": 9448,
      "korruption": 9449,
      "opera": 9450,
      "lagerung": 9451,
      "stay": 9452,
      "weitgehend": 9453,
      "portal": 9454,
      "institutionelle": 9455,
      "diagno": 9456,
      "santa": 9457,
      "herbst": 9458,
      "hinweg": 9459,
      "großzü": 9460,
      "insofern": 9461,
      "geführten": 9462,
      "verhältnisse": 9463,
      "richter": 9464,
      "ssig": 9465,
      "optimal": 9466,
      "präsenz": 9467,
      "strichen": 9468,
      "aussehen": 9469,
      "wärme": 9470,
      "bekommt": 9471,
      "reduziert": 9472,
      "mussten": 9473,
      "ji": 9474,
      "any": 9475,
      "illegalen": 9476,
      "diensten": 9477,
      "verschle": 9478,
      "anzen": 9479,
      "wiegend": 9480,
      "eite": 9481,
      "straß": 9482,
      "verwei": 9483,
      "ursachen": 9484,
      "leuten": 9485,
      "abbau": 9486,
      "usb": 9487,
      "strebt": 9488,
      "vorausschau": 9489,
      "side": 9490,
      "rücken": 9491,
      "ree": 9492,
      "ata": 9493,
      "beauftragten": 9494,
      "kontra": 9495,
      "1994": 9496,
      "ong": 9497,
      "alban": 9498,
      "wirtschaftlich": 9499,
      "geleitet": 9500,
      "recher": 9501,
      "einzusetzen": 9502,
      "mos": 9503,
      "vorzulegen": 9504,
      "hie": 9505,
      "mauer": 9506,
      "which": 9507,
      "mien": 9508,
      "rass": 9509,
      "aussage": 9510,
      "günstige": 9511,
      "avi": 9512,
      "militärische": 9513,
      "dör": 9514,
      "wähler": 9515,
      "baby": 9516,
      "ernsthaft": 9517,
      "ox": 9518,
      "wat": 9519,
      "pakt": 9520,
      "madrid": 9521,
      "vorstellungen": 9522,
      "umfangreiche": 9523,
      "tigungen": 9524,
      "jedenfalls": 9525,
      "urlaubs": 9526,
      "unterscheiden": 9527,
      "gehminuten": 9528,
      "argument": 9529,
      "green": 9530,
      "diplom": 9531,
      "angepasst": 9532,
      "zusagen": 9533,
      "enten": 9534,
      "ersta": 9535,
      "argen": 9536,
      "gedacht": 9537,
      "baus": 9538,
      "jor": 9539,
      "hänomen": 9540,
      "lü": 9541,
      "strände": 9542,
      "verteilt": 9543,
      "versichern": 9544,
      "fernse": 9545,
      "iner": 9546,
      "amerikan": 9547,
      "plätzen": 9548,
      "hochwertige": 9549,
      "zukünftigen": 9550,
      "strategische": 9551,
      "nächst": 9552,
      "handlungs": 9553,
      "hervorgehoben": 9554,
      "ausgleich": 9555,
      "total": 9556,
      "widerstand": 9557,
      "genaue": 9558,
      "gestattet": 9559,
      "isse": 9560,
      "sische": 9561,
      "vierten": 9562,
      "unterstreichen": 9563,
      "astr": 9564,
      "kg": 9565,
      "dauert": 9566,
      "tiefen": 9567,
      "pur": 9568,
      "vul": 9569,
      "freizügigkeit": 9570,
      "rückkehr": 9571,
      "künftige": 9572,
      "montag": 9573,
      "verfügbaren": 9574,
      "schreck": 9575,
      "spreche": 9576,
      "schaus": 9577,
      "trocken": 9578,
      "kreativ": 9579,
      "entwickler": 9580,
      "izza": 9581,
      "behinderten": 9582,
      "ram": 9583,
      "beendet": 9584,
      "geschnitten": 9585,
      "javas": 9586,
      "langfristige": 9587,
      "pum": 9588,
      "überblick": 9589,
      "militärischen": 9590,
      "applik": 9591,
      "allianz": 9592,
      "geteilt": 9593,
      "indire": 9594,
      "beton": 9595,
      "belastung": 9596,
      "aufrechter": 9597,
      "registrierung": 9598,
      "aff": 9599,
      "inclu": 9600,
      "schnee": 9601,
      "momentan": 9602,
      "unabhängige": 9603,
      "praktische": 9604,
      "tech": 9605,
      "dekor": 9606,
      "impul": 9607,
      "abstimmen": 9608,
      "maga": 9609,
      "bildschirm": 9610,
      "beobach": 9611,
      "wesenheit": 9612,
      "vorgesehenen": 9613,
      "silber": 9614,
      "wochenende": 9615,
      "wirksame": 9616,
      "aktiviert": 9617,
      "stücke": 9618,
      "behaupten": 9619,
      "konkurrenz": 9620,
      "achen": 9621,
      "reisende": 9622,
      "schlacht": 9623,
      "autos": 9624,
      "angeneh": 9625,
      "größeres": 9626,
      "konzentriert": 9627,
      "fähigen": 9628,
      "ereignis": 9629,
      "85": 9630,
      "fantast": 9631,
      "phänomen": 9632,
      "konfrontiert": 9633,
      "javascript": 9634,
      "geprägt": 9635,
      "barro": 9636,
      "nik": 9637,
      "mitteilen": 9638,
      "umfassend": 9639,
      "unterzeichnet": 9640,
      "tausend": 9641,
      "abendessen": 9642,
      "sph": 9643,
      "visa": 9644,
[...]
