{
  "version": "1.0",
  "truncation": null,
  "padding": null,
  "added_tokens": [
    {
      "id": 0,
      "content": "[UNK]",
      "single_word": false,
      "lstrip": false,
      "rstrip": false,
      "normalized": false,
      "special": true
    },
    {
      "id": 1,
      "content": "[PAD]",
      "single_word": false,
      "lstrip": false,
      "rstrip": false,
      "normalized": false,
      "special": true
    },
    {
      "id": 2,
      "content": "[SOS]",
      "single_word": false,
      "lstrip": false,
      "rstrip": false,
      "normalized": false,
      "special": true
    },
    {
      "id": 3,
      "content": "[EOS]",
      "single_word": false,
      "lstrip": false,
      "rstrip": false,
      "normalized": false,
      "special": true
    }
  ],
  "normalizer": {
    "type": "Lowercase"
  },
  "pre_tokenizer": {
    "type": "Sequence",
    "pretokenizers": [
      {
        "type": "Whitespace"
      },
      {
        "type": "Punctuation",
        "behavior": "Isolated"
      }
    ]
  },
  "post_processor": {
    "type": "TemplateProcessing",
    "single": [
      {
        "SpecialToken": {
          "id": "[SOS]",
          "type_id": 0
        }
      },
      {
        "Sequence": {
          "id": "A",
          "type_id": 0
        }
      },
      {
        "SpecialToken": {
          "id": "[EOS]",
          "type_id": 0
        }
      }
    ],
    "pair": [
      {
        "Sequence": {
          "id": "A",
          "type_id": 0
        }
      },
      {
        "Sequence": {
          "id": "B",
          "type_id": 1
        }
      }
    ],
    "special_tokens": {
      "[EOS]": {
        "id": "[EOS]",
        "ids": [
          3
        ],
        "tokens": [
          "[EOS]"
        ]
      },
      "[SOS]": {
        "id": "[SOS]",
        "ids": [
          2
        ],
        "tokens": [
          "[SOS]"
        ]
      }
    }
  },
  "decoder": null,
  "model": {
    "type": "BPE",
    "dropout": null,
    "unk_token": "[UNK]",
    "continuing_subword_prefix": null,
    "end_of_word_suffix": null,
    "fuse_unk": false,
    "byte_fallback": false,
    "ignore_merges": false,
    "vocab": {
      "[UNK]": 0,
      "[PAD]": 1,
      "[SOS]": 2,
      "[EOS]": 3,
      "!": 4,
      "\"": 5,
      "#": 6,
      "$": 7,
      "%": 8,
      "&": 9,
      "'": 10,
      "(": 11,
      ")": 12,
      "*": 13,
      "+": 14,
      ",": 15,
      "-": 16,
      ".": 17,
      "/": 18,
      "0": 19,
      "1": 20,
      "2": 21,
      "3": 22,
      "4": 23,
      "5": 24,
      "6": 25,
      "7": 26,
      "8": 27,
      "9": 28,
      ":": 29,
      ";": 30,
      "<": 31,
      "=": 32,
      ">": 33,
      "?": 34,
      "@": 35,
      "[": 36,
      "\\": 37,
      "]": 38,
      "^": 39,
      "_": 40,
      "`": 41,
      "a": 42,
      "b": 43,
      "c": 44,
      "d": 45,
      "e": 46,
      "f": 47,
      "g": 48,
      "h": 49,
      "i": 50,
      "j": 51,
      "k": 52,
      "l": 53,
      "m": 54,
      "n": 55,
      "o": 56,
      "p": 57,
      "q": 58,
      "r": 59,
      "s": 60,
      "t": 61,
      "u": 62,
      "v": 63,
      "w": 64,
      "x": 65,
      "y": 66,
      "z": 67,
      "{": 68,
      "|": 69,
      "}": 70,
      "~": 71,
      "": 72,
      "": 73,
      "": 74,
      "": 75,
      "": 76,
      "": 77,
      "": 78,
      "": 79,
      "": 80,
      "": 81,
      "": 82,
      "": 83,
      "": 84,
      "": 85,
      "": 86,
      "": 87,
      "": 88,
      "": 89,
      "": 90,
      "": 91,
      "": 92,
      "": 93,
      "": 94,
      "": 95,
      "": 96,
      "¡": 97,
      "¢": 98,
      "£": 99,
      "¤": 100,
      "¥": 101,
      "¦": 102,
      "§": 103,
      "¨": 104,
      "©": 105,
      "ª": 106,
      "«": 107,
      "¬": 108,
      "­": 109,
      "®": 110,
      "¯": 111,
      "°": 112,
      "±": 113,
      "²": 114,
      "³": 115,
      "´": 116,
      "µ": 117,
      "¶": 118,
      "·": 119,
      "¸": 120,
      "¹": 121,
      "º": 122,
      "»": 123,
      "¼": 124,
      "½": 125,
      "¾": 126,
      "¿": 127,
      "×": 128,
      "ß": 129,
      "à": 130,
      "á": 131,
      "â": 132,
      "ã": 133,
      "ä": 134,
      "å": 135,
      "æ": 136,
      "ç": 137,
      "è": 138,
      "é": 139,
      "ê": 140,
      "ë": 141,
      "ì": 142,
      "í": 143,
      "î": 144,
      "ï": 145,
      "ð": 146,
      "ñ": 147,
      "ò": 148,
      "ó": 149,
      "ô": 150,
      "õ": 151,
      "ö": 152,
      "÷": 153,
      "ø": 154,
      "ù": 155,
      "ú": 156,
      "û": 157,
      "ü": 158,
      "ý": 159,
      "þ": 160,
      "ÿ": 161,
      "ā": 162,
      "ă": 163,
      "ą": 164,
      "ć": 165,
      "ĉ": 166,
      "ċ": 167,
      "č": 168,
      "ď": 169,
      "đ": 170,
      "ē": 171,
      "ĕ": 172,
      "ė": 173,
      "ę": 174,
      "ě": 175,
      "ĝ": 176,
      "ğ": 177,
      "ġ": 178,
      "ģ": 179,
      "ĥ": 180,
      "ħ": 181,
      "ĩ": 182,
      "ī": 183,
      "ĭ": 184,
      "į": 185,
      "ı": 186,
      "ĵ": 187,
      "ķ": 188,
      "ĸ": 189,
      "ĺ": 190,
      "ļ": 191,
      "ľ": 192,
      "ł": 193,
      "ń": 194,
      "ņ": 195,
      "ň": 196,
      "ŋ": 197,
      "ō": 198,
      "ŏ": 199,
      "ő": 200,
      "œ": 201,
      "ŕ": 202,
      "ř": 203,
      "ś": 204,
      "ŝ": 205,
      "ş": 206,
      "š": 207,
      "ţ": 208,
      "ť": 209,
      "ũ": 210,
      "ū": 211,
      "ŭ": 212,
      "ů": 213,
      "ű": 214,
      "ų": 215,
      "ŵ": 216,
      "ŷ": 217,
      "ź": 218,
      "ż": 219,
      "ž": 220,
      "ſ": 221,
      "ƒ": 222,
      "ƙ": 223,
      "ƛ": 224,
      "ơ": 225,
      "ƭ": 226,
      "ư": 227,
      "ǎ": 228,
      "ǐ": 229,
      "ǒ": 230,
      "ǔ": 231,
      "ǟ": 232,
      "ǣ": 233,
      "ǫ": 234,
      "ǵ": 235,
      "ǻ": 236,
      "ȃ": 237,
      "ș": 238,
      "ț": 239,
      "ȣ": 240,
      "ȥ": 241,
      "ɐ": 242,
      "ɑ": 243,
      "ɒ": 244,
      "ɔ": 245,
      "ɕ": 246,
      "ə": 247,
      "ɚ": 248,
      "ɛ": 249,
      "ɠ": 250,
      "ɡ": 251,
      "ɣ": 252,
      "ɤ": 253,
      "ɨ": 254,
      "ɩ": 255,
      "ɪ": 256,
      "ɫ": 257,
      "ɬ": 258,
      "ɲ": 259,
      "ɴ": 260,
      "ɵ": 261,
      "ɹ": 262,
      "ɾ": 263,
      "ʀ": 264,
      "ʁ": 265,
      "ʃ": 266,
      "ʊ": 267,
      "ʋ": 268,
      "ʌ": 269,
      "ʐ": 270,
      "ʒ": 271,
      "ʔ": 272,
      "ʦ": 273,
      "ʲ": 274,
      "ʻ": 275,
      "ʼ": 276,
      "ʾ": 277,
      "ʿ": 278,
      "ˆ": 279,
      "ˈ": 280,
      "ˌ": 281,
      "ː": 282,
      "ˑ": 283,
      "˙": 284,
      "˚": 285,
      "˛": 286,
      "˜": 287,
      "˝": 288,
      "ˤ": 289,
      "̀": 290,
      "́": 291,
      "̂": 292,
      "̃": 293,
      "̄": 294,
      "̆": 295,
      "̇": 296,
      "̈": 297,
      "̍": 298,
      "̡": 299,
      "̣": 300,
      "̤": 301,
      "̧": 302,
      "̱": 303,
      "͘": 304,
      "͡": 305,
      "΄": 306,
      "ΐ": 307,
      "ά": 308,
      "έ": 309,
      "ή": 310,
      "ί": 311,
      "α": 312,
      "β": 313,
      "γ": 314,
      "δ": 315,
      "ε": 316,
      "ζ": 317,
      "η": 318,
      "θ": 319,
      "ι": 320,
      "κ": 321,
      "λ": 322,
      "μ": 323,
      "ν": 324,
      "ξ": 325,
      "ο": 326,
      "π": 327,
      "ρ": 328,
      "ς": 329,
      "σ": 330,
      "τ": 331,
      "υ": 332,
      "φ": 333,
      "χ": 334,
      "ψ": 335,
      "ω": 336,
      "ϊ": 337,
      "ό": 338,
      "ύ": 339,
      "ώ": 340,
      "а": 341,
      "б": 342,
      "в": 343,
      "г": 344,
      "д": 345,
      "е": 346,
      "ж": 347,
      "з": 348,
      "и": 349,
      "й": 350,
      "к": 351,
      "л": 352,
      "м": 353,
      "н": 354,
      "о": 355,
      "п": 356,
      "р": 357,
      "с": 358,
      "т": 359,
      "у": 360,
      "ф": 361,
      "х": 362,
      "ц": 363,
      "ч": 364,
      "ш": 365,
      "щ": 366,
      "ъ": 367,
      "ы": 368,
      "ь": 369,
      "э": 370,
      "ю": 371,
      "я": 372,
      "ё": 373,
      "ђ": 374,
      "ѓ": 375,
      "є": 376,
      "ѕ": 377,
      "і": 378,
      "ї": 379,
      "ј": 380,
      "љ": 381,
      "њ": 382,
      "ћ": 383,
      "ќ": 384,
      "ў": 385,
      "џ": 386,
      "ѳ": 387,
      "ґ": 388,
      "ғ": 389,
      "ҙ": 390,
      "қ": 391,
      "ҡ": 392,
      "ң": 393,
      "ү": 394,
      "ұ": 395,
      "ҳ": 396,
      "һ": 397,
      "ә": 398,
      "ө": 399,
      "ӳ": 400,
      "ְ": 401,
      "ֲ": 402,
      "ִ": 403,
      "ֵ": 404,
      "ֶ": 405,
      "ַ": 406,
      "ָ": 407,
      "ֹ": 408,
      "ּ": 409,
      "ֿ": 410,
      "ׁ": 411,
      "א": 412,
      "ב": 413,
      "ג": 414,
      "ד": 415,
      "ה": 416,
      "ו": 417,
      "ז": 418,
      "ח": 419,
      "ט": 420,
      "י": 421,
      "כ": 422,
      "ל": 423,
      "ם": 424,
      "מ": 425,
      "ן": 426,
      "נ": 427,
      "ס": 428,
      "ע": 429,
      "פ": 430,
      "ץ": 431,
      "צ": 432,
      "ק": 433,
      "ר": 434,
      "ש": 435,
      "ת": 436,
      "،": 437,
      "؛": 438,
      "ء": 439,
      "آ": 440,
      "أ": 441,
      "إ": 442,
      "ئ": 443,
      "ا": 444,
      "ب": 445,
      "ة": 446,
      "ت": 447,
      "ث": 448,
      "ج": 449,
      "ح": 450,
      "خ": 451,
      "د": 452,
      "ذ": 453,
      "ر": 454,
      "ز": 455,
      "س": 456,
      "ش": 457,
      "ص": 458,
      "ض": 459,
      "ط": 460,
      "ظ": 461,
      "ع": 462,
      "غ": 463,
      "ف": 464,
      "ق": 465,
      "ك": 466,
      "ل": 467,
      "م": 468,
      "ن": 469,
      "ه": 470,
      "و": 471,
      "ى": 472,
      "ي": 473,
      "ً": 474,
      "ٍ": 475,
      "َ": 476,
      "ُ": 477,
      "ِ": 478,
      "ّ": 479,
      "ْ": 480,
      "ٹ": 481,
      "ټ": 482,
      "پ": 483,
      "ځ": 484,
      "چ": 485,
      "ڠ": 486,
      "ڤ": 487,
      "ک": 488,
      "ڬ": 489,
      "ڭ": 490,
      "گ": 491,
      "ھ": 492,
      "ہ": 493,
      "ۂ": 494,
      "ۇ": 495,
      "ی": 496,
      "ې": 497,
      "ە": 498,
      "۞": 499,
      "۩": 500,
      "۰": 501,
      "۱": 502,
      "۲": 503,
      "۴": 504,
      "۵": 505,
      "۷": 506,
      "۸": 507,
      "۹": 508,
      "ރ": 509,
      "ކ": 510,
      "އ": 511,
      "މ": 512,
      "ާ": 513,
      "ި": 514,
      "ެ": 515,
      "ߧ": 516,
      "ं": 517,
      "अ": 518,
      "आ": 519,
      "ई": 520,
      "क": 521,
      "च": 522,
      "छ": 523,
      "ज": 524,
      "ञ": 525,
      "ट": 526,
      "ण": 527,
      "त": 528,
      "थ": 529,
      "द": 530,
      "ध": 531,
      "न": 532,
      "प": 533,
      "ब": 534,
      "म": 535,
      "य": 536,
      "र": 537,
      "ल": 538,
      "व": 539,
      "श": 540,
      "ष": 541,
      "स": 542,
      "ह": 543,
      "ा": 544,
      "ि": 545,
      "ी": 546,
      "ु": 547,
      "े": 548,
      "ो": 549,
      "्": 550,
      "ॐ": 551,
      "०": 552,
      "१": 553,
      "२": 554,
      "३": 555,
      "५": 556,
      "९": 557,
      "আ": 558,
      "ই": 559,
      "এ": 560,
      "ক": 561,
      "গ": 562,
      "চ": 563,
      "ট": 564,
      "ত": 565,
      "ন": 566,
      "প": 567,
      "ব": 568,
      "ম": 569,
      "য": 570,
      "র": 571,
      "ল": 572,
      "ষ": 573,
      "হ": 574,
      "়": 575,
      "া": 576,
      "ি": 577,
      "ু": 578,
      "ো": 579,
      "্": 580,
      "ৰ": 581,
      "ં": 582,
      "અ": 583,
      "ક": 584,
      "જ": 585,
      "ત": 586,
      "મ": 587,
      "ય": 588,
      "ર": 589,
      "સ": 590,
      "ા": 591,
      "િ": 592,
      "ુ": 593,
      "ે": 594,
      "્": 595,
      "૦": 596,
      "૧": 597,
      "૨": 598,
      "க": 599,
      "ங": 600,
      "ச": 601,
      "ட": 602,
      "த": 603,
      "ன": 604,
      "ப": 605,
      "ம": 606,
      "ய": 607,
      "ர": 608,
      "ல": 609,
      "வ": 610,
      "ஷ": 611,
      "ா": 612,
      "ி": 613,
      "ு": 614,
      "ூ": 615,
      "ெ": 616,
      "ை": 617,
      "ோ": 618,
      "்": 619,
      "ం": 620,
      "ఆ": 621,
      "క": 622,
      "గ": 623,
      "జ": 624,
      "డ": 625,
      "ద": 626,
      "ధ": 627,
      "న": 628,
      "ప": 629,
      "ర": 630,
      "శ": 631,
      "ా": 632,
      "ు": 633,
      "ే": 634,
      "ొ": 635,
      "్": 636,
      "ಐ": 637,
      "ಯ": 638,
      "ರ": 639,
      "ವ": 640,
      "ಶ": 641,
      "ಾ": 642,
      "ೈ": 643,
      "್": 644,
      "೦": 645,
      "೧": 646,
      "೨": 647,
      "೩": 648,
      "೫": 649,
      "೬": 650,
      "೮": 651,
      "೯": 652,
      "അ": 653,
      "എ": 654,
      "ക": 655,
      "ത": 656,
      "ദ": 657,
      "ന": 658,
      "പ": 659,
      "മ": 660,
      "യ": 661,
      "ല": 662,
      "വ": 663,
      "ഷ": 664,
      "സ": 665,
      "ി": 666,
      "ീ": 667,
      "ു": 668,
      "ോ": 669,
      "്": 670,
      "ก": 671,
      "ข": 672,
      "ค": 673,
      "ง": 674,
      "จ": 675,
      "ฉ": 676,
      "ช": 677,
      "ซ": 678,
      "ญ": 679,
      "ฎ": 680,
      "ฏ": 681,
      "ฐ": 682,
      "ฑ": 683,
      "ฒ": 684,
      "ณ": 685,
      "ด": 686,
      "ต": 687,
      "ถ": 688,
      "ท": 689,
      "ธ": 690,
      "น": 691,
      "บ": 692,
      "ป": 693,
      "ผ": 694,
      "ฝ": 695,
      "พ": 696,
      "ฟ": 697,
      "ภ": 698,
      "ม": 699,
      "ย": 700,
      "ร": 701,
      "ฤ": 702,
      "ล": 703,
      "ว": 704,
      "ศ": 705,
      "ษ": 706,
      "ส": 707,
      "ห": 708,
      "อ": 709,
      "ะ": 710,
      "ั": 711,
      "า": 712,
      "ำ": 713,
      "ิ": 714,
      "ี": 715,
      "ึ": 716,
      "ื": 717,
      "ุ": 718,
      "ู": 719,
      "฿": 720,
      "เ": 721,
      "แ": 722,
      "โ": 723,
      "ใ": 724,
      "ไ": 725,
      "ๆ": 726,
      "็": 727,
      "่": 728,
      "้": 729,
      "๊": 730,
      "๋": 731,
      "์": 732,
      "๑": 733,
      "ຂ": 734,
      "ຄ": 735,
      "ງ": 736,
      "ຈ": 737,
      "ດ": 738,
      "ຖ": 739,
      "ນ": 740,
      "ບ": 741,
      "ມ": 742,
      "ລ": 743,
      "ວ": 744,
      "ັ": 745,
      "າ": 746,
      "ຸ": 747,
      "ົ": 748,
      "ຽ": 749,
      "ເ": 750,
      "້": 751,
      "ໜ": 752,
      "་": 753,
      "ཏ": 754,
      "ད": 755,
      "ན": 756,
      "བ": 757,
      "མ": 758,
      "ཚ": 759,
      "འ": 760,
      "ལ": 761,
      "ས": 762,
      "ཱ": 763,
      "ི": 764,
      "ོ": 765,
      "ྔ": 766,
      "ླ": 767,
      "န": 768,
      "ရ": 769,
      "ဝ": 770,
      "သ": 771,
      "ဟ": 772,
      "ေ": 773,
      "္": 774,
      "ა": 775,
      "ბ": 776,
      "გ": 777,
      "დ": 778,
      "ე": 779,
      "ვ": 780,
      "ზ": 781,
      "თ": 782,
      "ი": 783,
      "კ": 784,
      "ლ": 785,
      "მ": 786,
      "ნ": 787,
      "ო": 788,
      "პ": 789,
      "რ": 790,
      "ს": 791,
      "ტ": 792,
      "უ": 793,
      "ქ": 794,
      "ღ": 795,
      "შ": 796,
      "ც": 797,
      "ძ": 798,
      "წ": 799,
      "ხ": 800,
      "ჯ": 801,
      "ህ": 802,
      "ሊ": 803,
      "ል": 804,
      "ሓ": 805,
      "ሕ": 806,
      "መ": 807,
      "ሙ": 808,
      "ሜ": 809,
      "ም": 810,
      "ሥ": 811,
      "ረ": 812,
      "ሪ": 813,
      "ራ": 814,
      "ር": 815,
      "ሰ": 816,
      "ሴ": 817,
      "ሻ": 818,
      "ሽ": 819,
      "ቀ": 820,
      "ቐ": 821,
      "በ": 822,
      "ቢ": 823,
      "ባ": 824,
      "ተ": 825,
      "ት": 826,
      "ቶ": 827,
      "ነ": 828,
      "ን": 829,
      "አ": 830,
      "ኣ": 831,
      "እ": 832,
      "ኦ": 833,
      "ካ": 834,
      "ክ": 835,
      "ዋ": 836,
      "ው": 837,
      "ዓ": 838,
      "ዕ": 839,
      "የ": 840,
      "ይ": 841,
      "ደ": 842,
      "ዲ": 843,
      "ድ": 844,
      "ገ": 845,
      "ጋ": 846,
      "ጨ": 847,
      "ጽ": 848,
      "ፅ": 849,
      "ፈ": 850,
      "ፍ": 851,
      "፣": 852,
      "ᐃ": 853,
      "ᐊ": 854,
      "ᑦ": 855,
      "ᑲ": 856,
      "ᒃ": 857,
      "ᒥ": 858,
      "ᓄ": 859,
      "ᓕ": 860,
      "ḇ": 861,
      "ḏ": 862,
      "ḗ": 863,
      "ḥ": 864,
      "ḫ": 865,
      "ḳ": 866,
      "ṃ": 867,
      "ṇ": 868,
      "ṛ": 869,
      "ṭ": 870,
      "ṳ": 871,
      "ẋ": 872,
      "ạ": 873,
      "ả": 874,
      "ấ": 875,
      "ầ": 876,
      "ậ": 877,
      "ắ": 878,
      "ằ": 879,
      "ẳ": 880,
      "ặ": 881,
      "ẻ": 882,
      "ẽ": 883,
      "ế": 884,
      "ề": 885,
      "ể": 886,
      "ễ": 887,
      "ệ": 888,
      "ỉ": 889,
      "ị": 890,
      "ọ": 891,
      "ỏ": 892,
      "ố": 893,
      "ồ": 894,
      "ổ": 895,
      "ộ": 896,
      "ớ": 897,
      "ờ": 898,
      "ỡ": 899,
      "ợ": 900,
      "ụ": 901,
      "ủ": 902,
      "ứ": 903,
      "ừ": 904,
      "ử": 905,
      "ữ": 906,
      "ự": 907,
      "ỹ": 908,
      "ἀ": 909,
      "ἁ": 910,
      "ἄ": 911,
      "ἐ": 912,
      "ἑ": 913,
      "ἔ": 914,
      "ἠ": 915,
      "ἡ": 916,
      "ἦ": 917,
      "ἰ": 918,
      "ἱ": 919,
      "ὑ": 920,
      "ά": 921,
      "ὶ": 922,
      "ῆ": 923,
      "ῖ": 924,
      "ῥ": 925,
      "​": 926,
      "‌": 927,
      "‍": 928,
      "‎": 929,
      "‏": 930,
      "‐": 931,
      "‑": 932,
      "–": 933,
      "—": 934,
      "―": 935,
      "‖": 936,
      "‘": 937,
      "’": 938,
      "‚": 939,
      "‛": 940,
      "“": 941,
      "”": 942,
      "„": 943,
      "‟": 944,
      "†": 945,
      "‡": 946,
      "•": 947,
      "…": 948,
      "‪": 949,
      "‬": 950,
      "‭": 951,
      "‰": 952,
      "′": 953,
      "″": 954,
      "‶": 955,
      "‹": 956,
      "›": 957,
      "※": 958,
      "‼": 959,
      "‽": 960,
      "⁄": 961,
      "ⁿ": 962,
      "₁": 963,
      "₂": 964,
      "₠": 965,
      "₣": 966,
      "₤": 967,
      "₩": 968,
      "₪": 969,
      "€": 970,
      "₴": 971,
      "₵": 972,
      "⃛": 973,
      "℃": 974,
      "ℓ": 975,
      "℔": 976,
      "№": 977,
      "™": 978,
      "℮": 979,
      "⅓": 980,
      "⅔": 981,
      "⅛": 982,
      "ⅱ": 983,
      "←": 984,
      "↑": 985,
      "→": 986,
      "↓": 987,
      "↔": 988,
      "↧": 989,
      "⇒": 990,
      "⇔": 991,
      "⇗": 992,
      "⇢": 993,
      "∀": 994,
      "∃": 995,
      "∈": 996,
      "∑": 997,
      "−": 998,
      "√": 999,
      "∞": 1000,
      "∴": 1001,
      "∶": 1002,
      "∼": 1003,
      "≈": 1004,
      "≠": 1005,
      "≡": 1006,
      "≤": 1007,
      "≥": 1008,
      "⋅": 1009,
      "⌃": 1010,
      "⌘": 1011,
      "①": 1012,
      "②": 1013,
      "③": 1014,
      "─": 1015,
      "│": 1016,
      "┌": 1017,
      "┐": 1018,
      "└": 1019,
      "┘": 1020,
      "┬": 1021,
      "┴": 1022,
      "╚": 1023,
      "╞": 1024,
      "╩": 1025,
      "█": 1026,
      "░": 1027,
      "▒": 1028,
      "■": 1029,
      "□": 1030,
      "▪": 1031,
      "▲": 1032,
      "▸": 1033,
      "►": 1034,
      "▼": 1035,
      "◆": 1036,
      "◇": 1037,
      "◈": 1038,
      "◊": 1039,
      "○": 1040,
      "◎": 1041,
      "●": 1042,
      "◙": 1043,
      "◦": 1044,
      "★": 1045,
      "☆": 1046,
      "☎": 1047,
      "☏": 1048,
      "☑": 1049,
      "☯": 1050,
      "☺": 1051,
      "☻": 1052,
      "☼": 1053,
      "♀": 1054,
      "♂": 1055,
      "♠": 1056,
      "♣": 1057,
      "♥": 1058,
      "♦": 1059,
      "♪": 1060,
      "♫": 1061,
      "✿": 1062,
      "➔": 1063,
      "➚": 1064,
      "➲": 1065,
      "ⰶ": 1066,
      "、": 1067,
      "。": 1068,
      "々": 1069,
      "《": 1070,
      "》": 1071,
      "「": 1072,
      "」": 1073,
      "『": 1074,
      "』": 1075,
      "【": 1076,
      "】": 1077,
      "〔": 1078,
      "〕": 1079,
      "〜": 1080,
      "ぁ": 1081,
      "あ": 1082,
      "ぃ": 1083,
      "い": 1084,
      "う": 1085,
      "ぇ": 1086,
      "え": 1087,
      "お": 1088,
      "か": 1089,
      "が": 1090,
      "き": 1091,
      "ぎ": 1092,
      "く": 1093,
      "ぐ": 1094,
      "け": 1095,
      "げ": 1096,
      "こ": 1097,
      "ご": 1098,
      "さ": 1099,
      "ざ": 1100,
      "し": 1101,
      "じ": 1102,
      "す": 1103,
      "ず": 1104,
      "せ": 1105,
      "ぜ": 1106,
      "そ": 1107,
      "ぞ": 1108,
      "た": 1109,
      "だ": 1110,
      "ち": 1111,
      "ぢ": 1112,
      "っ": 1113,
      "つ": 1114,
      "づ": 1115,
      "て": 1116,
      "で": 1117,
      "と": 1118,
      "ど": 1119,
      "な": 1120,
      "に": 1121,
      "ぬ": 1122,
      "ね": 1123,
      "の": 1124,
      "は": 1125,
      "ば": 1126,
      "ひ": 1127,
      "び": 1128,
      "ふ": 1129,
      "ぶ": 1130,
      "ぷ": 1131,
      "へ": 1132,
      "べ": 1133,
      "ほ": 1134,
      "ぼ": 1135,
      "ま": 1136,
      "み": 1137,
      "む": 1138,
      "め": 1139,
      "も": 1140,
      "ゃ": 1141,
      "や": 1142,
      "ゅ": 1143,
      "ゆ": 1144,
      "ょ": 1145,
      "よ": 1146,
      "ら": 1147,
      "り": 1148,
      "る": 1149,
      "れ": 1150,
      "ろ": 1151,
      "わ": 1152,
      "ゐ": 1153,
      "ゑ": 1154,
      "を": 1155,
      "ん": 1156,
      "ゔ": 1157,
      "゛": 1158,
      "゜": 1159,
      "ァ": 1160,
      "ア": 1161,
      "ィ": 1162,
      "イ": 1163,
      "ゥ": 1164,
      "ウ": 1165,
      "ェ": 1166,
      "エ": 1167,
      "ォ": 1168,
      "オ": 1169,
      "カ": 1170,
      "ガ": 1171,
      "キ": 1172,
      "ギ": 1173,
      "ク": 1174,
      "グ": 1175,
      "ケ": 1176,
      "ゲ": 1177,
      "コ": 1178,
      "ゴ": 1179,
      "サ": 1180,
      "ザ": 1181,
      "シ": 1182,
      "ジ": 1183,
      "ス": 1184,
      "ズ": 1185,
      "セ": 1186,
      "ゼ": 1187,
      "ソ": 1188,
      "ゾ": 1189,
      "タ": 1190,
      "ダ": 1191,
      "チ": 1192,
      "ッ": 1193,
      "ツ": 1194,
      "テ": 1195,
      "デ": 1196,
      "ト": 1197,
      "ド": 1198,
      "ナ": 1199,
      "ニ": 1200,
      "ヌ": 1201,
      "ネ": 1202,
      "ノ": 1203,
      "ハ": 1204,
      "バ": 1205,
      "パ": 1206,
      "ヒ": 1207,
      "ビ": 1208,
      "ピ": 1209,
      "フ": 1210,
      "ブ": 1211,
      "プ": 1212,
      "ヘ": 1213,
      "ベ": 1214,
      "ペ": 1215,
      "ホ": 1216,
      "マ": 1217,
      "ミ": 1218,
      "ム": 1219,
      "メ": 1220,
      "モ": 1221,
      "ャ": 1222,
      "ュ": 1223,
      "ユ": 1224,
      "ョ": 1225,
      "ヨ": 1226,
      "ラ": 1227,
      "リ": 1228,
      "ル": 1229,
      "レ": 1230,
      "ロ": 1231,
      "ワ": 1232,
      "ン": 1233,
      "ヴ": 1234,
      "・": 1235,
      "ー": 1236,
      "ㄅ": 1237,
      "ㄆ": 1238,
      "ㄇ": 1239,
      "ㄈ": 1240,
      "ㄤ": 1241,
      "㎡": 1242,
      "一": 1243,
      "七": 1244,
      "万": 1245,
      "三": 1246,
      "上": 1247,
      "下": 1248,
      "不": 1249,
      "与": 1250,
      "专": 1251,
      "世": 1252,
      "丘": 1253,
      "业": 1254,
      "东": 1255,
      "两": 1256,
      "严": 1257,
      "丨": 1258,
      "个": 1259,
      "中": 1260,
      "丰": 1261,
      "临": 1262,
      "丸": 1263,
      "丹": 1264,
      "为": 1265,
      "主": 1266,
      "丽": 1267,
      "举": 1268,
      "久": 1269,
      "么": 1270,
      "义": 1271,
      "之": 1272,
      "乌": 1273,
      "乎": 1274,
      "乏": 1275,
      "乐": 1276,
      "乗": 1277,
      "乘": 1278,
      "乙": 1279,
      "九": 1280,
      "也": 1281,
      "乡": 1282,
      "书": 1283,
      "买": 1284,
      "乱": 1285,
      "乾": 1286,
      "了": 1287,
      "争": 1288,
      "事": 1289,
      "二": 1290,
      "于": 1291,
      "云": 1292,
      "互": 1293,
      "五": 1294,
      "井": 1295,
      "亚": 1296,
      "些": 1297,
      "亜": 1298,
      "交": 1299,
      "产": 1300,
      "京": 1301,
      "人": 1302,
      "亿": 1303,
      "什": 1304,
      "仁": 1305,
      "仅": 1306,
      "今": 1307,
      "介": 1308,
      "仍": 1309,
      "从": 1310,
      "他": 1311,
      "付": 1312,
      "仙": 1313,
      "仝": 1314,
      "代": 1315,
      "以": 1316,
      "仪": 1317,
      "们": 1318,
      "仮": 1319,
      "仲": 1320,
      "件": 1321,
      "价": 1322,
      "任": 1323,
      "伊": 1324,
      "伏": 1325,
      "伐": 1326,
      "休": 1327,
      "众": 1328,
      "会": 1329,
      "伝": 1330,
      "伟": 1331,
      "传": 1332,
      "伯": 1333,
      "估": 1334,
      "伴": 1335,
      "伸": 1336,
      "似": 1337,
      "但": 1338,
      "位": 1339,
      "低": 1340,
      "住": 1341,
      "佐": 1342,
      "佑": 1343,
      "体": 1344,
      "何": 1345,
      "余": 1346,
      "作": 1347,
      "你": 1348,
      "佰": 1349,
      "使": 1350,
      "例": 1351,
      "侍": 1352,
      "供": 1353,
      "依": 1354,
      "便": 1355,
      "俄": 1356,
      "俊": 1357,
      "保": 1358,
      "信": 1359,
      "修": 1360,
      "倉": 1361,
      "個": 1362,
      "倍": 1363,
      "倒": 1364,
      "候": 1365,
      "值": 1366,
      "假": 1367,
      "做": 1368,
      "健": 1369,
      "側": 1370,
      "備": 1371,
      "储": 1372,
      "傳": 1373,
      "像": 1374,
      "僕": 1375,
      "儀": 1376,
      "元": 1377,
      "先": 1378,
      "光": 1379,
      "克": 1380,
      "免": 1381,
      "入": 1382,
      "內": 1383,
      "全": 1384,
      "兩": 1385,
      "八": 1386,
      "公": 1387,
      "六": 1388,
      "兰": 1389,
      "共": 1390,
      "关": 1391,
      "兴": 1392,
      "兵": 1393,
      "其": 1394,
      "具": 1395,
      "养": 1396,
      "兽": 1397,
      "内": 1398,
      "円": 1399,
      "冊": 1400,
      "再": 1401,
      "军": 1402,
      "农": 1403,
      "冤": 1404,
      "冰": 1405,
      "决": 1406,
      "况": 1407,
      "冷": 1408,
      "净": 1409,
      "凄": 1410,
      "准": 1411,
      "凍": 1412,
      "减": 1413,
      "几": 1414,
      "凸": 1415,
      "出": 1416,
      "刀": 1417,
      "分": 1418,
      "切": 1419,
      "刑": 1420,
      "列": 1421,
      "刘": 1422,
      "则": 1423,
      "刚": 1424,
      "判": 1425,
      "別": 1426,
      "利": 1427,
      "别": 1428,
      "到": 1429,
      "制": 1430,
      "刺": 1431,
      "則": 1432,
      "前": 1433,
      "剑": 1434,
      "剣": 1435,
      "剥": 1436,
      "剧": 1437,
      "剩": 1438,
      "割": 1439,
      "劇": 1440,
      "劉": 1441,
      "力": 1442,
      "功": 1443,
      "加": 1444,
      "务": 1445,
      "动": 1446,
      "助": 1447,
      "努": 1448,
      "劳": 1449,
      "势": 1450,
      "動": 1451,
      "勝": 1452,
      "勞": 1453,
      "勢": 1454,
      "勿": 1455,
      "包": 1456,
      "化": 1457,
      "北": 1458,
      "匡": 1459,
      "区": 1460,
      "医": 1461,
      "匿": 1462,
      "區": 1463,
      "十": 1464,
      "千": 1465,
      "升": 1466,
      "半": 1467,
      "卍": 1468,
      "华": 1469,
      "协": 1470,
      "卐": 1471,
      "卓": 1472,
      "单": 1473,
      "卖": 1474,
      "南": 1475,
      "博": 1476,
      "卡": 1477,
      "卦": 1478,
      "卫": 1479,
      "印": 1480,
      "危": 1481,
      "即": 1482,
      "却": 1483,
      "厂": 1484,
      "原": 1485,
      "去": 1486,
      "参": 1487,
      "及": 1488,
      "友": 1489,
      "双": 1490,
      "反": 1491,
      "发": 1492,
      "取": 1493,
      "受": 1494,
      "变": 1495,
      "叡": 1496,
      "口": 1497,
      "古": 1498,
      "另": 1499,
      "只": 1500,
      "叫": 1501,
      "可": 1502,
      "台": 1503,
      "史": 1504,
      "右": 1505,
      "号": 1506,
      "司": 1507,
      "吃": 1508,
      "各": 1509,
      "合": 1510,
      "吉": 1511,
      "同": 1512,
      "名": 1513,
      "后": 1514,
      "向": 1515,
      "吗": 1516,
      "君": 1517,
      "否": 1518,
      "吧": 1519,
      "吨": 1520,
      "含": 1521,
      "听": 1522,
      "吳": 1523,
      "吴": 1524,
      "吹": 1525,
      "吾": 1526,
      "呀": 1527,
      "呂": 1528,
      "呆": 1529,
      "呉": 1530,
      "告": 1531,
      "呑": 1532,
      "员": 1533,
      "周": 1534,
      "味": 1535,
      "呼": 1536,
      "命": 1537,
      "和": 1538,
      "咬": 1539,
      "品": 1540,
      "哈": 1541,
      "响": 1542,
      "哥": 1543,
      "唐": 1544,
      "售": 1545,
      "唸": 1546,
      "商": 1547,
      "問": 1548,
      "啦": 1549,
      "喂": 1550,
      "善": 1551,
      "喇": 1552,
      "喜": 1553,
      "喫": 1554,
      "嘉": 1555,
      "嘛": 1556,
      "嘟": 1557,
      "噌": 1558,
      "噛": 1559,
      "器": 1560,
      "嚴": 1561,
      "四": 1562,
      "回": 1563,
      "因": 1564,
      "囧": 1565,
      "园": 1566,
      "困": 1567,
      "国": 1568,
      "图": 1569,
      "圆": 1570,
      "國": 1571,
      "圍": 1572,
      "園": 1573,
      "圓": 1574,
      "圖": 1575,
      "土": 1576,
      "在": 1577,
      "地": 1578,
      "圳": 1579,
      "场": 1580,
      "坂": 1581,
      "均": 1582,
      "坐": 1583,
      "块": 1584,
      "坝": 1585,
      "坡": 1586,
      "坤": 1587,
      "坪": 1588,
      "型": 1589,
      "垣": 1590,
      "城": 1591,
      "埔": 1592,
      "域": 1593,
      "基": 1594,
      "堂": 1595,
      "堆": 1596,
      "堤": 1597,
      "堰": 1598,
      "報": 1599,
      "場": 1600,
      "塊": 1601,
      "塗": 1602,
      "塞": 1603,
      "塩": 1604,
      "塾": 1605,
      "増": 1606,
      "增": 1607,
      "壊": 1608,
      "士": 1609,
      "売": 1610,
      "壳": 1611,
      "壹": 1612,
      "壽": 1613,
      "处": 1614,
      "备": 1615,
      "変": 1616,
      "复": 1617,
      "夕": 1618,
      "外": 1619,
      "多": 1620,
      "夛": 1621,
      "夜": 1622,
      "够": 1623,
      "夢": 1624,
      "大": 1625,
      "天": 1626,
      "太": 1627,
      "夫": 1628,
      "央": 1629,
      "头": 1630,
      "夷": 1631,
      "夹": 1632,
      "奇": 1633,
      "奈": 1634,
      "套": 1635,
      "奚": 1636,
      "女": 1637,
      "奶": 1638,
      "好": 1639,
      "如": 1640,
      "妖": 1641,
      "妤": 1642,
      "妨": 1643,
      "妻": 1644,
      "姆": 1645,
      "始": 1646,
      "委": 1647,
      "姦": 1648,
      "威": 1649,
      "娃": 1650,
      "娜": 1651,
      "娣": 1652,
      "娱": 1653,
      "婁": 1654,
      "婦": 1655,
      "婷": 1656,
      "媛": 1657,
      "嫌": 1658,
      "子": 1659,
      "字": 1660,
      "存": 1661,
      "季": 1662,
      "学": 1663,
      "學": 1664,
      "宁": 1665,
      "它": 1666,
      "安": 1667,
      "完": 1668,
      "宏": 1669,
      "宗": 1670,
      "官": 1671,
      "定": 1672,
      "宜": 1673,
      "宝": 1674,
      "实": 1675,
      "実": 1676,
      "客": 1677,
      "宣": 1678,
      "室": 1679,
      "宫": 1680,
      "宮": 1681,
      "家": 1682,
      "容": 1683,
      "宿": 1684,
      "寄": 1685,
      "密": 1686,
      "富": 1687,
      "寧": 1688,
      "寳": 1689,
      "寶": 1690,
      "寸": 1691,
      "对": 1692,
      "寺": 1693,
      "寻": 1694,
      "寿": 1695,
      "将": 1696,
      "小": 1697,
      "少": 1698,
      "尔": 1699,
      "尘": 1700,
      "就": 1701,
      "尽": 1702,
      "尾": 1703,
      "尿": 1704,
      "局": 1705,
      "屄": 1706,
      "居": 1707,
      "屈": 1708,
      "届": 1709,
      "屋": 1710,
      "屏": 1711,
      "展": 1712,
      "属": 1713,
      "屯": 1714,
      "山": 1715,
      "屿": 1716,
      "岐": 1717,
      "岗": 1718,
      "岡": 1719,
      "岩": 1720,
      "岭": 1721,
      "岳": 1722,
      "岸": 1723,
      "島": 1724,
      "峻": 1725,
      "峽": 1726,
      "崎": 1727,
      "崔": 1728,
      "崖": 1729,
      "崩": 1730,
      "嶺": 1731,
      "嶼": 1732,
      "川": 1733,
      "州": 1734,
      "工": 1735,
      "左": 1736,
      "巧": 1737,
      "巨": 1738,
      "差": 1739,
      "己": 1740,
      "已": 1741,
      "巴": 1742,
      "巻": 1743,
      "市": 1744,
      "布": 1745,
      "师": 1746,
      "希": 1747,
      "帝": 1748,
      "帥": 1749,
      "带": 1750,
      "師": 1751,
      "帯": 1752,
      "常": 1753,
      "幌": 1754,
      "幡": 1755,
      "幣": 1756,
      "干": 1757,
      "平": 1758,
      "年": 1759,
      "并": 1760,
      "幸": 1761,
      "幹": 1762,
      "幾": 1763,
      "广": 1764,
      "庁": 1765,
      "広": 1766,
      "庄": 1767,
      "庆": 1768,
      "序": 1769,
      "库": 1770,
      "应": 1771,
      "底": 1772,
      "店": 1773,
      "庚": 1774,
      "府": 1775,
      "废": 1776,
      "度": 1777,
      "庫": 1778,
      "庭": 1779,
      "康": 1780,
      "廃": 1781,
      "廣": 1782,
      "建": 1783,
      "开": 1784,
      "弁": 1785,
      "异": 1786,
      "弄": 1787,
      "式": 1788,
      "弔": 1789,
      "引": 1790,
      "张": 1791,
      "張": 1792,
      "强": 1793,
      "当": 1794,
      "形": 1795,
      "彩": 1796,
      "影": 1797,
      "役": 1798,
      "彻": 1799,
      "彼": 1800,
      "征": 1801,
      "待": 1802,
      "很": 1803,
      "律": 1804,
      "後": 1805,
      "徐": 1806,
      "徒": 1807,
      "得": 1808,
      "復": 1809,
      "循": 1810,
      "微": 1811,
      "徳": 1812,
      "德": 1813,
      "徽": 1814,
      "心": 1815,
      "必": 1816,
      "志": 1817,
      "忘": 1818,
      "応": 1819,
      "忠": 1820,
      "快": 1821,
      "念": 1822,
      "忻": 1823,
      "忽": 1824,
      "怒": 1825,
      "思": 1826,
      "怡": 1827,
      "急": 1828,
      "性": 1829,
      "怪": 1830,
      "总": 1831,
      "恋": 1832,
      "恢": 1833,
      "息": 1834,
      "悟": 1835,
      "患": 1836,
      "您": 1837,
      "悩": 1838,
      "悬": 1839,
      "情": 1840,
      "惠": 1841,
      "惧": 1842,
      "想": 1843,
      "意": 1844,
      "愛": 1845,
      "感": 1846,
      "慈": 1847,
      "態": 1848,
      "慎": 1849,
      "慢": 1850,
      "慣": 1851,
      "慶": 1852,
      "憎": 1853,
      "憨": 1854,
      "憩": 1855,
      "憶": 1856,
      "憾": 1857,
      "應": 1858,
      "成": 1859,
      "我": 1860,
      "戒": 1861,
      "或": 1862,
      "战": 1863,
      "截": 1864,
      "戴": 1865,
      "戸": 1866,
      "戻": 1867,
      "所": 1868,
      "扈": 1869,
      "手": 1870,
      "才": 1871,
      "打": 1872,
      "払": 1873,
      "找": 1874,
      "承": 1875,
      "技": 1876,
      "投": 1877,
      "抗": 1878,
      "折": 1879,
      "抜": 1880,
      "护": 1881,
      "报": 1882,
      "抵": 1883,
      "抹": 1884,
      "押": 1885,
      "担": 1886,
      "拉": 1887,
      "拒": 1888,
      "拓": 1889,
      "招": 1890,
      "拟": 1891,
      "择": 1892,
      "括": 1893,
      "拳": 1894,
      "拼": 1895,
      "拿": 1896,
      "持": 1897,
      "指": 1898,
      "按": 1899,
      "挑": 1900,
      "挠": 1901,
      "挡": 1902,
      "振": 1903,
      "据": 1904,
      "捷": 1905,
      "排": 1906,
      "掛": 1907,
      "採": 1908,
      "探": 1909,
      "接": 1910,
      "控": 1911,
      "推": 1912,
      "措": 1913,
      "掻": 1914,
      "揂": 1915,
      "揃": 1916,
      "提": 1917,
      "揚": 1918,
      "換": 1919,
      "握": 1920,
      "援": 1921,
      "搅": 1922,
      "損": 1923,
      "搜": 1924,
      "搞": 1925,
      "携": 1926,
      "摂": 1927,
      "摆": 1928,
      "摇": 1929,
      "摩": 1930,
      "撒": 1931,
      "撤": 1932,
      "撫": 1933,
      "播": 1934,
      "撮": 1935,
      "操": 1936,
      "支": 1937,
      "收": 1938,
      "改": 1939,
      "攻": 1940,
      "放": 1941,
      "政": 1942,
      "故": 1943,
      "效": 1944,
      "敏": 1945,
      "救": 1946,
      "教": 1947,
      "散": 1948,
      "敬": 1949,
      "数": 1950,
      "整": 1951,
      "文": 1952,
      "斗": 1953,
      "料": 1954,
      "斯": 1955,
      "新": 1956,
      "方": 1957,
      "施": 1958,
      "旅": 1959,
      "旋": 1960,
      "族": 1961,
      "无": 1962,
      "日": 1963,
      "旧": 1964,
      "旭": 1965,
      "旱": 1966,
      "时": 1967,
      "昌": 1968,
      "明": 1969,
      "易": 1970,
      "星": 1971,
      "映": 1972,
      "春": 1973,
      "昭": 1974,
      "是": 1975,
      "显": 1976,
      "時": 1977,
      "晏": 1978,
      "晨": 1979,
      "普": 1980,
      "景": 1981,
      "智": 1982,
      "暨": 1983,
      "暫": 1984,
      "曌": 1985,
      "更": 1986,
      "書": 1987,
      "曹": 1988,
      "曾": 1989,
      "最": 1990,
      "月": 1991,
      "有": 1992,
      "服": 1993,
      "朔": 1994,
      "朗": 1995,
      "望": 1996,
      "朝": 1997,
      "期": 1998,
      "木": 1999,
      "未": 2000,
      "末": 2001,
      "本": 2002,
      "札": 2003,
      "术": 2004,
      "朱": 2005,
      "机": 2006,
      "杂": 2007,
      "李": 2008,
      "杏": 2009,
      "材": 2010,
      "村": 2011,
      "束": 2012,
      "条": 2013,
      "来": 2014,
      "杨": 2015,
      "杭": 2016,
      "東": 2017,
      "松": 2018,
      "板": 2019,
      "极": 2020,
      "构": 2021,
      "析": 2022,
      "林": 2023,
      "枚": 2024,
      "果": 2025,
      "枡": 2026,
      "架": 2027,
      "某": 2028,
      "染": 2029,
      "柔": 2030,
      "查": 2031,
      "柱": 2032,
      "柴": 2033,
      "标": 2034,
      "树": 2035,
      "校": 2036,
      "株": 2037,
      "样": 2038,
      "核": 2039,
      "根": 2040,
      "格": 2041,
      "栽": 2042,
      "桃": 2043,
      "框": 2044,
      "案": 2045,
      "桜": 2046,
      "桥": 2047,
      "桩": 2048,
      "桶": 2049,
      "梁": 2050,
      "梅": 2051,
      "械": 2052,
      "检": 2053,
      "棒": 2054,
      "棲": 2055,
      "植": 2056,
      "検": 2057,
      "楠": 2058,
      "業": 2059,
      "極": 2060,
      "楼": 2061,
      "楽": 2062,
      "樓": 2063,
      "標": 2064,
      "模": 2065,
      "横": 2066,
      "樹": 2067,
      "橋": 2068,
      "機": 2069,
      "檀": 2070,
      "次": 2071,
      "欢": 2072,
      "欧": 2073,
      "款": 2074,
      "歌": 2075,
      "止": 2076,
      "正": 2077,
      "此": 2078,
      "步": 2079,
      "武": 2080,
      "歩": 2081,
      "歸": 2082,
      "死": 2083,
      "殊": 2084,
      "段": 2085,
      "殻": 2086,
      "母": 2087,
      "毎": 2088,
      "每": 2089,
      "毓": 2090,
      "比": 2091,
      "毛": 2092,
      "氏": 2093,
      "民": 2094,
      "气": 2095,
      "気": 2096,
      "氣": 2097,
      "氧": 2098,
      "氮": 2099,
      "水": 2100,
      "氷": 2101,
      "永": 2102,
      "汁": 2103,
      "求": 2104,
      "汇": 2105,
      "汉": 2106,
      "江": 2107,
      "池": 2108,
      "汴": 2109,
      "決": 2110,
      "沈": 2111,
      "沌": 2112,
      "沙": 2113,
      "沛": 2114,
      "没": 2115,
      "沢": 2116,
      "沪": 2117,
      "河": 2118,
      "油": 2119,
      "治": 2120,
      "沿": 2121,
      "況": 2122,
      "泄": 2123,
      "泉": 2124,
      "泊": 2125,
      "法": 2126,
      "波": 2127,
      "泥": 2128,
      "注": 2129,
      "泰": 2130,
      "洁": 2131,
      "洋": 2132,
      "洒": 2133,
      "洗": 2134,
      "洛": 2135,
      "洞": 2136,
      "洪": 2137,
      "洲": 2138,
      "活": 2139,
      "派": 2140,
      "流": 2141,
      "测": 2142,
      "济": 2143,
      "浙": 2144,
      "浜": 2145,
      "浦": 2146,
      "浮": 2147,
      "浴": 2148,
      "海": 2149,
      "消": 2150,
      "涌": 2151,
      "涩": 2152,
      "淡": 2153,
      "深": 2154,
      "混": 2155,
      "淹": 2156,
      "清": 2157,
      "済": 2158,
      "渋": 2159,
      "渐": 2160,
      "減": 2161,
      "渝": 2162,
      "渡": 2163,
      "温": 2164,
      "港": 2165,
      "渲": 2166,
      "渴": 2167,
      "湄": 2168,
      "湖": 2169,
      "湘": 2170,
      "湯": 2171,
      "湾": 2172,
      "満": 2173,
      "溉": 2174,
      "源": 2175,
      "溜": 2176,
      "溝": 2177,
      "溢": 2178,
      "溥": 2179,
      "溪": 2180,
      "溯": 2181,
      "溶": 2182,
      "滇": 2183,
      "滞": 2184,
      "滨": 2185,
      "漢": 2186,
      "漫": 2187,
      "潜": 2188,
      "潢": 2189,
      "潭": 2190,
      "潮": 2191,
      "澄": 2192,
      "澎": 2193,
      "澤": 2194,
      "澳": 2195,
      "激": 2196,
      "濟": 2197,
      "濱": 2198,
      "灌": 2199,
      "灣": 2200,
      "火": 2201,
      "灯": 2202,
      "灰": 2203,
      "灾": 2204,
      "炎": 2205,
      "炯": 2206,
      "点": 2207,
      "為": 2208,
      "烈": 2209,
      "烏": 2210,
      "烧": 2211,
      "热": 2212,
      "無": 2213,
      "焦": 2214,
      "然": 2215,
      "焼": 2216,
      "煙": 2217,
      "照": 2218,
      "煩": 2219,
      "煮": 2220,
      "熊": 2221,
      "熟": 2222,
      "熨": 2223,
      "熱": 2224,
      "燃": 2225,
      "燕": 2226,
      "燗": 2227,
      "爛": 2228,
      "爪": 2229,
      "爱": 2230,
      "父": 2231,
      "爻": 2232,
      "爾": 2233,
      "片": 2234,
      "版": 2235,
      "牌": 2236,
      "牙": 2237,
      "牛": 2238,
      "物": 2239,
      "特": 2240,
      "状": 2241,
      "狐": 2242,
      "独": 2243,
      "狭": 2244,
      "猛": 2245,
      "猪": 2246,
      "献": 2247,
      "獲": 2248,
      "玄": 2249,
      "率": 2250,
      "玉": 2251,
      "王": 2252,
      "环": 2253,
      "珈": 2254,
      "珍": 2255,
      "珠": 2256,
      "班": 2257,
      "球": 2258,
      "理": 2259,
      "琢": 2260,
      "琲": 2261,
      "璐": 2262,
      "環": 2263,
      "瓊": 2264,
      "瓶": 2265,
      "甜": 2266,
      "生": 2267,
      "用": 2268,
      "田": 2269,
      "由": 2270,
      "申": 2271,
      "电": 2272,
      "男": 2273,
      "町": 2274,
      "画": 2275,
      "界": 2276,
      "留": 2277,
      "番": 2278,
      "畿": 2279,
      "疆": 2280,
      "疏": 2281,
      "疑": 2282,
      "疗": 2283,
      "疫": 2284,
      "病": 2285,
      "痛": 2286,
      "痴": 2287,
      "瘤": 2288,
      "癌": 2289,
      "癪": 2290,
      "発": 2291,
      "登": 2292,
      "白": 2293,
      "百": 2294,
      "的": 2295,
      "皇": 2296,
      "皮": 2297,
      "盆": 2298,
      "益": 2299,
      "盐": 2300,
      "监": 2301,
      "盛": 2302,
      "監": 2303,
      "盧": 2304,
      "目": 2305,
      "直": 2306,
      "相": 2307,
      "省": 2308,
      "看": 2309,
      "県": 2310,
      "真": 2311,
      "眩": 2312,
      "眼": 2313,
      "着": 2314,
      "睛": 2315,
      "瞎": 2316,
      "瞳": 2317,
      "瞻": 2318,
      "知": 2319,
      "短": 2320,
      "石": 2321,
      "矿": 2322,
      "码": 2323,
      "砂": 2324,
      "砕": 2325,
      "破": 2326,
      "硝": 2327,
      "硬": 2328,
      "确": 2329,
      "碁": 2330,
      "碍": 2331,
      "碧": 2332,
      "碳": 2333,
      "磁": 2334,
      "磨": 2335,
      "磷": 2336,
      "示": 2337,
      "礼": 2338,
      "社": 2339,
      "祖": 2340,
      "神": 2341,
      "票": 2342,
      "祭": 2343,
      "祸": 2344,
      "祿": 2345,
      "禁": 2346,
      "禅": 2347,
      "福": 2348,
      "禪": 2349,
      "禹": 2350,
      "禽": 2351,
      "秀": 2352,
      "私": 2353,
      "秉": 2354,
      "秋": 2355,
      "种": 2356,
      "科": 2357,
      "租": 2358,
      "秦": 2359,
      "积": 2360,
      "称": 2361,
      "移": 2362,
      "稀": 2363,
      "稅": 2364,
      "程": 2365,
      "税": 2366,
      "稲": 2367,
      "稳": 2368,
      "稻": 2369,
      "稼": 2370,
      "稿": 2371,
      "穷": 2372,
      "空": 2373,
      "立": 2374,
      "站": 2375,
      "竜": 2376,
      "章": 2377,
      "竹": 2378,
      "第": 2379,
      "筆": 2380,
      "等": 2381,
      "筑": 2382,
      "答": 2383,
      "策": 2384,
      "签": 2385,
      "简": 2386,
      "箍": 2387,
      "箕": 2388,
      "管": 2389,
      "箱": 2390,
      "節": 2391,
      "篇": 2392,
      "簡": 2393,
      "米": 2394,
      "类": 2395,
      "粉": 2396,
      "粤": 2397,
      "粮": 2398,
      "粵": 2399,
      "精": 2400,
      "糖": 2401,
      "糸": 2402,
      "系": 2403,
      "紀": 2404,
      "紂": 2405,
      "紅": 2406,
      "紋": 2407,
      "納": 2408,
      "純": 2409,
      "紙": 2410,
      "級": 2411,
      "素": 2412,
      "索": 2413,
      "紧": 2414,
      "細": 2415,
      "紹": 2416,
      "終": 2417,
      "経": 2418,
      "絞": 2419,
      "統": 2420,
      "經": 2421,
      "継": 2422,
      "続": 2423,
      "網": 2424,
      "総": 2425,
      "線": 2426,
      "縣": 2427,
      "繁": 2428,
      "織": 2429,
      "红": 2430,
      "约": 2431,
      "纪": 2432,
      "纷": 2433,
      "纽": 2434,
      "线": 2435,
      "组": 2436,
      "细": 2437,
      "终": 2438,
      "绍": 2439,
      "经": 2440,
      "绝": 2441,
      "统": 2442,
      "绪": 2443,
      "续": 2444,
      "维": 2445,
      "缓": 2446,
      "缩": 2447,
      "缺": 2448,
      "网": 2449,
      "罗": 2450,
      "罪": 2451,
      "置": 2452,
      "署": 2453,
      "羅": 2454,
      "美": 2455,
      "群": 2456,
      "義": 2457,
      "羲": 2458,
      "羽": 2459,
      "翁": 2460,
      "習": 2461,
      "翻": 2462,
      "翼": 2463,
      "耀": 2464,
      "老": 2465,
      "考": 2466,
      "者": 2467,
      "而": 2468,
      "耐": 2469,
      "耕": 2470,
      "耳": 2471,
      "耶": 2472,
      "耸": 2473,
      "联": 2474,
      "聖": 2475,
      "聞": 2476,
      "聼": 2477,
      "肉": 2478,
      "股": 2479,
      "肥": 2480,
      "育": 2481,
      "胁": 2482,
      "背": 2483,
      "胖": 2484,
      "胞": 2485,
      "胡": 2486,
      "能": 2487,
      "脑": 2488,
      "脖": 2489,
      "脚": 2490,
      "脱": 2491,
      "腔": 2492,
      "腕": 2493,
      "腰": 2494,
      "腹": 2495,
      "膚": 2496,
      "臂": 2497,
      "臓": 2498,
      "臣": 2499,
      "臨": 2500,
      "自": 2501,
      "至": 2502,
      "致": 2503,
      "臺": 2504,
      "興": 2505,
      "舊": 2506,
      "舞": 2507,
      "航": 2508,
      "舫": 2509,
      "般": 2510,
      "艮": 2511,
      "良": 2512,
      "色": 2513,
      "艳": 2514,
      "节": 2515,
      "芋": 2516,
      "芝": 2517,
      "芦": 2518,
      "花": 2519,
      "若": 2520,
      "英": 2521,
      "茂": 2522,
      "茜": 2523,
      "茨": 2524,
      "茶": 2525,
      "草": 2526,
      "荣": 2527,
      "荷": 2528,
      "莨": 2529,
      "莲": 2530,
      "获": 2531,
      "莹": 2532,
      "菜": 2533,
      "菩": 2534,
      "華": 2535,
      "萄": 2536,
      "营": 2537,
      "萧": 2538,
      "萬": 2539,
      "落": 2540,
      "葉": 2541,
      "葡": 2542,
      "董": 2543,
      "蒋": 2544,
      "蒸": 2545,
      "蓋": 2546,
      "蓟": 2547,
      "蓮": 2548,
      "蔓": 2549,
      "蔚": 2550,
      "蔣": 2551,
      "蕭": 2552,
      "蕴": 2553,
      "薊": 2554,
      "薬": 2555,
      "薯": 2556,
      "藍": 2557,
      "藏": 2558,
      "藕": 2559,
      "藤": 2560,
      "蘇": 2561,
      "虑": 2562,
      "號": 2563,
      "虫": 2564,
      "蛋": 2565,
      "融": 2566,
      "螨": 2567,
      "螳": 2568,
      "螺": 2569,
      "蟲": 2570,
      "血": 2571,
      "衆": 2572,
      "行": 2573,
      "術": 2574,
      "街": 2575,
      "衡": 2576,
      "表": 2577,
      "裂": 2578,
      "装": 2579,
      "裕": 2580,
      "製": 2581,
      "西": 2582,
      "要": 2583,
      "見": 2584,
      "視": 2585,
      "覧": 2586,
      "親": 2587,
      "観": 2588,
      "见": 2589,
      "观": 2590,
      "视": 2591,
      "角": 2592,
      "解": 2593,
      "触": 2594,
      "言": 2595,
      "訃": 2596,
      "訊": 2597,
      "討": 2598,
      "訓": 2599,
      "記": 2600,
      "設": 2601,
      "許": 2602,
      "訳": 2603,
      "詠": 2604,
      "試": 2605,
      "詩": 2606,
      "詰": 2607,
      "話": 2608,
      "詳": 2609,
      "詹": 2610,
      "誓": 2611,
      "語": 2612,
      "說": 2613,
      "説": 2614,
      "読": 2615,
      "調": 2616,
      "談": 2617,
      "請": 2618,
      "論": 2619,
      "警": 2620,
      "譯": 2621,
      "護": 2622,
      "讃": 2623,
      "變": 2624,
      "计": 2625,
      "认": 2626,
      "讨": 2627,
      "让": 2628,
      "议": 2629,
      "讯": 2630,
      "许": 2631,
      "论": 2632,
      "讼": 2633,
      "设": 2634,
      "证": 2635,
      "评": 2636,
      "识": 2637,
      "诉": 2638,
      "译": 2639,
      "试": 2640,
      "该": 2641,
      "详": 2642,
      "语": 2643,
      "说": 2644,
      "请": 2645,
      "诺": 2646,
      "课": 2647,
      "调": 2648,
      "谈": 2649,
      "谋": 2650,
      "谢": 2651,
      "谷": 2652,
      "豆": 2653,
      "豊": 2654,
      "豐": 2655,
      "豫": 2656,
      "貌": 2657,
      "負": 2658,
      "財": 2659,
      "貢": 2660,
      "販": 2661,
      "貮": 2662,
      "貰": 2663,
      "貴": 2664,
      "貸": 2665,
      "費": 2666,
      "賀": 2667,
      "資": 2668,
      "賈": 2669,
      "賢": 2670,
      "贊": 2671,
      "贞": 2672,
      "负": 2673,
      "货": 2674,
      "质": 2675,
      "贫": 2676,
      "购": 2677,
      "贱": 2678,
      "贷": 2679,
      "贸": 2680,
      "资": 2681,
      "赌": 2682,
      "赖": 2683,
      "赛": 2684,
      "赞": 2685,
      "赤": 2686,
      "赵": 2687,
      "赶": 2688,
      "起": 2689,
      "超": 2690,
      "越": 2691,
      "趋": 2692,
      "足": 2693,
      "跆": 2694,
      "跋": 2695,
      "跟": 2696,
      "跨": 2697,
      "路": 2698,
      "蹟": 2699,
      "躇": 2700,
      "躊": 2701,
      "身": 2702,
      "車": 2703,
      "転": 2704,
      "較": 2705,
      "載": 2706,
      "輪": 2707,
      "车": 2708,
      "转": 2709,
      "轻": 2710,
      "载": 2711,
      "较": 2712,
      "辑": 2713,
      "辛": 2714,
      "辞": 2715,
      "辭": 2716,
      "辱": 2717,
      "農": 2718,
      "込": 2719,
      "达": 2720,
      "迅": 2721,
      "过": 2722,
      "迎": 2723,
      "运": 2724,
      "近": 2725,
      "返": 2726,
      "还": 2727,
      "这": 2728,
      "进": 2729,
      "远": 2730,
      "迫": 2731,
      "述": 2732,
      "追": 2733,
      "送": 2734,
      "适": 2735,
      "逃": 2736,
      "逆": 2737,
      "选": 2738,
      "透": 2739,
      "途": 2740,
      "通": 2741,
      "速": 2742,
      "造": 2743,
      "逢": 2744,
      "連": 2745,
      "逸": 2746,
      "遇": 2747,
      "遊": 2748,
      "運": 2749,
      "過": 2750,
      "道": 2751,
      "達": 2752,
      "遗": 2753,
      "遠": 2754,
      "適": 2755,
      "遷": 2756,
      "遽": 2757,
      "避": 2758,
      "還": 2759,
      "邊": 2760,
      "邑": 2761,
      "那": 2762,
      "邱": 2763,
      "郎": 2764,
      "郑": 2765,
      "郝": 2766,
      "郡": 2767,
      "部": 2768,
      "郷": 2769,
      "都": 2770,
      "鄂": 2771,
      "鄉": 2772,
      "鄭": 2773,
      "配": 2774,
      "酎": 2775,
      "酒": 2776,
      "酸": 2777,
      "采": 2778,
      "釉": 2779,
      "里": 2780,
      "重": 2781,
      "野": 2782,
      "量": 2783,
      "金": 2784,
      "釣": 2785,
      "鈍": 2786,
      "鈴": 2787,
      "鉄": 2788,
      "鉋": 2789,
      "銀": 2790,
      "銭": 2791,
      "録": 2792,
      "鍋": 2793,
      "鎚": 2794,
      "鏡": 2795,
      "鐵": 2796,
      "针": 2797,
      "钟": 2798,
      "钢": 2799,
      "钦": 2800,
      "钧": 2801,
      "钱": 2802,
      "铁": 2803,
      "铭": 2804,
      "银": 2805,
      "链": 2806,
      "销": 2807,
      "锈": 2808,
      "锋": 2809,
      "错": 2810,
      "锦": 2811,
      "键": 2812,
      "長": 2813,
      "长": 2814,
      "門": 2815,
      "開": 2816,
      "間": 2817,
      "関": 2818,
      "閥": 2819,
      "關": 2820,
      "门": 2821,
      "问": 2822,
      "间": 2823,
      "闻": 2824,
      "队": 2825,
      "阪": 2826,
      "防": 2827,
      "阳": 2828,
      "阶": 2829,
      "阻": 2830,
      "阿": 2831,
      "陀": 2832,
      "际": 2833,
      "陈": 2834,
      "降": 2835,
      "限": 2836,
      "院": 2837,
      "除": 2838,
      "险": 2839,
      "陰": 2840,
      "陳": 2841,
      "陵": 2842,
      "陶": 2843,
      "陽": 2844,
      "隆": 2845,
      "隊": 2846,
      "階": 2847,
      "際": 2848,
      "障": 2849,
      "难": 2850,
      "雄": 2851,
      "集": 2852,
      "雙": 2853,
      "雛": 2854,
      "離": 2855,
      "難": 2856,
      "雨": 2857,
      "雪": 2858,
      "雲": 2859,
      "雷": 2860,
      "電": 2861,
      "需": 2862,
      "霊": 2863,
      "霖": 2864,
      "霜": 2865,
      "露": 2866,
      "青": 2867,
      "静": 2868,
      "非": 2869,
      "靠": 2870,
      "面": 2871,
      "革": 2872,
      "靳": 2873,
      "韓": 2874,
      "音": 2875,
      "韻": 2876,
      "頂": 2877,
      "項": 2878,
      "順": 2879,
      "須": 2880,
      "頑": 2881,
      "領": 2882,
      "頭": 2883,
      "題": 2884,
      "顯": 2885,
      "页": 2886,
      "顷": 2887,
      "须": 2888,
      "顾": 2889,
      "预": 2890,
      "颐": 2891,
      "颖": 2892,
      "题": 2893,
      "颜": 2894,
      "额": 2895,
      "風": 2896,
      "风": 2897,
      "飛": 2898,
      "食": 2899,
      "飲": 2900,
      "飼": 2901,
      "館": 2902,
      "饮": 2903,
      "饲": 2904,
      "馆": 2905,
      "首": 2906,
      "香": 2907,
      "馬": 2908,
      "駄": 2909,
      "駅": 2910,
      "騙": 2911,
      "騜": 2912,
      "驗": 2913,
      "马": 2914,
      "验": 2915,
      "骨": 2916,
      "體": 2917,
      "高": 2918,
      "鬼": 2919,
      "鮨": 2920,
      "鮮": 2921,
      "鯨": 2922,
      "鱲": 2923,
      "鲁": 2924,
      "鳩": 2925,
      "鵜": 2926,
      "鷹": 2927,
      "鸡": 2928,
      "鸭": 2929,
      "鸯": 2930,
      "鸳": 2931,
      "鹅": 2932,
      "麗": 2933,
      "麩": 2934,
      "黃": 2935,
      "黄": 2936,
      "黎": 2937,
      "黒": 2938,
      "點": 2939,
      "黨": 2940,
      "鼻": 2941,
      "齋": 2942,
      "龍": 2943,
      "龙": 2944,
      "겜": 2945,
      "경": 2946,
      "계": 2947,
      "고": 2948,
      "곡": 2949,
      "구": 2950,
      "국": 2951,
      "권": 2952,
      "글": 2953,
      "김": 2954,
      "뀌": 2955,
      "나": 2956,
      "녀": 2957,
      "년": 2958,
      "노": 2959,
      "누": 2960,
      "는": 2961,
      "니": 2962,
      "닌": 2963,
      "다": 2964,
      "단": 2965,
      "대": 2966,
      "도": 2967,
      "동": 2968,
      "드": 2969,
      "디": 2970,
      "딘": 2971,
      "딩": 2972,
      "라": 2973,
      "레": 2974,
      "려": 2975,
      "령": 2976,
      "로": 2977,
      "루": 2978,
      "르": 2979,
      "린": 2980,
      "마": 2981,
      "막": 2982,
      "맨": 2983,
      "면": 2984,
      "목": 2985,
      "무": 2986,
      "문": 2987,
      "미": 2988,
      "바": 2989,
      "백": 2990,
      "뱅": 2991,
      "번": 2992,
      "벌": 2993,
      "베": 2994,
      "변": 2995,
      "보": 2996,
      "블": 2997,
      "비": 2998,
      "빅": 2999,
      "빌": 3000,
      "사": 3001,
      "산": 3002,
      "서": 3003,
      "선": 3004,
      "성": 3005,
      "세": 3006,
      "셀": 3007,
      "셔": 3008,
      "수": 3009,
      "스": 3010,
      "습": 3011,
      "승": 3012,
      "시": 3013,
      "신": 3014,
      "싱": 3015,
      "아": 3016,
      "알": 3017,
      "압": 3018,
      "야": 3019,
      "양": 3020,
      "어": 3021,
      "었": 3022,
      "에": 3023,
      "엠": 3024,
      "영": 3025,
      "오": 3026,
      "요": 3027,
      "울": 3028,
      "웅": 3029,
      "워": 3030,
      "월": 3031,
      "웨": 3032,
      "위": 3033,
      "유": 3034,
      "율": 3035,
      "으": 3036,
      "을": 3037,
      "읍": 3038,
      "이": 3039,
      "인": 3040,
      "일": 3041,
      "전": 3042,
      "정": 3043,
      "제": 3044,
      "조": 3045,
      "종": 3046,
      "주": 3047,
      "지": 3048,
      "천": 3049,
      "체": 3050,
      "충": 3051,
      "치": 3052,
      "클": 3053,
      "키": 3054,
      "태": 3055,
      "터": 3056,
      "턴": 3057,
      "퇴": 3058,
      "트": 3059,
      "티": 3060,
      "퍼": 3061,
      "피": 3062,
      "한": 3063,
      "호": 3064,
      "": 3065,
      "": 3066,
      "": 3067,
      "": 3068,
      "": 3069,
      "": 3070,
      "": 3071,
      "": 3072,
      "": 3073,
      "": 3074,
      "": 3075,
      "": 3076,
      "": 3077,
      "": 3078,
      "": 3079,
      "": 3080,
      "": 3081,
      "金": 3082,
      "ﬁ": 3083,
      "ﬂ": 3084,
      "︰": 3085,
      "ﺍ": 3086,
      "ﺏ": 3087,
      "ﺤ": 3088,
      "ﺩ": 3089,
      "ﻁ": 3090,
      "ﻙ": 3091,
      "ﻫ": 3092,
      "﻿": 3093,
      "！": 3094,
      "＄": 3095,
      "（": 3096,
      "）": 3097,
      "＊": 3098,
      "，": 3099,
      "－": 3100,
      "．": 3101,
      "１": 3102,
      "２": 3103,
      "７": 3104,
      "９": 3105,
      "：": 3106,
      "；": 3107,
      "？": 3108,
      "［": 3109,
      "］": 3110,
      "ｂ": 3111,
      "ｄ": 3112,
      "ｅ": 3113,
      "ｈ": 3114,
      "ｉ": 3115,
      "ｌ": 3116,
      "ｏ": 3117,
      "ｐ": 3118,
      "ｓ": 3119,
      "ｕ": 3120,
      "ｖ": 3121,
      "､": 3122,
      "･": 3123,
      "ｫ": 3124,
      "ｻ": 3125,
      "ｿ": 3126,
      "￠": 3127,
      "￥": 3128,
      "￼": 3129,
      "�": 3130,
      "th": 3131,
      "in": 3132,
      "the": 3133,
      "an": 3134,
      "re": 3135,
      "on": 3136,
      "at": 3137,
      "er": 3138,
      "en": 3139,
      "is": 3140,
      "or": 3141,
      "al": 3142,
      "es": 3143,
      "ou": 3144,
      "of": 3145,
      "to": 3146,
      "it": 3147,
      "and": 3148,
      "ion": 3149,
      "ar": 3150,
      "ed": 3151,
      "st": 3152,
      "ing": 3153,
      "ro": 3154,
      "ic": 3155,
      "as": 3156,
      "le": 3157,
      "ent": 3158,
      "om": 3159,
      "se": 3160,
      "il": 3161,
      "be": 3162,
      "ac": 3163,
      "ve": 3164,
      "for": 3165,
      "de": 3166,
      "ly": 3167,
      "we": 3168,
      "ation": 3169,
      "ch": 3170,
      "that": 3171,
      "com": 3172,
      "con": 3173,
      "wh": 3174,
      "pe": 3175,
      "am": 3176,
      "ct": 3177,
      "pro": 3178,
      "no": 3179,
      "un": 3180,
      "im": 3181,
      "su": 3182,
      "lo": 3183,
      "are": 3184,
      "te": 3185,
      "wi": 3186,
      "ad": 3187,
      "our": 3188,
      "ol": 3189,
      "res": 3190,
      "ver": 3191,
      "ce": 3192,
      "with": 3193,
      "ig": 3194,
      "ment": 3195,
      "ag": 3196,
      "tr": 3197,
      "ab": 3198,
      "ur": 3199,
      "us": 3200,
      "id": 3201,
      "ter": 3202,
      "ne": 3203,
      "ay": 3204,
      "this": 3205,
      "ut": 3206,
      "ir": 3207,
      "mo": 3208,
      "li": 3209,
      "po": 3210,
      "ul": 3211,
      "ill": 3212,
      "ha": 3213,
      "me": 3214,
      "ke": 3215,
      "ld": 3216,
      "so": 3217,
      "all": 3218,
      "ts": 3219,
      "por": 3220,
      "ate": 3221,
      "ex": 3222,
      "oun": 3223,
      "ies": 3224,
      "par": 3225,
      "ers": 3226,
      "ho": 3227,
      "ity": 3228,
      "if": 3229,
      "qu": 3230,
      "not": 3231,
      "ess": 3232,
      "eu": 3233,
      "by": 3234,
      "he": 3235,
      "ap": 3236,
      "ain": 3237,
      "you": 3238,
      "fe": 3239,
      "op": 3240,
      "ge": 3241,
      "have": 3242,
      "comm": 3243,
      "ive": 3244,
      "port": 3245,
      "ich": 3246,
      "pl": 3247,
      "est": 3248,
      "igh": 3249,
      "ther": 3250,
      "rom": 3251,
      "ould": 3252,
      "euro": 3253,
      "will": 3254,
      "wor": 3255,
      "ci": 3256,
      "which": 3257,
      "ant": 3258,
      "act": 3259,
      "from": 3260,
      "europe": 3261,
      "pr": 3262,
      "do": 3263,
      "man": 3264,
      "can": 3265,
      "ust": 3266,
      "co": 3267,
      "ma": 3268,
      "sh": 3269,
      "pres": 3270,
      "out": 3271,
      "iv": 3272,
      "has": 3273,
      "gr": 3274,
      "end": 3275,
      "one": 3276,
      "ions": 3277,
      "go": 3278,
      "ist": 3279,
      "per": 3280,
      "mb": 3281,
      "ard": 3282,
      "able": 3283,
      "coun": 3284,
      "ib": 3285,
      "cl": 3286,
      "ie": 3287,
      "pos": 3288,
      "sion": 3289,
      "00": 3290,
      "ren": 3291,
      "der": 3292,
      "ast": 3293,
      "em": 3294,
      "part": 3295,
      "du": 3296,
      "ure": 3297,
      "ll": 3298,
      "was": 3299,
      "european": 3300,
      "au": 3301,
      "ind": 3302,
      "there": 3303,
      "ally": 3304,
      "ta": 3305,
      "ple": 3306,
      "age": 3307,
      "its": 3308,
      "ated": 3309,
      "af": 3310,
      "also": 3311,
      "but": 3312,
      "ous": 3313,
      "very": 3314,
      "fo": 3315,
      "ans": 3316,
      "form": 3317,
      "cr": 3318,
      "king": 3319,
      "bo": 3320,
      "ser": 3321,
      "str": 3322,
      "ire": 3323,
      "ish": 3324,
      "your": 3325,
      "ree": 3326,
      "ach": 3327,
      "ight": 3328,
      "reg": 3329,
      "tim": 3330,
      "ations": 3331,
      "cess": 3332,
      "dis": 3333,
      "ice": 3334,
      "ission": 3335,
      "more": 3336,
      "up": 3337,
      "wn": 3338,
      "pol": 3339,
      "ine": 3340,
      "ction": 3341,
      "other": 3342,
      "cre": 3343,
      "ip": 3344,
      "ia": 3345,
      "od": 3346,
      "mar": 3347,
      "pre": 3348,
      "ical": 3349,
      "av": 3350,
      "inter": 3351,
      "commission": 3352,
      "mber": 3353,
      "gh": 3354,
      "mr": 3355,
      "ide": 3356,
      "cont": 3357,
      "ud": 3358,
      "ye": 3359,
      "new": 3360,
      "ary": 3361,
      "ome": 3362,
      "work": 3363,
      "would": 3364,
      "ments": 3365,
      "ance": 3366,
      "their": 3367,
      "ident": 3368,
      "iz": 3369,
      "ates": 3370,
      "gu": 3371,
      "ition": 3372,
      "spe": 3373,
      "now": 3374,
      "been": 3375,
      "ong": 3376,
      "any": 3377,
      "cial": 3378,
      "ough": 3379,
      "low": 3380,
      "cent": 3381,
      "fr": 3382,
      "ace": 3383,
      "they": 3384,
      "ame": 3385,
      "off": 3386,
      "ial": 3387,
      "ting": 3388,
      "should": 3389,
      "ev": 3390,
      "way": 3391,
      "bl": 3392,
      "ite": 3393,
      "sp": 3394,
      "um": 3395,
      "ted": 3396,
      "la": 3397,
      "who": 3398,
      "br": 3399,
      "ty": 3400,
      "ful": 3401,
      "fore": 3402,
      "prov": 3403,
      "ound": 3404,
      "ign": 3405,
      "je": 3406,
      "ack": 3407,
      "ass": 3408,
      "tel": 3409,
      "min": 3410,
      "ase": 3411,
      "day": 3412,
      "countr": 3413,
      "red": 3414,
      "ence": 3415,
      "like": 3416,
      "fin": 3417,
      "time": 3418,
      "ament": 3419,
      "comp": 3420,
      "ef": 3421,
      "ens": 3422,
      "produ": 3423,
      "sy": 3424,
      "must": 3425,
      "these": 3426,
      "some": 3427,
      "int": 3428,
      "reat": 3429,
      "only": 3430,
      "ational": 3431,
      "year": 3432,
      "than": 3433,
      "president": 3434,
      "200": 3435,
      "ities": 3436,
      "need": 3437,
      "el": 3438,
      "sup": 3439,
      "serv": 3440,
      "fir": 3441,
      "cer": 3442,
      "hotel": 3443,
      "cur": 3444,
      "des": 3445,
      "ult": 3446,
      "what": 3447,
      "about": 3448,
      "cor": 3449,
      "dr": 3450,
      "whe": 3451,
      "sib": 3452,
      "use": 3453,
      "ian": 3454,
      "sa": 3455,
      "my": 3456,
      "ject": 3457,
      "loc": 3458,
      "ks": 3459,
      "bet": 3460,
      "lop": 3461,
      "enc": 3462,
      "over": 3463,
      "air": 3464,
      "deve": 3465,
      "ise": 3466,
      "when": 3467,
      "tw": 3468,
      "national": 3469,
      "develop": 3470,
      "most": 3471,
      "parli": 3472,
      "parliament": 3473,
      "ious": 3474,
      "art": 3475,
      "trans": 3476,
      "ob": 3477,
      "many": 3478,
      "rent": 3479,
      "how": 3480,
      "ail": 3481,
      "union": 3482,
      "cus": 3483,
      "member": 3484,
      "peop": 3485,
      "ution": 3486,
      "ener": 3487,
      "tain": 3488,
      "leg": 3489,
      "room": 3490,
      "ility": 3491,
      "import": 3492,
      "get": 3493,
      "under": 3494,
      "states": 3495,
      "pt": 3496,
      "rest": 3497,
      "vie": 3498,
      "vo": 3499,
      "just": 3500,
      "ms": 3501,
      "people": 3502,
      "gy": 3503,
      "mon": 3504,
      "well": 3505,
      "sub": 3506,
      "19": 3507,
      "first": 3508,
      "fun": 3509,
      "stem": 3510,
      "ific": 3511,
      "pu": 3512,
      "mat": 3513,
      "chan": 3514,
      "add": 3515,
      "ors": 3516,
      "thing": 3517,
      "ause": 3518,
      "system": 3519,
      "come": 3520,
      "dif": 3521,
      "into": 3522,
      "cle": 3523,
      "them": 3524,
      "report": 3525,
      "such": 3526,
      "high": 3527,
      "ular": 3528,
      "ating": 3529,
      "ced": 3530,
      "col": 3531,
      "ue": 3532,
      "ures": 3533,
      "sel": 3534,
      "ile": 3535,
      "ak": 3536,
      "bec": 3537,
      "med": 3538,
      "fect": 3539,
      "view": 3540,
      "world": 3541,
      "sol": 3542,
      "ger": 3543,
      "ose": 3544,
      "dire": 3545,
      "his": 3546,
      "inform": 3547,
      "were": 3548,
      "inst": 3549,
      "cil": 3550,
      "vis": 3551,
      "rel": 3552,
      "econ": 3553,
      "econom": 3554,
      "lect": 3555,
      "ces": 3556,
      "main": 3557,
      "polic": 3558,
      "ices": 3559,
      "incl": 3560,
      "inte": 3561,
      "requ": 3562,
      "countries": 3563,
      "oper": 3564,
      "cond": 3565,
      "bas": 3566,
      "ative": 3567,
      "present": 3568,
      "publ": 3569,
      "support": 3570,
      "inv": 3571,
      "partic": 3572,
      "where": 3573,
      "ble": 3574,
      "bu": 3575,
      "read": 3576,
      "land": 3577,
      "ps": 3578,
      "council": 3579,
      "nu": 3580,
      "sit": 3581,
      "ber": 3582,
      "marke": 3583,
      "stand": 3584,
      "stru": 3585,
      "pect": 3586,
      "ild": 3587,
      "again": 3588,
      "lin": 3589,
      "ning": 3590,
      "fact": 3591,
      "make": 3592,
      "car": 3593,
      "here": 3594,
      "take": 3595,
      "ory": 3596,
      "important": 3597,
      "because": 3598,
      "direct": 3599,
      "ied": 3600,
      "xt": 3601,
      "ph": 3602,
      "ween": 3603,
      "fic": 3604,
      "between": 3605,
      "ok": 3606,
      "tra": 3607,
      "may": 3608,
      "possib": 3609,
      "after": 3610,
      "jo": 3611,
      "see": 3612,
      "lar": 3613,
      "propos": 3614,
      "cour": 3615,
      "cons": 3616,
      "set": 3617,
      "every": 3618,
      "grou": 3619,
      "thr": 3620,
      "vel": 3621,
      "ights": 3622,
      "even": 3623,
      "hu": 3624,
      "ra": 3625,
      "commun": 3626,
      "ten": 3627,
      "pon": 3628,
      "als": 3629,
      "commit": 3630,
      "et": 3631,
      "great": 3632,
      "information": 3633,
      "fl": 3634,
      "ality": 3635,
      "two": 3636,
      "old": 3637,
      "agree": 3638,
      "ress": 3639,
      "pers": 3640,
      "made": 3641,
      "io": 3642,
      "product": 3643,
      "good": 3644,
      "ural": 3645,
      "public": 3646,
      "order": 3647,
      "then": 3648,
      "long": 3649,
      "sul": 3650,
      "through": 3651,
      "sur": 3652,
      "those": 3653,
      "tur": 3654,
      "policy": 3655,
      "play": 3656,
      "ards": 3657,
      "bus": 3658,
      "val": 3659,
      "arch": 3660,
      "right": 3661,
      "polit": 3662,
      "sure": 3663,
      "gram": 3664,
      "years": 3665,
      "issu": 3666,
      "being": 3667,
      "bal": 3668,
      "20": 3669,
      "dec": 3670,
      "had": 3671,
      "tech": 3672,
      "hel": 3673,
      "ict": 3674,
      "eng": 3675,
      "row": 3676,
      "ages": 3677,
      "net": 3678,
      "respon": 3679,
      "ents": 3680,
      "ep": 3681,
      "clear": 3682,
      "ustr": 3683,
      "ual": 3684,
      "own": 3685,
      "plo": 3686,
      "place": 3687,
      "howe": 3688,
      "ck": 3689,
      "abl": 3690,
      "however": 3691,
      "peri": 3692,
      "program": 3693,
      "less": 3694,
      "gan": 3695,
      "sum": 3696,
      "proble": 3697,
      "gover": 3698,
      "ited": 3699,
      "know": 3700,
      "sch": 3701,
      "tee": 3702,
      "fur": 3703,
      "att": 3704,
      "ater": 3705,
      "cept": 3706,
      "includ": 3707,
      "economic": 3708,
      "fund": 3709,
      "process": 3710,
      "char": 3711,
      "particular": 3712,
      "used": 3713,
      "quest": 3714,
      "tom": 3715,
      "alth": 3716,
      "ran": 3717,
      "wer": 3718,
      "10": 3719,
      "state": 3720,
      "vir": 3721,
      "call": 3722,
      "govern": 3723,
      "ital": 3724,
      "fer": 3725,
      "ives": 3726,
      "want": 3727,
      "concer": 3728,
      "gener": 3729,
      "vers": 3730,
      "find": 3731,
      "deb": 3732,
      "market": 3733,
      "sim": 3734,
      "international": 3735,
      "rights": 3736,
      "development": 3737,
      "therefore": 3738,
      "possible": 3739,
      "uring": 3740,
      "say": 3741,
      "area": 3742,
      "ving": 3743,
      "person": 3744,
      "free": 3745,
      "group": 3746,
      "clo": 3747,
      "diffe": 3748,
      "ban": 3749,
      "aw": 3750,
      "mu": 3751,
      "cap": 3752,
      "men": 3753,
      "prote": 3754,
      "ves": 3755,
      "situ": 3756,
      "sin": 3757,
      "vent": 3758,
      "comple": 3759,
      "log": 3760,
      "social": 3761,
      "contr": 3762,
      "her": 3763,
      "put": 3764,
      "human": 3765,
      "fol": 3766,
      "ss": 3767,
      "incre": 3768,
      "ick": 3769,
      "bar": 3770,
      "line": 3771,
      "access": 3772,
      "equ": 3773,
      "ters": 3774,
      "provid": 3775,
      "contin": 3776,
      "ca": 3777,
      "tion": 3778,
      "pet": 3779,
      "del": 3780,
      "ric": 3781,
      "self": 3782,
      "point": 3783,
      "ism": 3784,
      "ved": 3785,
      "within": 3786,
      "sm": 3787,
      "far": 3788,
      "both": 3789,
      "does": 3790,
      "tal": 3791,
      "political": 3792,
      "ency": 3793,
      "same": 3794,
      "dat": 3795,
      "country": 3796,
      "ouse": 3797,
      "effect": 3798,
      "nor": 3799,
      "cu": 3800,
      "plic": 3801,
      "could": 3802,
      "open": 3803,
      "beli": 3804,
      "last": 3805,
      "interest": 3806,
      "appro": 3807,
      "ings": 3808,
      "level": 3809,
      "fort": 3810,
      "organ": 3811,
      "finan": 3812,
      "sho": 3813,
      "ply": 3814,
      "real": 3815,
      "ext": 3816,
      "exam": 3817,
      "fam": 3818,
      "war": 3819,
      "iness": 3820,
      "ily": 3821,
      "ready": 3822,
      "resul": 3823,
      "avail": 3824,
      "help": 3825,
      "against": 3826,
      "press": 3827,
      "services": 3828,
      "ink": 3829,
      "var": 3830,
      "mbers": 3831,
      "today": 3832,
      "much": 3833,
      "ner": 3834,
      "since": 3835,
      "di": 3836,
      "ort": 3837,
      "tak": 3838,
      "ability": 3839,
      "down": 3840,
      "back": 3841,
      "key": 3842,
      "without": 3843,
      "nat": 3844,
      "cord": 3845,
      "lead": 3846,
      "fac": 3847,
      "ath": 3848,
      "sign": 3849,
      "service": 3850,
      "led": 3851,
      "ason": 3852,
      "bre": 3853,
      "house": 3854,
      "large": 3855,
      "business": 3856,
      "sk": 3857,
      "allow": 3858,
      "itions": 3859,
      "utions": 3860,
      "treat": 3861,
      "envir": 3862,
      "spec": 3863,
      "environ": 3864,
      "plan": 3865,
      "iven": 3866,
      "hand": 3867,
      "meas": 3868,
      "different": 3869,
      "mit": 3870,
      "che": 3871,
      "pp": 3872,
      "site": 3873,
      "demo": 3874,
      "web": 3875,
      "let": 3876,
      "follow": 3877,
      "rooms": 3878,
      "number": 3879,
      "committee": 3880,
      "cit": 3881,
      "word": 3882,
      "amend": 3883,
      "before": 3884,
      "star": 3885,
      "ised": 3886,
      "sing": 3887,
      "environment": 3888,
      "during": 3889,
      "search": 3890,
      "eve": 3891,
      "still": 3892,
      "bud": 3893,
      "sto": 3894,
      "special": 3895,
      "city": 3896,
      "soci": 3897,
      "que": 3898,
      "change": 3899,
      "too": 3900,
      "pri": 3901,
      "rap": 3902,
      "design": 3903,
      "current": 3904,
      "industr": 3905,
      "fut": 3906,
      "available": 3907,
      "certain": 3908,
      "law": 3909,
      "emplo": 3910,
      "contro": 3911,
      "project": 3912,
      "les": 3913,
      "cy": 3914,
      "struct": 3915,
      "ient": 3916,
      "require": 3917,
      "members": 3918,
      "ics": 3919,
      "vi": 3920,
      "cho": 3921,
      "ven": 3922,
      "ists": 3923,
      "small": 3924,
      "ways": 3925,
      "ask": 3926,
      "course": 3927,
      "ute": 3928,
      "offer": 3929,
      "show": 3930,
      "wel": 3931,
      "data": 3932,
      "quality": 3933,
      "ord": 3934,
      "future": 3935,
      "further": 3936,
      "aff": 3937,
      "already": 3938,
      "democr": 3939,
      "cas": 3940,
      "thor": 3941,
      "second": 3942,
      "believe": 3943,
      "decis": 3944,
      "operation": 3945,
      "products": 3946,
      "uni": 3947,
      "oc": 3948,
      "custom": 3949,
      "question": 3950,
      "ional": 3951,
      "compet": 3952,
      "pend": 3953,
      "pur": 3954,
      "sw": 3955,
      "ulation": 3956,
      "prof": 3957,
      "concern": 3958,
      "position": 3959,
      "regard": 3960,
      "ness": 3961,
      "prin": 3962,
      "instit": 3963,
      "case": 3964,
      "text": 3965,
      "action": 3966,
      "secur": 3967,
      "cost": 3968,
      "best": 3969,
      "wr": 3970,
      "government": 3971,
      "think": 3972,
      "aim": 3973,
      "each": 3974,
      "cal": 3975,
      "eas": 3976,
      "minis": 3977,
      "inde": 3978,
      "financial": 3979,
      "suc": 3980,
      "plement": 3981,
      "while": 3982,
      "ix": 3983,
      "ti": 3984,
      "ically": 3985,
      "responsib": 3986,
      "ports": 3987,
      "cannot": 3988,
      "terr": 3989,
      "maj": 3990,
      "pare": 3991,
      "citiz": 3992,
      "agreement": 3993,
      "elect": 3994,
      "pay": 3995,
      "list": 3996,
      "sof": 3997,
      "found": 3998,
      "safe": 3999,
      "amer": 4000,
      "tern": 4001,
      "community": 4002,
      "fil": 4003,
      "road": 4004,
      "ry": 4005,
      "feren": 4006,
      "child": 4007,
      "turn": 4008,
      "power": 4009,
      "cult": 4010,
      "offers": 4011,
      "ately": 4012,
      "commissioner": 4013,
      "ship": 4014,
      "ished": 4015,
      "hal": 4016,
      "dem": 4017,
      "respect": 4018,
      "reason": 4019,
      "techno": 4020,
      "fully": 4021,
      "security": 4022,
      "ider": 4023,
      "az": 4024,
      "applic": 4025,
      "necess": 4026,
      "tem": 4027,
      "199": 4028,
      "ste": 4029,
      "centr": 4030,
      "major": 4031,
      "hist": 4032,
      "author": 4033,
      "experi": 4034,
      "issue": 4035,
      "gen": 4036,
      "lim": 4037,
      "ges": 4038,
      "pli": 4039,
      "ear": 4040,
      "sect": 4041,
      "tour": 4042,
      "ina": 4043,
      "priv": 4044,
      "common": 4045,
      "company": 4046,
      "based": 4047,
      "ben": 4048,
      "energy": 4049,
      "legal": 4050,
      "said": 4051,
      "achie": 4052,
      "life": 4053,
      "debate": 4054,
      "proposal": 4055,
      "resol": 4056,
      "means": 4057,
      "build": 4058,
      "example": 4059,
      "implement": 4060,
      "cell": 4061,
      "ible": 4062,
      "invest": 4063,
      "activ": 4064,
      "including": 4065,
      "strate": 4066,
      "mer": 4067,
      "why": 4068,
      "represent": 4069,
      "lan": 4070,
      "ru": 4071,
      "pass": 4072,
      "isl": 4073,
      "situation": 4074,
      "glo": 4075,
      "health": 4076,
      "grow": 4077,
      "three": 4078,
      "win": 4079,
      "located": 4080,
      "gent": 4081,
      "ot": 4082,
      "adv": 4083,
      "next": 4084,
      "stud": 4085,
      "object": 4086,
      "ri": 4087,
      "isation": 4088,
      "taken": 4089,
      "ivid": 4090,
      "adop": 4091,
      "light": 4092,
      "count": 4093,
      "ird": 4094,
      "und": 4095,
      "ized": 4096,
      "ude": 4097,
      "addition": 4098,
      "stay": 4099,
      "consider": 4100,
      "employ": 4101,
      "dy": 4102,
      "hol": 4103,
      "ants": 4104,
      "trade": 4105,
      "acy": 4106,
      "specific": 4107,
      "using": 4108,
      "citizens": 4109,
      "aut": 4110,
      "success": 4111,
      "measures": 4112,
      "give": 4113,
      "bur": 4114,
      "redu": 4115,
      "ilities": 4116,
      "illion": 4117,
      "given": 4118,
      "areas": 4119,
      "ref": 4120,
      "trad": 4121,
      "control": 4122,
      "establ": 4123,
      "she": 4124,
      "15": 4125,
      "rece": 4126,
      "os": 4127,
      "aid": 4128,
      "ins": 4129,
      "lu": 4130,
      "tle": 4131,
      "discus": 4132,
      "ys": 4133,
      "few": 4134,
      "logy": 4135,
      "den": 4136,
      "budget": 4137,
      "omen": 4138,
      "train": 4139,
      "ris": 4140,
      "necessary": 4141,
      "atic": 4142,
      "protection": 4143,
      "provide": 4144,
      "ues": 4145,
      "ize": 4146,
      "ield": 4147,
      "lad": 4148,
      "init": 4149,
      "manage": 4150,
      "fast": 4151,
      "ensure": 4152,
      "half": 4153,
      "cooperation": 4154,
      "problem": 4155,
      "increas": 4156,
      "ium": 4157,
      "har": 4158,
      "itive": 4159,
      "centre": 4160,
      "reed": 4161,
      "iter": 4162,
      "ward": 4163,
      "const": 4164,
      "sal": 4165,
      "tail": 4166,
      "care": 4167,
      "accord": 4168,
      "portun": 4169,
      "name": 4170,
      "mus": 4171,
      "sou": 4172,
      "opportun": 4173,
      "pract": 4174,
      "research": 4175,
      "pat": 4176,
      "general": 4177,
      "enter": 4178,
      "hope": 4179,
      "mis": 4180,
      "gest": 4181,
      "ually": 4182,
      "mone": 4183,
      "ft": 4184,
      "12": 4185,
      "problems": 4186,
      "princi": 4187,
      "unt": 4188,
      "pop": 4189,
      "ination": 4190,
      "shall": 4191,
      "enjo": 4192,
      "poin": 4193,
      "another": 4194,
      "close": 4195,
      "ross": 4196,
      "moder": 4197,
      "united": 4198,
      "conne": 4199,
      "full": 4200,
      "oking": 4201,
      "complete": 4202,
      "wish": 4203,
      "vote": 4204,
      "global": 4205,
      "top": 4206,
      "ential": 4207,
      "did": 4208,
      "water": 4209,
      "rul": 4210,
      "non": 4211,
      "iting": 4212,
      "third": 4213,
      "working": 4214,
      "compan": 4215,
      "whether": 4216,
      "30": 4217,
      "comb": 4218,
      "please": 4219,
      "ped": 4220,
      "look": 4221,
      "reach": 4222,
      "invol": 4223,
      "consum": 4224,
      "production": 4225,
      "ged": 4226,
      "legisl": 4227,
      "toge": 4228,
      "directive": 4229,
      "together": 4230,
      "fri": 4231,
      "move": 4232,
      "fish": 4233,
      "always": 4234,
      "head": 4235,
      "individ": 4236,
      "pal": 4237,
      "transport": 4238,
      "reco": 4239,
      "integr": 4240,
      "happ": 4241,
      "range": 4242,
      "mal": 4243,
      "bed": 4244,
      "terms": 4245,
      "ier": 4246,
      "ines": 4247,
      "cially": 4248,
      "deal": 4249,
      "times": 4250,
      "needs": 4251,
      "run": 4252,
      "18": 4253,
      "bon": 4254,
      "friend": 4255,
      "fa": 4256,
      "enjoy": 4257,
      "uss": 4258,
      "ests": 4259,
      "recent": 4260,
      "ime": 4261,
      "systems": 4262,
      "field": 4263,
      "better": 4264,
      "wee": 4265,
      "appe": 4266,
      "subject": 4267,
      "home": 4268,
      "aur": 4269,
      "remain": 4270,
      "mad": 4271,
      "fav": 4272,
      "ners": 4273,
      "met": 4274,
      "children": 4275,
      "utes": 4276,
      "gress": 4277,
      "wide": 4278,
      "dom": 4279,
      "try": 4280,
      "making": 4281,
      "cing": 4282,
      "mil": 4283,
      "ought": 4284,
      "americ": 4285,
      "wal": 4286,
      "around": 4287,
      "thank": 4288,
      "don": 4289,
      "000": 4290,
      "modern": 4291,
      "kes": 4292,
      "50": 4293,
      "women": 4294,
      "account": 4295,
      "sen": 4296,
      "ference": 4297,
      "ton": 4298,
      "conditions": 4299,
      "town": 4300,
      "proper": 4301,
      "ified": 4302,
      "amp": 4303,
      "hold": 4304,
      "short": 4305,
      "gin": 4306,
      "central": 4307,
      "him": 4308,
      "page": 4309,
      "proced": 4310,
      "porte": 4311,
      "mor": 4312,
      "prove": 4313,
      "particularly": 4314,
      "pack": 4315,
      "internet": 4316,
      "wards": 4317,
      "mrs": 4318,
      "aran": 4319,
      "tax": 4320,
      "mod": 4321,
      "restaur": 4322,
      "ele": 4323,
      "industry": 4324,
      "become": 4325,
      "management": 4326,
      "ources": 4327,
      "local": 4328,
      "vol": 4329,
      "once": 4330,
      "visit": 4331,
      "going": 4332,
      "promo": 4333,
      "cut": 4334,
      "conf": 4335,
      "rele": 4336,
      "term": 4337,
      "mee": 4338,
      "porteur": 4339,
      "rapporteur": 4340,
      "exist": 4341,
      "techn": 4342,
      "role": 4343,
      "break": 4344,
      "distr": 4345,
      "grap": 4346,
      "diffic": 4347,
      "apart": 4348,
      "contain": 4349,
      "result": 4350,
      "initi": 4351,
      "issues": 4352,
      "views": 4353,
      "accept": 4354,
      "dist": 4355,
      "uc": 4356,
      "experience": 4357,
      "ave": 4358,
      "decision": 4359,
      "ention": 4360,
      "programme": 4361,
      "ming": 4362,
      "food": 4363,
      "nov": 4364,
      "load": 4365,
      "contrib": 4366,
      "near": 4367,
      "rules": 4368,
      "address": 4369,
      "ko": 4370,
      "clus": 4371,
      "espe": 4372,
      "among": 4373,
      "plac": 4374,
      "vious": 4375,
      "whole": 4376,
      "equip": 4377,
      "lit": 4378,
      "companies": 4379,
      "orig": 4380,
      "nown": 4381,
      "na": 4382,
      "frame": 4383,
      "various": 4384,
      "share": 4385,
      "german": 4386,
      "cris": 4387,
      "tar": 4388,
      "sector": 4389,
      "round": 4390,
      "gre": 4391,
      "sever": 4392,
      "tware": 4393,
      "pho": 4394,
      "ury": 4395,
      "class": 4396,
      "guaran": 4397,
      "communic": 4398,
      "especially": 4399,
      "feat": 4400,
      "software": 4401,
      "active": 4402,
      "ator": 4403,
      "ensive": 4404,
      "coming": 4405,
      "mail": 4406,
      "benef": 4407,
      "gn": 4408,
      "beaut": 4409,
      "post": 4410,
      "region": 4411,
      "ising": 4412,
      "month": 4413,
      "employment": 4414,
      "following": 4415,
      "docu": 4416,
      "ended": 4417,
      "ground": 4418,
      "effective": 4419,
      "location": 4420,
      "selves": 4421,
      "hard": 4422,
      "basis": 4423,
      "called": 4424,
      "welcome": 4425,
      "lab": 4426,
      "nal": 4427,
      "mater": 4428,
      "personal": 4429,
      "comes": 4430,
      "ade": 4431,
      "taking": 4432,
      "create": 4433,
      "nego": 4434,
      "single": 4435,
      "matter": 4436,
      "dou": 4437,
      "several": 4438,
      "side": 4439,
      "hip": 4440,
      "prior": 4441,
      "langu": 4442,
      "negoti": 4443,
      "origin": 4444,
      "itor": 4445,
      "11": 4446,
      "treaty": 4447,
      "meeting": 4448,
      "graph": 4449,
      "strong": 4450,
      "demand": 4451,
      "done": 4452,
      "east": 4453,
      "lat": 4454,
      "yet": 4455,
      "express": 4456,
      "ably": 4457,
      "test": 4458,
      "private": 4459,
      "family": 4460,
      "paren": 4461,
      "peace": 4462,
      "excell": 4463,
      "pose": 4464,
      "network": 4465,
      "period": 4466,
      "dam": 4467,
      "really": 4468,
      "job": 4469,
      "ze": 4470,
      "improve": 4471,
      "pot": 4472,
      "protect": 4473,
      "difficult": 4474,
      "face": 4475,
      "start": 4476,
      "gentle": 4477,
      "never": 4478,
      "resolution": 4479,
      "force": 4480,
      "due": 4481,
      "russ": 4482,
      "big": 4483,
      "technology": 4484,
      "colle": 4485,
      "ences": 4486,
      "vil": 4487,
      "material": 4488,
      "favour": 4489,
      "reform": 4490,
      "approach": 4491,
      "dan": 4492,
      "live": 4493,
      "intro": 4494,
      "ster": 4495,
      "million": 4496,
      "ization": 4497,
      "something": 4498,
      "kind": 4499,
      "profess": 4500,
      "sea": 4501,
      "mult": 4502,
      "sed": 4503,
      "days": 4504,
      "feel": 4505,
      "stat": 4506,
      "sequ": 4507,
      "ling": 4508,
      "understand": 4509,
      "introdu": 4510,
      "iving": 4511,
      "ron": 4512,
      "office": 4513,
      "abo": 4514,
      "continue": 4515,
      "def": 4516,
      "photo": 4517,
      "iday": 4518,
      "comfort": 4519,
      "ficient": 4520,
      "ung": 4521,
      "install": 4522,
      "host": 4523,
      "itself": 4524,
      "often": 4525,
      "four": 4526,
      "known": 4527,
      "sc": 4528,
      "ladies": 4529,
      "suf": 4530,
      "detail": 4531,
      "germany": 4532,
      "prevent": 4533,
      "forward": 4534,
      "safety": 4535,
      "mark": 4536,
      "progress": 4537,
      "until": 4538,
      "vill": 4539,
      "according": 4540,
      "framework": 4541,
      "thus": 4542,
      "partners": 4543,
      "particip": 4544,
      "gentlemen": 4545,
      "growth": 4546,
      "tic": 4547,
      "mention": 4548,
      "crisis": 4549,
      "opin": 4550,
      "amendments": 4551,
      "serious": 4552,
      "ours": 4553,
      "having": 4554,
      "staff": 4555,
      "away": 4556,
      "excellent": 4557,
      "flo": 4558,
      "mind": 4559,
      "ify": 4560,
      "price": 4561,
      "beach": 4562,
      "constit": 4563,
      "exp": 4564,
      "ither": 4565,
      "nam": 4566,
      "educ": 4567,
      "least": 4568,
      "lines": 4569,
      "ug": 4570,
      "expect": 4571,
      "pleas": 4572,
      "artic": 4573,
      "fle": 4574,
      "function": 4575,
      "agric": 4576,
      "minutes": 4577,
      "ging": 4578,
      "fron": 4579,
      "money": 4580,
      "agricult": 4581,
      "individual": 4582,
      "towards": 4583,
      "recogn": 4584,
      "bi": 4585,
      "bel": 4586,
      "things": 4587,
      "rather": 4588,
      "mean": 4589,
      "institutions": 4590,
      "little": 4591,
      "ash": 4592,
      "aud": 4593,
      "book": 4594,
      "customers": 4595,
      "defin": 4596,
      "party": 4597,
      "date": 4598,
      "cast": 4599,
      "sci": 4600,
      "presid": 4601,
      "ances": 4602,
      "reser": 4603,
      "auto": 4604,
      "extre": 4605,
      "ats": 4606,
      "mid": 4607,
      "tradition": 4608,
      "moun": 4609,
      "regulation": 4610,
      "16": 4611,
      "ians": 4612,
      "although": 4613,
      "stain": 4614,
      "ba": 4615,
      "establish": 4616,
      "begin": 4617,
      "keep": 4618,
      "left": 4619,
      "ago": 4620,
      "bring": 4621,
      "crim": 4622,
      "aged": 4623,
      "madam": 4624,
      "strategy": 4625,
      "tre": 4626,
      "mot": 4627,
      "ann": 4628,
      "version": 4629,
      "14": 4630,
      "building": 4631,
      "airs": 4632,
      "cli": 4633,
      "imate": 4634,
      "increase": 4635,
      "tool": 4636,
      "regul": 4637,
      "quite": 4638,
      "2009": 4639,
      "ub": 4640,
      "lands": 4641,
      "along": 4642,
      "activities": 4643,
      "contact": 4644,
      "body": 4645,
      "ons": 4646,
      "mob": 4647,
      "content": 4648,
      "instru": 4649,
      "resources": 4650,
      "past": 4651,
      "opportunity": 4652,
      "board": 4653,
      "sions": 4654,
      "achieve": 4655,
      "sat": 4656,
      "user": 4657,
      "freed": 4658,
      "team": 4659,
      "above": 4660,
      "istic": 4661,
      "ification": 4662,
      "check": 4663,
      "phas": 4664,
      "histor": 4665,
      "signific": 4666,
      "anim": 4667,
      "presidency": 4668,
      "foreign": 4669,
      "actions": 4670,
      "ived": 4671,
      "provided": 4672,
      "event": 4673,
      "focus": 4674,
      "might": 4675,
      "17": 4676,
      "cover": 4677,
      "value": 4678,
      "iful": 4679,
      "bit": 4680,
      "finally": 4681,
      "cred": 4682,
      "13": 4683,
      "seem": 4684,
      "freedom": 4685,
      "ples": 4686,
      "behalf": 4687,
      "easy": 4688,
      "sug": 4689,
      "mic": 4690,
      "request": 4691,
      "gl": 4692,
      "gue": 4693,
      "solution": 4694,
      "arr": 4695,
      "week": 4696,
      "website": 4697,
      "bor": 4698,
      "san": 4699,
      "viol": 4700,
      "rad": 4701,
      "liber": 4702,
      "points": 4703,
      "ety": 4704,
      "ik": 4705,
      "economy": 4706,
      "include": 4707,
      "anal": 4708,
      "holiday": 4709,
      "card": 4710,
      "crip": 4711,
      "fundament": 4712,
      "stren": 4713,
      "proposals": 4714,
      "others": 4715,
      "society": 4716,
      "sty": 4717,
      "music": 4718,
      "aft": 4719,
      "ever": 4720,
      "tele": 4721,
      "south": 4722,
      "night": 4723,
      "pen": 4724,
      "gree": 4725,
      "draw": 4726,
      "ctions": 4727,
      "recomm": 4728,
      "chall": 4729,
      "model": 4730,
      "fail": 4731,
      "adminis": 4732,
      "step": 4733,
      "beautiful": 4734,
      "offic": 4735,
      "appropri": 4736,
      "ret": 4737,
      "application": 4738,
      "mach": 4739,
      "innov": 4740,
      "streng": 4741,
      "mes": 4742,
      "logical": 4743,
      "manu": 4744,
      "costs": 4745,
      "associ": 4746,
      "extreme": 4747,
      "ches": 4748,
      "relation": 4749,
      "youn": 4750,
      "simply": 4751,
      "station": 4752,
      "cop": 4753,
      "words": 4754,
      "idence": 4755,
      "mag": 4756,
      "rich": 4757,
      "adopted": 4758,
      "china": 4759,
      "lear": 4760,
      "crit": 4761,
      "amendment": 4762,
      "bank": 4763,
      "medi": 4764,
      "charac": 4765,
      "ending": 4766,
      "attr": 4767,
      "natural": 4768,
      "park": 4769,
      "typ": 4770,
      "24": 4771,
      "wa": 4772,
      "sid": 4773,
      "atives": 4774,
      "mig": 4775,
      "ival": 4776,
      "ones": 4777,
      "lot": 4778,
      "opinion": 4779,
      "projects": 4780,
      "fair": 4781,
      "groups": 4782,
      "entire": 4783,
      "breakfast": 4784,
      "makes": 4785,
      "legislation": 4786,
      "25": 4787,
      "environmental": 4788,
      "table": 4789,
      "ises": 4790,
      "via": 4791,
      "questions": 4792,
      "continu": 4793,
      "training": 4794,
      "won": 4795,
      "responsibility": 4796,
      "speak": 4797,
      "results": 4798,
      "wo": 4799,
      "solid": 4800,
      "univers": 4801,
      "perfect": 4802,
      "attention": 4803,
      "cir": 4804,
      "dow": 4805,
      "guests": 4806,
      "civil": 4807,
      "online": 4808,
      "ars": 4809,
      "prom": 4810,
      "internal": 4811,
      "policies": 4812,
      "cultural": 4813,
      "standard": 4814,
      "amoun": 4815,
      "imp": 4816,
      "exper": 4817,
      "regis": 4818,
      "xim": 4819,
      "meth": 4820,
      "restaurant": 4821,
      "sun": 4822,
      "clearly": 4823,
      "provides": 4824,
      "technical": 4825,
      "indeed": 4826,
      "super": 4827,
      "ju": 4828,
      "greater": 4829,
      "concerned": 4830,
      "accom": 4831,
      "capital": 4832,
      "rela": 4833,
      "cate": 4834,
      "eur": 4835,
      "outs": 4836,
      "cat": 4837,
      "administr": 4838,
      "heart": 4839,
      "fundamental": 4840,
      "ledge": 4841,
      "court": 4842,
      "increasing": 4843,
      "return": 4844,
      "importance": 4845,
      "quick": 4846,
      "proved": 4847,
      "distrib": 4848,
      "facilities": 4849,
      "bath": 4850,
      "context": 4851,
      "nel": 4852,
      "standards": 4853,
      "assist": 4854,
      "select": 4855,
      "depend": 4856,
      "looking": 4857,
      "funds": 4858,
      "sco": 4859,
      "vision": 4860,
      "century": 4861,
      "later": 4862,
      "manufact": 4863,
      "ler": 4864,
      "une": 4865,
      "space": 4866,
      "pan": 4867,
      "history": 4868,
      "currently": 4869,
      "termin": 4870,
      "voted": 4871,
      "significant": 4872,
      "ories": 4873,
      "scho": 4874,
      "link": 4875,
      "independ": 4876,
      "sustain": 4877,
      "risk": 4878,
      "infl": 4879,
      "pool": 4880,
      "regional": 4881,
      "ceed": 4882,
      "nature": 4883,
      "procedure": 4884,
      "ec": 4885,
      "changes": 4886,
      "plain": 4887,
      "principle": 4888,
      "posed": 4889,
      "though": 4890,
      "ently": 4891,
      "dial": 4892,
      "responsible": 4893,
      "uk": 4894,
      "ds": 4895,
      "convent": 4896,
      "solutions": 4897,
      "spect": 4898,
      "hy": 4899,
      "rect": 4900,
      "ared": 4901,
      "guest": 4902,
      "school": 4903,
      "young": 4904,
      "forts": 4905,
      "aware": 4906,
      "window": 4907,
      "uses": 4908,
      "mitted": 4909,
      "essential": 4910,
      "education": 4911,
      "tru": 4912,
      "situated": 4913,
      "required": 4914,
      "authorities": 4915,
      "democratic": 4916,
      "uary": 4917,
      "lling": 4918,
      "2010": 4919,
      "relax": 4920,
      "record": 4921,
      "decl": 4922,
      "pages": 4923,
      "conference": 4924,
      "cise": 4925,
      "upon": 4926,
      "regions": 4927,
      "mess": 4928,
      "democracy": 4929,
      "front": 4930,
      "type": 4931,
      "firm": 4932,
      "provis": 4933,
      "deli": 4934,
      "language": 4935,
      "2008": 4936,
      "clean": 4937,
      "ilt": 4938,
      "competition": 4939,
      "yes": 4940,
      "total": 4941,
      "suit": 4942,
      "austr": 4943,
      "sound": 4944,
      "events": 4945,
      "aspect": 4946,
      "ker": 4947,
      "hon": 4948,
      "mountain": 4949,
      "hib": 4950,
      "ned": 4951,
      "directly": 4952,
      "green": 4953,
      "lish": 4954,
      "positive": 4955,
      "subst": 4956,
      "ators": 4957,
      "center": 4958,
      "mom": 4959,
      "fall": 4960,
      "parties": 4961,
      "mass": 4962,
      "maintain": 4963,
      "fight": 4964,
      "gard": 4965,
      "longer": 4966,
      "article": 4967,
      "developed": 4968,
      "note": 4969,
      "months": 4970,
      "tary": 4971,
      "hor": 4972,
      "ead": 4973,
      "requirements": 4974,
      "character": 4975,
      "lon": 4976,
      "document": 4977,
      "proposed": 4978,
      "method": 4979,
      "related": 4980,
      "affect": 4981,
      "interests": 4982,
      "apply": 4983,
      "arity": 4984,
      "consul": 4985,
      "item": 4986,
      "categ": 4987,
      "km": 4988,
      "markets": 4989,
      "bro": 4990,
      "aging": 4991,
      "100": 4992,
      "implementation": 4993,
      "camp": 4994,
      "enough": 4995,
      "guarantee": 4996,
      "ww": 4997,
      "everything": 4998,
      "dest": 4999,
      "jan": 5000,
      "appli": 5001,
      "media": 5002,
      "afric": 5003,
      "refer": 5004,
      "consequ": 5005,
      "commer": 5006,
      "needed": 5007,
      "customer": 5008,
      "travel": 5009,
      "son": 5010,
      "involved": 5011,
      "broad": 5012,
      "themselves": 5013,
      "corpor": 5014,
      "emb": 5015,
      "soon": 5016,
      "claim": 5017,
      "climate": 5018,
      "rate": 5019,
      "pict": 5020,
      "vide": 5021,
      "efforts": 5022,
      "ined": 5023,
      "arian": 5024,
      "gam": 5025,
      "affairs": 5026,
      "sens": 5027,
      "north": 5028,
      "ii": 5029,
      "perfor": 5030,
      "happen": 5031,
      "compu": 5032,
      "condition": 5033,
      "terror": 5034,
      "russia": 5035,
      "sec": 5036,
      "stree": 5037,
      "download": 5038,
      "either": 5039,
      "final": 5040,
      "rench": 5041,
      "file": 5042,
      "cases": 5043,
      "milit": 5044,
      "prepare": 5045,
      "anced": 5046,
      "previous": 5047,
      "additional": 5048,
      "true": 5049,
      "extremely": 5050,
      "ordin": 5051,
      "aper": 5052,
      "itch": 5053,
      "communication": 5054,
      "anti": 5055,
      "click": 5056,
      "held": 5057,
      "seen": 5058,
      "performan": 5059,
      "setting": 5060,
      "og": 5061,
      "prices": 5062,
      "ided": 5063,
      "cru": 5064,
      "negotiations": 5065,
      "almost": 5066,
      "indic": 5067,
      "appropriate": 5068,
      "lis": 5069,
      "developing": 5070,
      "living": 5071,
      "jud": 5072,
      "advant": 5073,
      "unique": 5074,
      "culture": 5075,
      "works": 5076,
      "aste": 5077,
      "thanks": 5078,
      "acts": 5079,
      "tv": 5080,
      "fortun": 5081,
      "atory": 5082,
      "unch": 5083,
      "investment": 5084,
      "etc": 5085,
      "professional": 5086,
      "offe": 5087,
      "surround": 5088,
      "send": 5089,
      "created": 5090,
      "five": 5091,
      "ibility": 5092,
      "phone": 5093,
      "asse": 5094,
      "ino": 5095,
      "actually": 5096,
      "vic": 5097,
      "club": 5098,
      "cross": 5099,
      "da": 5100,
      "french": 5101,
      "knowledge": 5102,
      "ogue": 5103,
      "famous": 5104,
      "parts": 5105,
      "recommend": 5106,
      "transparen": 5107,
      "2007": 5108,
      "lic": 5109,
      "40": 5110,
      "die": 5111,
      "sites": 5112,
      "workers": 5113,
      "friendly": 5114,
      "explo": 5115,
      "immedi": 5116,
      "ang": 5117,
      "meet": 5118,
      "included": 5119,
      "airport": 5120,
      "dig": 5121,
      "accommod": 5122,
      "cep": 5123,
      "charge": 5124,
      "ses": 5125,
      "built": 5126,
      "game": 5127,
      "tt": 5128,
      "avo": 5129,
      "except": 5130,
      "users": 5131,
      "suggest": 5132,
      "mp": 5133,
      "utional": 5134,
      "brit": 5135,
      "joint": 5136,
      "collect": 5137,
      "ese": 5138,
      "dev": 5139,
      "ured": 5140,
      "obl": 5141,
      "comfortable": 5142,
      "relations": 5143,
      "designed": 5144,
      "bour": 5145,
      "ideal": 5146,
      "ski": 5147,
      "ery": 5148,
      "flex": 5149,
      "correct": 5150,
      "throughout": 5151,
      "sent": 5152,
      "encour": 5153,
      "ables": 5154,
      "image": 5155,
      "idea": 5156,
      "connect": 5157,
      "certainly": 5158,
      "receive": 5159,
      "ried": 5160,
      "haps": 5161,
      "gar": 5162,
      "grat": 5163,
      "hes": 5164,
      "sl": 5165,
      "mentioned": 5166,
      "2000": 5167,
      "leading": 5168,
      "perhaps": 5169,
      "hotels": 5170,
      "nice": 5171,
      "eder": 5172,
      "vert": 5173,
      "ires": 5174,
      "qual": 5175,
      "exclus": 5176,
      "france": 5177,
      "ired": 5178,
      "oblig": 5179,
      "ira": 5180,
      "guide": 5181,
      "early": 5182,
      "engine": 5183,
      "60": 5184,
      "abled": 5185,
      "outside": 5186,
      "dut": 5187,
      "enterpr": 5188,
      "ource": 5189,
      "takes": 5190,
      "monitor": 5191,
      "smo": 5192,
      "spir": 5193,
      "fill": 5194,
      "mission": 5195,
      "els": 5196,
      "80": 5197,
      "ded": 5198,
      "fran": 5199,
      "moment": 5200,
      "strict": 5201,
      "wat": 5202,
      "majority": 5203,
      "traditional": 5204,
      "ham": 5205,
      "gets": 5206,
      "rule": 5207,
      "rist": 5208,
      "doing": 5209,
      "features": 5210,
      "cture": 5211,
      "rail": 5212,
      "across": 5213,
      "nothing": 5214,
      "american": 5215,
      "speed": 5216,
      "news": 5217,
      "performance": 5218,
      "emphas": 5219,
      "constru": 5220,
      "ulate": 5221,
      "walk": 5222,
      "ilar": 5223,
      "amount": 5224,
      "lock": 5225,
      "concerning": 5226,
      "west": 5227,
      "satis": 5228,
      "connection": 5229,
      "demon": 5230,
      "lux": 5231,
      "series": 5232,
      "official": 5233,
      "hours": 5234,
      "regarding": 5235,
      "colleag": 5236,
      "took": 5237,
      "objective": 5238,
      "transl": 5239,
      "existing": 5240,
      "writ": 5241,
      "military": 5242,
      "ken": 5243,
      "ternal": 5244,
      "fel": 5245,
      "forms": 5246,
      "reli": 5247,
      "complex": 5248,
      "wood": 5249,
      "code": 5250,
      "confl": 5251,
      "lay": 5252,
      "writing": 5253,
      "agreements": 5254,
      "industrial": 5255,
      "farm": 5256,
      "six": 5257,
      "gas": 5258,
      "basic": 5259,
      "initiative": 5260,
      "assess": 5261,
      "ison": 5262,
      "instead": 5263,
      "ga": 5264,
      "wes": 5265,
      "construction": 5266,
      "orders": 5267,
      "programmes": 5268,
      "turkey": 5269,
      "pression": 5270,
      "original": 5271,
      "hear": 5272,
      "23": 5273,
      "impact": 5274,
      "boo": 5275,
      "usu": 5276,
      "justice": 5277,
      "concerns": 5278,
      "sphere": 5279,
      "wers": 5280,
      "muse": 5281,
      "ket": 5282,
      "ado": 5283,
      "ration": 5284,
      "decisions": 5285,
      "sha": 5286,
      "exchange": 5287,
      "ands": 5288,
      "established": 5289,
      "island": 5290,
      "sil": 5291,
      "ense": 5292,
      "threat": 5293,
      "pa": 5294,
      "base": 5295,
      "english": 5296,
      "emer": 5297,
      "door": 5298,
      "zer": 5299,
      "completely": 5300,
      "separ": 5301,
      "population": 5302,
      "purch": 5303,
      "practice": 5304,
      "remo": 5305,
      "sess": 5306,
      "tell": 5307,
      "strateg": 5308,
      "files": 5309,
      "christ": 5310,
      "wise": 5311,
      "reasons": 5312,
      "thern": 5313,
      "similar": 5314,
      "computer": 5315,
      "infr": 5316,
      "box": 5317,
      "ream": 5318,
      "contract": 5319,
      "burg": 5320,
      "stop": 5321,
      "everyone": 5322,
      "opt": 5323,
      "desp": 5324,
      "unfortun": 5325,
      "capac": 5326,
      "agricultural": 5327,
      "minim": 5328,
      "includes": 5329,
      "ley": 5330,
      "package": 5331,
      "below": 5332,
      "applications": 5333,
      "minister": 5334,
      "equipment": 5335,
      "extra": 5336,
      "dle": 5337,
      "quar": 5338,
      "limited": 5339,
      "jobs": 5340,
      "rid": 5341,
      "transfer": 5342,
      "lack": 5343,
      "2006": 5344,
      "iet": 5345,
      "pain": 5346,
      "scient": 5347,
      "external": 5348,
      "allows": 5349,
      "conclus": 5350,
      "flow": 5351,
      "objectives": 5352,
      "equipped": 5353,
      "choose": 5354,
      "consumer": 5355,
      "integration": 5356,
      "values": 5357,
      "former": 5358,
      "recently": 5359,
      "oil": 5360,
      "sense": 5361,
      "museum": 5362,
      "cro": 5363,
      "ining": 5364,
      "fit": 5365,
      "video": 5366,
      "mechan": 5367,
      "america": 5368,
      "isra": 5369,
      "appear": 5370,
      "style": 5371,
      "ying": 5372,
      "display": 5373,
      "wall": 5374,
      "choice": 5375,
      "benefit": 5376,
      "goods": 5377,
      "border": 5378,
      "influ": 5379,
      "vin": 5380,
      "bad": 5381,
      "automat": 5382,
      "sav": 5383,
      "regular": 5384,
      "suppli": 5385,
      "simple": 5386,
      "stability": 5387,
      "reports": 5388,
      "squ": 5389,
      "treatment": 5390,
      "received": 5391,
      "cup": 5392,
      "grad": 5393,
      "tes": 5394,
      "double": 5395,
      "ka": 5396,
      "popular": 5397,
      "respond": 5398,
      "convention": 5399,
      "efficient": 5400,
      "lisbon": 5401,
      "famil": 5402,
      "bul": 5403,
      "gg": 5404,
      "vered": 5405,
      "answer": 5406,
      "beginning": 5407,
      "antic": 5408,
      "prim": 5409,
      "leaders": 5410,
      "ping": 5411,
      "berlin": 5412,
      "stage": 5413,
      "creation": 5414,
      "middle": 5415,
      "governments": 5416,
      "booking": 5417,
      "ond": 5418,
      "love": 5419,
      "mun": 5420,
      "consist": 5421,
      "duct": 5422,
      "congrat": 5423,
      "quickly": 5424,
      "successful": 5425,
      "despite": 5426,
      "traf": 5427,
      "hab": 5428,
      "hind": 5429,
      "enda": 5430,
      "gain": 5431,
      "jour": 5432,
      "num": 5433,
      "dialogue": 5434,
      "windows": 5435,
      "potential": 5436,
      "exhib": 5437,
      "promise": 5438,
      "summer": 5439,
      "added": 5440,
      "western": 5441,
      "ides": 5442,
      "spo": 5443,
      "server": 5444,
      "absol": 5445,
      "huge": 5446,
      "nuclear": 5447,
      "consumers": 5448,
      "sustainable": 5449,
      "commercial": 5450,
      "credit": 5451,
      "eries": 5452,
      "carry": 5453,
      "achieved": 5454,
      "contains": 5455,
      "highly": 5456,
      "circ": 5457,
      "concept": 5458,
      "rain": 5459,
      "traffic": 5460,
      "avoid": 5461,
      "placed": 5462,
      "section": 5463,
      "seems": 5464,
      "hic": 5465,
      "got": 5466,
      "feder": 5467,
      "enlarge": 5468,
      "mobile": 5469,
      "june": 5470,
      "floor": 5471,
      "ern": 5472,
      "iveness": 5473,
      "scre": 5474,
      "mac": 5475,
      "depart": 5476,
      "increased": 5477,
      "fu": 5478,
      "cam": 5479,
      "acqu": 5480,
      "higher": 5481,
      "pie": 5482,
      "option": 5483,
      "levels": 5484,
      "balance": 5485,
      "attack": 5486,
      "supply": 5487,
      "republic": 5488,
      "attem": 5489,
      "multi": 5490,
      "relev": 5491,
      "nations": 5492,
      "foot": 5493,
      "fire": 5494,
      "tered": 5495,
      "furn": 5496,
      "analys": 5497,
      "tro": 5498,
      "places": 5499,
      "street": 5500,
      "differen": 5501,
      "came": 5502,
      "fig": 5503,
      "rates": 5504,
      "dro": 5505,
      "absolute": 5506,
      "review": 5507,
      "presented": 5508,
      "plat": 5509,
      "spac": 5510,
      "agenda": 5511,
      "optim": 5512,
      "tor": 5513,
      "tempor": 5514,
      "ature": 5515,
      "principles": 5516,
      "iss": 5517,
      "ously": 5518,
      "crimin": 5519,
      "subsid": 5520,
      "whose": 5521,
      "map": 5522,
      "ief": 5523,
      "agreed": 5524,
      "asked": 5525,
      "ior": 5526,
      "keyword": 5527,
      "enable": 5528,
      "dece": 5529,
      "theless": 5530,
      "vehic": 5531,
      "tit": 5532,
      "black": 5533,
      "carried": 5534,
      "atmo": 5535,
      "unfortunately": 5536,
      "size": 5537,
      "opportunities": 5538,
      "harmon": 5539,
      "white": 5540,
      "archite": 5541,
      "death": 5542,
      "possibility": 5543,
      "challeng": 5544,
      "obvious": 5545,
      "covered": 5546,
      "neigh": 5547,
      "70": 5548,
      "materials": 5549,
      "preh": 5550,
      "hous": 5551,
      "22": 5552,
      "van": 5553,
      "rup": 5554,
      "reviews": 5555,
      "direction": 5556,
      "commitment": 5557,
      "ensu": 5558,
      "shows": 5559,
      "effects": 5560,
      "labor": 5561,
      "reflect": 5562,
      "organis": 5563,
      "ties": 5564,
      "obtain": 5565,
      "behind": 5566,
      "acc": 5567,
      "bes": 5568,
      "matters": 5569,
      "ively": 5570,
      "crib": 5571,
      "ush": 5572,
      "span": 5573,
      "idered": 5574,
      "roman": 5575,
      "wonder": 5576,
      "ills": 5577,
      "capacity": 5578,
      "apan": 5579,
      "stress": 5580,
      "dict": 5581,
      "iation": 5582,
      "submitted": 5583,
      "property": 5584,
      "fest": 5585,
      "march": 5586,
      "considered": 5587,
      "written": 5588,
      "promote": 5589,
      "accep": 5590,
      "chur": 5591,
      "za": 5592,
      "deep": 5593,
      "2005": 5594,
      "sep": 5595,
      "aspects": 5596,
      "hn": 5597,
      "shown": 5598,
      "preci": 5599,
      "liberal": 5600,
      "coast": 5601,
      "numer": 5602,
      "pressure": 5603,
      "olf": 5604,
      "providing": 5605,
      "spain": 5606,
      "response": 5607,
      "prepared": 5608,
      "sufficient": 5609,
      "independent": 5610,
      "labour": 5611,
      "bey": 5612,
      "accommodation": 5613,
      "ends": 5614,
      "conduct": 5615,
      "paper": 5616,
      "doub": 5617,
      "rane": 5618,
      "latest": 5619,
      "consult": 5620,
      "worth": 5621,
      "enlargement": 5622,
      "ring": 5623,
      "path": 5624,
      "garden": 5625,
      "electron": 5626,
      "loss": 5627,
      "curren": 5628,
      "immig": 5629,
      "dim": 5630,
      "precise": 5631,
      "tember": 5632,
      "closed": 5633,
      "ption": 5634,
      "fici": 5635,
      "source": 5636,
      "partner": 5637,
      "details": 5638,
      "movement": 5639,
      "ls": 5640,
      "apartment": 5641,
      "eth": 5642,
      "compreh": 5643,
      "japan": 5644,
      "ware": 5645,
      "talk": 5646,
      "summit": 5647,
      "apartments": 5648,
      "micro": 5649,
      "track": 5650,
      "regulations": 5651,
      "maxim": 5652,
      "easily": 5653,
      "reached": 5654,
      "bio": 5655,
      "grant": 5656,
      "reduce": 5657,
      "criter": 5658,
      "stor": 5659,
      "employe": 5660,
      "copy": 5661,
      "italy": 5662,
      "roy": 5663,
      "determin": 5664,
      "film": 5665,
      "iety": 5666,
      "produced": 5667,
      "encies": 5668,
      "assistance": 5669,
      "digital": 5670,
      "fix": 5671,
      "priority": 5672,
      "sor": 5673,
      "decided": 5674,
      "21": 5675,
      "leave": 5676,
      "div": 5677,
      "funding": 5678,
      "aking": 5679,
      "thous": 5680,
      "pping": 5681,
      "ering": 5682,
      "ff": 5683,
      "arily": 5684,
      "exe": 5685,
      "relevant": 5686,
      "creating": 5687,
      "purpose": 5688,
      "adap": 5689,
      "guarante": 5690,
      "ny": 5691,
      "annu": 5692,
      "va": 5693,
      "cause": 5694,
      "september": 5695,
      "lies": 5696,
      "plant": 5697,
      "prepar": 5698,
      "manufacture": 5699,
      "announ": 5700,
      "december": 5701,
      "gives": 5702,
      "remains": 5703,
      "supported": 5704,
      "2004": 5705,
      "learn": 5706,
      "africa": 5707,
      "structural": 5708,
      "instruments": 5709,
      "logies": 5710,
      "university": 5711,
      "resh": 5712,
      "atmosphere": 5713,
      "partnership": 5714,
      "liance": 5715,
      "alu": 5716,
      "lection": 5717,
      "billion": 5718,
      "mill": 5719,
      "mediter": 5720,
      "italian": 5721,
      "furthermore": 5722,
      "rely": 5723,
      "standing": 5724,
      "counter": 5725,
      "repe": 5726,
      "scal": 5727,
      "fishing": 5728,
      "village": 5729,
      "activity": 5730,
      "istan": 5731,
      "shop": 5732,
      "buy": 5733,
      "inc": 5734,
      "clud": 5735,
      "tober": 5736,
      "drive": 5737,
      "altern": 5738,
      "player": 5739,
      "wine": 5740,
      "istics": 5741,
      "produce": 5742,
      "conven": 5743,
      "secre": 5744,
      "pover": 5745,
      "perform": 5746,
      "else": 5747,
      "equal": 5748,
      "acceptable": 5749,
      "ranean": 5750,
      "steps": 5751,
      "games": 5752,
      "ased": 5753,
      "astic": 5754,
      "una": 5755,
      "measure": 5756,
      "solidarity": 5757,
      "ball": 5758,
      "grand": 5759,
      "message": 5760,
      "study": 5761,
      "payment": 5762,
      "brought": 5763,
      "categories": 5764,
      "arm": 5765,
      "antly": 5766,
      "status": 5767,
      "198": 5768,
      "largest": 5769,
      "2003": 5770,
      "27": 5771,
      "mediterranean": 5772,
      "slo": 5773,
      "spr": 5774,
      "danger": 5775,
      "ith": 5776,
      "secondly": 5777,
      "discussion": 5778,
      "statement": 5779,
      "instrument": 5780,
      "ux": 5781,
      "nic": 5782,
      "january": 5783,
      "pointed": 5784,
      "cou": 5785,
      "interesting": 5786,
      "soft": 5787,
      "relationship": 5788,
      "compon": 5789,
      "types": 5790,
      "pleased": 5791,
      "explain": 5792,
      "limit": 5793,
      "agriculture": 5794,
      "ada": 5795,
      "distribution": 5796,
      "ake": 5797,
      "rat": 5798,
      "construct": 5799,
      "cand": 5800,
      "strengthen": 5801,
      "prob": 5802,
      "medium": 5803,
      "award": 5804,
      "sport": 5805,
      "october": 5806,
      "dies": 5807,
      "enh": 5808,
      "giving": 5809,
      "variety": 5810,
      "lled": 5811,
      "swim": 5812,
      "regards": 5813,
      "moreover": 5814,
      "sometimes": 5815,
      "aug": 5816,
      "forget": 5817,
      "allowed": 5818,
      "tools": 5819,
      "became": 5820,
      "minor": 5821,
      "tan": 5822,
      "camer": 5823,
      "warm": 5824,
      "violence": 5825,
      "structure": 5826,
      "motion": 5827,
      "procedures": 5828,
      "demonstr": 5829,
      "launch": 5830,
      "nation": 5831,
      "relig": 5832,
      "iture": 5833,
      "task": 5834,
      "ficiency": 5835,
      "reading": 5836,
      "paid": 5837,
      "documents": 5838,
      "integrated": 5839,
      "british": 5840,
      "rs": 5841,
      "sales": 5842,
      "agency": 5843,
      "damage": 5844,
      "ano": 5845,
      "firstly": 5846,
      "exer": 5847,
      "historical": 5848,
      "effort": 5849,
      "operating": 5850,
      "gold": 5851,
      "started": 5852,
      "exact": 5853,
      "advantage": 5854,
      "enge": 5855,
      "restaurants": 5856,
      "reserv": 5857,
      "numerous": 5858,
      "spanish": 5859,
      "compromise": 5860,
      "nove": 5861,
      "gal": 5862,
      "scientific": 5863,
      "fine": 5864,
      "cert": 5865,
      "thin": 5866,
      "provisions": 5867,
      "square": 5868,
      "hi": 5869,
      "sam": 5870,
      "contribution": 5871,
      "transparency": 5872,
      "secure": 5873,
      "draft": 5874,
      "sports": 5875,
      "spirit": 5876,
      "lake": 5877,
      "forces": 5878,
      "lower": 5879,
      "beyond": 5880,
      "stock": 5881,
      "dail": 5882,
      "ange": 5883,
      "links": 5884,
      "forest": 5885,
      "temporary": 5886,
      "quiet": 5887,
      "poverty": 5888,
      "ien": 5889,
      "wind": 5890,
      "2001": 5891,
      "association": 5892,
      "daily": 5893,
      "hour": 5894,
      "chance": 5895,
      "legislative": 5896,
      "trip": 5897,
      "lives": 5898,
      "poor": 5899,
      "happy": 5900,
      "ially": 5901,
      "tourism": 5902,
      "verse": 5903,
      "aries": 5904,
      "criteria": 5905,
      "distance": 5906,
      "friends": 5907,
      "technologies": 5908,
      "phil": 5909,
      "late": 5910,
      "poses": 5911,
      "starting": 5912,
      "analysis": 5913,
      "teach": 5914,
      "ager": 5915,
      "july": 5916,
      "enced": 5917,
      "cks": 5918,
      "elements": 5919,
      "mand": 5920,
      "ril": 5921,
      "served": 5922,
      "brid": 5923,
      "bear": 5924,
      "ourselves": 5925,
      "pread": 5926,
      "ah": 5927,
      "applied": 5928,
      "immediately": 5929,
      "evalu": 5930,
      "serve": 5931,
      "email": 5932,
      "benefits": 5933,
      "cape": 5934,
      "ilit": 5935,
      "growing": 5936,
      "monetary": 5937,
      "monitoring": 5938,
      "employees": 5939,
      "rac": 5940,
      "machine": 5941,
      "reject": 5942,
      "uted": 5943,
      "sels": 5944,
      "chair": 5945,
      "ama": 5946,
      "reality": 5947,
      "argu": 5948,
      "season": 5949,
      "annual": 5950,
      "israel": 5951,
      "ouch": 5952,
      "highest": 5953,
      "gro": 5954,
      "institutional": 5955,
      "persons": 5956,
      "paris": 5957,
      "cript": 5958,
      "iraq": 5959,
      "offering": 5960,
      "los": 5961,
      "conflict": 5962,
      "tomor": 5963,
      "elections": 5964,
      "join": 5965,
      "organisation": 5966,
      "fi": 5967,
      "vere": 5968,
      "parking": 5969,
      "goes": 5970,
      "tomorrow": 5971,
      "frequ": 5972,
      "modif": 5973,
      "river": 5974,
      "processes": 5975,
      "motor": 5976,
      "challenges": 5977,
      "guard": 5978,
      "ultim": 5979,
      "changed": 5980,
      "historic": 5981,
      "terrorism": 5982,
      "desk": 5983,
      "november": 5984,
      "practical": 5985,
      "dol": 5986,
      "comprehensive": 5987,
      "ening": 5988,
      "astru": 5989,
      "reference": 5990,
      "band": 5991,
      "useful": 5992,
      "cide": 5993,
      "colleagues": 5994,
      "occas": 5995,
      "ivers": 5996,
      "victim": 5997,
      "alternative": 5998,
      "cohes": 5999,
      "infrastru": 6000,
      "renew": 6001,
      "tu": 6002,
      "swed": 6003,
      "innovation": 6004,
      "adjust": 6005,
      "90": 6006,
      "mi": 6007,
      "options": 6008,
      "trust": 6009,
      "saying": 6010,
      "spa": 6011,
      "consequences": 6012,
      "org": 6013,
      "brand": 6014,
      "iment": 6015,
      "amb": 6016,
      "waste": 6017,
      "las": 6018,
      "ites": 6019,
      "2002": 6020,
      "heav": 6021,
      "hot": 6022,
      "iran": 6023,
      "church": 6024,
      "mart": 6025,
      "weak": 6026,
      "zone": 6027,
      "minimum": 6028,
      "ky": 6029,
      "phys": 6030,
      "rapid": 6031,
      "advert": 6032,
      "pret": 6033,
      "palest": 6034,
      "players": 6035,
      "dry": 6036,
      "ideas": 6037,
      "augh": 6038,
      "efficiency": 6039,
      "cd": 6040,
      "aign": 6041,
      "thought": 6042,
      "pursu": 6043,
      "hall": 6044,
      "cription": 6045,
      "spee": 6046,
      "otherwise": 6047,
      "april": 6048,
      "voting": 6049,
      "campaign": 6050,
      "ivity": 6051,
      "sex": 6052,
      "published": 6053,
      "berg": 6054,
      "client": 6055,
      "dra": 6056,
      "sell": 6057,
      "organisations": 6058,
      "clients": 6059,
      "occur": 6060,
      "sole": 6061,
      "eastern": 6062,
      "rural": 6063,
      "maximum": 6064,
      "requires": 6065,
      "accession": 6066,
      "reduction": 6067,
      "ades": 6068,
      "images": 6069,
      "ception": 6070,
      "err": 6071,
      "vital": 6072,
      "mous": 6073,
      "administration": 6074,
      "implemented": 6075,
      "config": 6076,
      "shopping": 6077,
      "yl": 6078,
      "circum": 6079,
      "cul": 6080,
      "offered": 6081,
      "ays": 6082,
      "500": 6083,
      "challenge": 6084,
      "relating": 6085,
      "doubt": 6086,
      "pictures": 6087,
      "convin": 6088,
      "earth": 6089,
      "release": 6090,
      "weeks": 6091,
      "worldwide": 6092,
      "crucial": 6093,
      "26": 6094,
      "meaning": 6095,
      "ana": 6096,
      "cohesion": 6097,
      "zo": 6098,
      "congratulate": 6099,
      "drug": 6100,
      "fisheries": 6101,
      "powers": 6102,
      "usion": 6103,
      "neg": 6104,
      "visitors": 6105,
      "swimming": 6106,
      "wanted": 6107,
      "farmers": 6108,
      "dar": 6109,
      "probably": 6110,
      "soph": 6111,
      "critic": 6112,
      "ney": 6113,
      "constitution": 6114,
      "tourist": 6115,
      "ague": 6116,
      "ilater": 6117,
      "shar": 6118,
      "morning": 6119,
      "anything": 6120,
      "ony": 6121,
      "authority": 6122,
      "strategic": 6123,
      "cities": 6124,
      "budgetary": 6125,
      "surance": 6126,
      "languages": 6127,
      "caused": 6128,
      "overall": 6129,
      "lier": 6130,
      "processing": 6131,
      "interested": 6132,
      "session": 6133,
      "estic": 6134,
      "innovative": 6135,
      "marks": 6136,
      "ini": 6137,
      "ients": 6138,
      "terrace": 6139,
      "nes": 6140,
      "mir": 6141,
      "improv": 6142,
      "selection": 6143,
      "accordance": 6144,
      "nevertheless": 6145,
      "rou": 6146,
      "occup": 6147,
      "lost": 6148,
      "itarian": 6149,
      "ension": 6150,
      "opening": 6151,
      "28": 6152,
      "shops": 6153,
      "chem": 6154,
      "medic": 6155,
      "arrange": 6156,
      "extent": 6157,
      "methods": 6158,
      "inese": 6159,
      "kitch": 6160,
      "currency": 6161,
      "disast": 6162,
      "born": 6163,
      "menu": 6164,
      "execut": 6165,
      "candid": 6166,
      "sis": 6167,
      "ale": 6168,
      "expert": 6169,
      "ni": 6170,
      "winter": 6171,
      "scen": 6172,
      "businesses": 6173,
      "valid": 6174,
      "calls": 6175,
      "sky": 6176,
      "resort": 6177,
      "sche": 6178,
      "scale": 6179,
      "fields": 6180,
      "collection": 6181,
      "craft": 6182,
      "describ": 6183,
      "issions": 6184,
      "likely": 6185,
      "fresh": 6186,
      "sectors": 6187,
      "www": 6188,
      "concentr": 6189,
      "upd": 6190,
      "austria": 6191,
      "competit": 6192,
      "honour": 6193,
      "usually": 6194,
      "alone": 6195,
      "bathroom": 6196,
      "banks": 6197,
      "god": 6198,
      "discover": 6199,
      "representatives": 6200,
      "watch": 6201,
      "feed": 6202,
      "corporate": 6203,
      "assemb": 6204,
      "decor": 6205,
      "parag": 6206,
      "prime": 6207,
      "chinese": 6208,
      "plus": 6209,
      "target": 6210,
      "borders": 6211,
      "genu": 6212,
      "rant": 6213,
      "bs": 6214,
      "suring": 6215,
      "mas": 6216,
      "tex": 6217,
      "police": 6218,
      "encourage": 6219,
      "investig": 6220,
      "ford": 6221,
      "electronic": 6222,
      "blo": 6223,
      "accepted": 6224,
      "walking": 6225,
      "1999": 6226,
      "fre": 6227,
      "color": 6228,
      "absolutely": 6229,
      "adopt": 6230,
      "minute": 6231,
      "golf": 6232,
      "extensive": 6233,
      "virt": 6234,
      "genuine": 6235,
      "appreci": 6236,
      "izing": 6237,
      "influence": 6238,
      "pc": 6239,
      "raised": 6240,
      "perspect": 6241,
      "restrict": 6242,
      "surpr": 6243,
      "letter": 6244,
      "trying": 6245,
      "sitting": 6246,
      "parliamentary": 6247,
      "eleg": 6248,
      "command": 6249,
      "proceed": 6250,
      "din": 6251,
      "installation": 6252,
      "russian": 6253,
      "delivery": 6254,
      "operate": 6255,
      "urgent": 6256,
      "namely": 6257,
      "electric": 6258,
      "mut": 6259,
      "spend": 6260,
      "datab": 6261,
      "kar": 6262,
      "ireland": 6263,
      "crime": 6264,
      "hr": 6265,
      "demands": 6266,
      "critical": 6267,
      "fis": 6268,
      "hood": 6269,
      "radio": 6270,
      "mix": 6271,
      "iling": 6272,
      "29": 6273,
      "medical": 6274,
      "affected": 6275,
      "blue": 6276,
      "oud": 6277,
      "aver": 6278,
      "planning": 6279,
      "35": 6280,
      "involve": 6281,
      "voice": 6282,
      "highlight": 6283,
      "defence": 6284,
      "laws": 6285,
      "vit": 6286,
      "kitchen": 6287,
      "ishing": 6288,
      "intended": 6289,
      "ift": 6290,
      "eco": 6291,
      "initiatives": 6292,
      "illegal": 6293,
      "federal": 6294,
      "plans": 6295,
      "vac": 6296,
      "master": 6297,
      "rise": 6298,
      "running": 6299,
      "itude": 6300,
      "bot": 6301,
      "ilateral": 6302,
      "tren": 6303,
      "founded": 6304,
      "suitable": 6305,
      "orient": 6306,
      "worked": 6307,
      "save": 6308,
      "fru": 6309,
      "ease": 6310,
      "ax": 6311,
      "heard": 6312,
      "syn": 6313,
      "wrong": 6314,
      "mbh": 6315,
      "sn": 6316,
      "45": 6317,
      "circumst": 6318,
      "expected": 6319,
      "fellow": 6320,
      "forced": 6321,
      "students": 6322,
      "remember": 6323,
      "london": 6324,
      "channel": 6325,
      "mann": 6326,
      "comments": 6327,
      "improved": 6328,
      "scope": 6329,
      "export": 6330,
      "marketing": 6331,
      "entr": 6332,
      "deliver": 6333,
      "expressed": 6334,
      "bac": 6335,
      "mainly": 6336,
      "dynam": 6337,
      "families": 6338,
      "accoun": 6339,
      "goal": 6340,
      "talking": 6341,
      "yourself": 6342,
      "conver": 6343,
      "criminal": 6344,
      "sand": 6345,
      "confidence": 6346,
      "committed": 6347,
      "automatically": 6348,
      "cele": 6349,
      "coordin": 6350,
      "evening": 6351,
      "domin": 6352,
      "approved": 6353,
      "ender": 6354,
      "scr": 6355,
      "remind": 6356,
      "proto": 6357,
      "specifically": 6358,
      "preser": 6359,
      "hung": 6360,
      "assu": 6361,
      "unemployment": 6362,
      "voc": 6363,
      "ane": 6364,
      "gmbh": 6365,
      "infrastructure": 6366,
      "cry": 6367,
      "brow": 6368,
      "august": 6369,
      "speaking": 6370,
      "dead": 6371,
      "enterprise": 6372,
      "reforms": 6373,
      "suffer": 6374,
      "increasingly": 6375,
      "screen": 6376,
      "competitive": 6377,
      "celebr": 6378,
      "feature": 6379,
      "forum": 6380,
      "umb": 6381,
      "deleg": 6382,
      "ns": 6383,
      "protected": 6384,
      "hund": 6385,
      "whom": 6386,
      "participation": 6387,
      "district": 6388,
      "conclusion": 6389,
      "reduced": 6390,
      "stra": 6391,
      "divers": 6392,
      "perman": 6393,
      "circumstances": 6394,
      "understanding": 6395,
      "emissions": 6396,
      "lla": 6397,
      "decide": 6398,
      "catal": 6399,
      "kers": 6400,
      "print": 6401,
      "declar": 6402,
      "ensuring": 6403,
      "cze": 6404,
      "roll": 6405,
      "resist": 6406,
      "comment": 6407,
      "regime": 6408,
      "hundred": 6409,
      "uge": 6410,
      "oral": 6411,
      "foundation": 6412,
      "leav": 6413,
      "raph": 6414,
      "tas": 6415,
      "functions": 6416,
      "priorities": 6417,
      "seven": 6418,
      "cham": 6419,
      "197": 6420,
      "ica": 6421,
      "swit": 6422,
      "powerful": 6423,
      "victims": 6424,
      "ened": 6425,
      "detailed": 6426,
      "frank": 6427,
      "hosp": 6428,
      "geo": 6429,
      "helpful": 6430,
      "plants": 6431,
      "satisf": 6432,
      "asia": 6433,
      "separate": 6434,
      "palestin": 6435,
      "supports": 6436,
      "kill": 6437,
      "contribute": 6438,
      "getting": 6439,
      "trave": 6440,
      "defined": 6441,
      "storage": 6442,
      "entry": 6443,
      "paragraph": 6444,
      "began": 6445,
      "stable": 6446,
      "administrative": 6447,
      "inside": 6448,
      "introduced": 6449,
      "ja": 6450,
      "yor": 6451,
      "izes": 6452,
      "deser": 6453,
      "vict": 6454,
      "compar": 6455,
      "animals": 6456,
      "prefer": 6457,
      "ram": 6458,
      "assessment": 6459,
      "played": 6460,
      "sources": 6461,
      "core": 6462,
      "says": 6463,
      "opened": 6464,
      "tabled": 6465,
      "effectively": 6466,
      "precisely": 6467,
      "guidelines": 6468,
      "bay": 6469,
      "cycl": 6470,
      "programs": 6471,
      "ather": 6472,
      "houses": 6473,
      "usa": 6474,
      "weap": 6475,
      "clar": 6476,
      "mem": 6477,
      "science": 6478,
      "thousands": 6479,
      "ür": 6480,
      "willing": 6481,
      "manner": 6482,
      "villa": 6483,
      "attle": 6484,
      "introduction": 6485,
      "hom": 6486,
      "bat": 6487,
      "tip": 6488,
      "kets": 6489,
      "managed": 6490,
      "nav": 6491,
      "camera": 6492,
      "audio": 6493,
      "linked": 6494,
      "larger": 6495,
      "gall": 6496,
      "networks": 6497,
      "dish": 6498,
      "normal": 6499,
      "crete": 6500,
      "regret": 6501,
      "listed": 6502,
      "symb": 6503,
      "inary": 6504,
      "belong": 6505,
      "fif": 6506,
      "itation": 6507,
      "advanced": 6508,
      "purposes": 6509,
      "fet": 6510,
      "buf": 6511,
      "operations": 6512,
      "aimed": 6513,
      "stated": 6514,
      "button": 6515,
      "lap": 6516,
      "enty": 6517,
      "prison": 6518,
      "exactly": 6519,
      "ique": 6520,
      "ordination": 6521,
      "generally": 6522,
      "referred": 6523,
      "discuss": 6524,
      "enterprises": 6525,
      "ques": 6526,
      "alle": 6527,
      "amic": 6528,
      "confirm": 6529,
      "stream": 6530,
      "earlier": 6531,
      "stone": 6532,
      "exclusive": 6533,
      "ision": 6534,
      "risks": 6535,
      "selected": 6536,
      "300": 6537,
      "picture": 6538,
      "discussions": 6539,
      "exhibition": 6540,
      "none": 6541,
      "developments": 6542,
      "pi": 6543,
      "dedic": 6544,
      "febr": 6545,
      "mist": 6546,
      "india": 6547,
      "spread": 6548,
      "generation": 6549,
      "becoming": 6550,
      "anyone": 6551,
      "positions": 6552,
      "immigration": 6553,
      "brief": 6554,
      "quate": 6555,
      "itory": 6556,
      "satisfact": 6557,
      "prem": 6558,
      "experts": 6559,
      "dv": 6560,
      "cers": 6561,
      "ukrain": 6562,
      "zz": 6563,
      "northern": 6564,
      "kingdom": 6565,
      "pes": 6566,
      "refuge": 6567,
      "cards": 6568,
      "ferences": 6569,
      "represents": 6570,
      "imag": 6571,
      "discussed": 6572,
      "uals": 6573,
      "spl": 6574,
      "smoking": 6575,
      "animal": 6576,
      "touch": 6577,
      "urban": 6578,
      "crimination": 6579,
      "pleasant": 6580,
      "revol": 6581,
      "profit": 6582,
      "natur": 6583,
      "weight": 6584,
      "provision": 6585,
      "anci": 6586,
      "income": 6587,
      "february": 6588,
      "format": 6589,
      "barce": 6590,
      "wants": 6591,
      "emp": 6592,
      "photograph": 6593,
      "unless": 6594,
      "supporting": 6595,
      "improving": 6596,
      "discrimination": 6597,
      "estate": 6598,
      "facilit": 6599,
      "wonderful": 6600,
      "relative": 6601,
      "libr": 6602,
      "ws": 6603,
      "icts": 6604,
      "debt": 6605,
      "buildings": 6606,
      "sle": 6607,
      "purchase": 6608,
      "organization": 6609,
      "urs": 6610,
      "tun": 6611,
      "cluded": 6612,
      "compens": 6613,
      "brus": 6614,
      "ministers": 6615,
      "pas": 6616,
      "connected": 6617,
      "obviously": 6618,
      "typical": 6619,
      "coffe": 6620,
      "temper": 6621,
      "depos": 6622,
      "enna": 6623,
      "quo": 6624,
      "swiss": 6625,
      "tration": 6626,
      "sized": 6627,
      "playing": 6628,
      "communications": 6629,
      "reception": 6630,
      "block": 6631,
      "fare": 6632,
      "iver": 6633,
      "went": 6634,
      "degree": 6635,
      "closely": 6636,
      "speech": 6637,
      "lie": 6638,
      "followed": 6639,
      "31": 6640,
      "telephone": 6641,
      "coordination": 6642,
      "components": 6643,
      "czech": 6644,
      "facing": 6645,
      "duty": 6646,
      "wed": 6647,
      "switzer": 6648,
      "fixed": 6649,
      "studies": 6650,
      "switzerland": 6651,
      "bab": 6652,
      "saw": 6653,
      "competitiveness": 6654,
      "lying": 6655,
      "combat": 6656,
      "ico": 6657,
      "neighbour": 6658,
      "finance": 6659,
      "impress": 6660,
      "considerable": 6661,
      "director": 6662,
      "convenient": 6663,
      "uration": 6664,
      "race": 6665,
      "legit": 6666,
      "accur": 6667,
      "teen": 6668,
      "representative": 6669,
      "actual": 6670,
      "suite": 6671,
      "financing": 6672,
      "element": 6673,
      "pun": 6674,
      "metres": 6675,
      "song": 6676,
      "translation": 6677,
      "christian": 6678,
      "lona": 6679,
      "compat": 6680,
      "thinking": 6681,
      "valu": 6682,
      "slow": 6683,
      "promotion": 6684,
      "greece": 6685,
      "ensions": 6686,
      "settle": 6687,
      "flexible": 6688,
      "spacious": 6689,
      "symbol": 6690,
      "pil": 6691,
      "debian": 6692,
      "southern": 6693,
      "machines": 6694,
      "items": 6695,
      "entit": 6696,
      "properly": 6697,
      "presence": 6698,
      "intervent": 6699,
      "studio": 6700,
      "habit": 6701,
      "bure": 6702,
      "delay": 6703,
      "leader": 6704,
      "york": 6705,
      "beds": 6706,
      "gi": 6707,
      "barcelona": 6708,
      "196": 6709,
      "expand": 6710,
      "ordinary": 6711,
      "custo": 6712,
      "poll": 6713,
      "castle": 6714,
      "drawn": 6715,
      "sq": 6716,
      "hands": 6717,
      "flexibility": 6718,
      "si": 6719,
      "advis": 6720,
      "bag": 6721,
      "mm": 6722,
      "bound": 6723,
      "dealing": 6724,
      "kil": 6725,
      "coffee": 6726,
      "learning": 6727,
      "domestic": 6728,
      "gency": 6729,
      "entirely": 6730,
      "cars": 6731,
      "advance": 6732,
      "store": 6733,
      "description": 6734,
      "average": 6735,
      "mountains": 6736,
      "mur": 6737,
      "railway": 6738,
      "tot": 6739,
      "vehicles": 6740,
      "fant": 6741,
      "jav": 6742,
      "politics": 6743,
      "bir": 6744,
      "database": 6745,
      "bureau": 6746,
      "books": 6747,
      "cel": 6748,
      "ength": 6749,
      "rig": 6750,
      "entertain": 6751,
      "neither": 6752,
      "tack": 6753,
      "meetings": 6754,
      "rock": 6755,
      "trading": 6756,
      "approv": 6757,
      "turk": 6758,
      "modified": 6759,
      "islands": 6760,
      "hostels": 6761,
      "brussels": 6762,
      "difficulties": 6763,
      "portion": 6764,
      "poland": 6765,
      "valley": 6766,
      "failure": 6767,
      "consideration": 6768,
      "relate": 6769,
      "gave": 6770,
      "han": 6771,
      "ancient": 6772,
      "beha": 6773,
      "rein": 6774,
      "television": 6775,
      "arab": 6776,
      "beauty": 6777,
      "fault": 6778,
      "courses": 6779,
      "ml": 6780,
      "analy": 6781,
      "linux": 6782,
      "agen": 6783,
      "continent": 6784,
      "numbers": 6785,
      "enor": 6786,
      "informed": 6787,
      "clude": 6788,
      "iso": 6789,
      "era": 6790,
      "ered": 6791,
      "hit": 6792,
      "establishment": 6793,
      "glass": 6794,
      "father": 6795,
      "believ": 6796,
      "ases": 6797,
      "percent": 6798,
      "membership": 6799,
      "experienced": 6800,
      "promoting": 6801,
      "dimension": 6802,
      "cuis": 6803,
      "abilities": 6804,
      "dream": 6805,
      "bind": 6806,
      "atell": 6807,
      "owners": 6808,
      "tension": 6809,
      "applies": 6810,
      "practices": 6811,
      "architecture": 6812,
      "nis": 6813,
      "democrats": 6814,
      "reasonable": 6815,
      "platform": 6816,
      "fear": 6817,
      "humanitarian": 6818,
      "chemical": 6819,
      "appears": 6820,
      "bodies": 6821,
      "protocol": 6822,
      "gs": 6823,
      "peaceful": 6824,
      "idents": 6825,
      "belg": 6826,
      "arrival": 6827,
      "rout": 6828,
      "calling": 6829,
      "unit": 6830,
      "becomes": 6831,
      "rome": 6832,
      "elim": 6833,
      "ids": 6834,
      "statements": 6835,
      "bia": 6836,
      "update": 6837,
      "sale": 6838,
      "signed": 6839,
      "succeed": 6840,
      "gir": 6841,
      "perspective": 6842,
      "insurance": 6843,
      "instance": 6844,
      "structures": 6845,
      "himself": 6846,
      "subsidi": 6847,
      "shower": 6848,
      "attempt": 6849,
      "told": 6850,
      "itors": 6851,
      "confir": 6852,
      "penal": 6853,
      "alp": 6854,
      "models": 6855,
      "aims": 6856,
      "aint": 6857,
      "festival": 6858,
      "vul": 6859,
      "pul": 6860,
      "spring": 6861,
      "concrete": 6862,
      "reducing": 6863,
      "proof": 6864,
      "associated": 6865,
      "ón": 6866,
      "amster": 6867,
      "yester": 6868,
      "names": 6869,
      "implementing": 6870,
      "amsterdam": 6871,
      "lt": 6872,
      "background": 6873,
      "match": 6874,
      "sets": 6875,
      "rer": 6876,
      "stu": 6877,
      "length": 6878,
      "simpli": 6879,
      "negative": 6880,
      "organiz": 6881,
      "wil": 6882,
      "opposition": 6883,
      "acknow": 6884,
      "ller": 6885,
      "kept": 6886,
      "cuisine": 6887,
      "ibe": 6888,
      "mode": 6889,
      "intel": 6890,
      "easier": 6891,
      "reservation": 6892,
      "continued": 6893,
      "initial": 6894,
      "producers": 6895,
      "changing": 6896,
      "adoption": 6897,
      "cher": 6898,
      "doct": 6899,
      "myself": 6900,
      "differences": 6901,
      "ding": 6902,
      "seriously": 6903,
      "charged": 6904,
      "yesterday": 6905,
      "agencies": 6906,
      "recognition": 6907,
      "rants": 6908,
      "attractive": 6909,
      "claims": 6910,
      "ki": 6911,
      "quant": 6912,
      "von": 6913,
      "memory": 6914,
      "collabor": 6915,
      "isms": 6916,
      "atl": 6917,
      "graphic": 6918,
      "attach": 6919,
      "evidence": 6920,
      "satell": 6921,
      "ifying": 6922,
      "mother": 6923,
      "observ": 6924,
      "fab": 6925,
      "vari": 6926,
      "improvement": 6927,
      "constitutional": 6928,
      "icial": 6929,
      "conserv": 6930,
      "ato": 6931,
      "behavi": 6932,
      "approxim": 6933,
      "availability": 6934,
      "balanced": 6935,
      "ein": 6936,
      "carefully": 6937,
      "nearby": 6938,
      "attemp": 6939,
      "taste": 6940,
      "votes": 6941,
      "immediate": 6942,
      "keeping": 6943,
      "difference": 6944,
      "religious": 6945,
      "excess": 6946,
      "combination": 6947,
      "ahead": 6948,
      "shared": 6949,
      "condem": 6950,
      "pure": 6951,
      "youth": 6952,
      "territory": 6953,
      "released": 6954,
      "dered": 6955,
      "dangerous": 6956,
      "assembly": 6957,
      "happened": 6958,
      "hair": 6959,
      "impossible": 6960,
      "register": 6961,
      "wing": 6962,
      "spent": 6963,
      "combined": 6964,
      "guarantees": 6965,
      "replace": 6966,
      "beaches": 6967,
      "goals": 6968,
      "bridge": 6969,
      "registered": 6970,
      "transition": 6971,
      "resto": 6972,
      "cook": 6973,
      "governmental": 6974,
      "asc": 6975,
      "holidays": 6976,
      "consumption": 6977,
      "capable": 6978,
      "packages": 6979,
      "truly": 6980,
      "aus": 6981,
      "ulated": 6982,
      "permanent": 6983,
      "ked": 6984,
      "described": 6985,
      "icians": 6986,
      "compared": 6987,
      "propose": 6988,
      "passed": 6989,
      "alb": 6990,
      "beg": 6991,
      "equality": 6992,
      "substant": 6993,
      "herit": 6994,
      "ito": 6995,
      "introduce": 6996,
      "32": 6997,
      "transform": 6998,
      "story": 6999,
      "asyl": 7000,
      "champ": 7001,
      "surve": 7002,
      "steel": 7003,
      "koso": 7004,
      "announced": 7005,
      "marked": 7006,
      "elegant": 7007,
      "asylum": 7008,
      "devices": 7009,
      "ships": 7010,
      "spending": 7011,
      "contrary": 7012,
      "title": 7013,
      "naturally": 7014,
      "transparent": 7015,
      "forth": 7016,
      "bol": 7017,
      "moving": 7018,
      "allowing": 7019,
      "visual": 7020,
      "chamber": 7021,
      "cc": 7022,
      "figures": 7023,
      "notice": 7024,
      "wit": 7025,
      "llig": 7026,
      "blood": 7027,
      "iles": 7028,
      "manager": 7029,
      "delight": 7030,
      "communities": 7031,
      "promis": 7032,
      "possibilities": 7033,
      "surface": 7034,
      "advertising": 7035,
      "election": 7036,
      "wishes": 7037,
      "viet": 7038,
      "luxury": 7039,
      "fruit": 7040,
      "glad": 7041,
      "african": 7042,
      "pic": 7043,
      "36": 7044,
      "expend": 7045,
      "sight": 7046,
      "bert": 7047,
      "europeans": 7048,
      "delic": 7049,
      "lam": 7050,
      "noon": 7051,
      "desire": 7052,
      "seek": 7053,
      "establishing": 7054,
      "reliable": 7055,
      "profession": 7056,
      "department": 7057,
      "appeal": 7058,
      "metro": 7059,
      "participate": 7060,
      "sides": 7061,
      "poly": 7062,
      "patent": 7063,
      "tasks": 7064,
      "citizen": 7065,
      "interface": 7066,
      "unacceptable": 7067,
      "turkish": 7068,
      "piece": 7069,
      "tests": 7070,
      "snow": 7071,
      "privacy": 7072,
      "ai": 7073,
      "pac": 7074,
      "blog": 7075,
      "greatest": 7076,
      "write": 7077,
      "fash": 7078,
      "cool": 7079,
      "correspond": 7080,
      "respective": 7081,
      "loo": 7082,
      "institution": 7083,
      "wash": 7084,
      "oppos": 7085,
      "kr": 7086,
      "extr": 7087,
      "continues": 7088,
      "restr": 7089,
      "seeing": 7090,
      "raise": 7091,
      "skills": 7092,
      "category": 7093,
      "device": 7094,
      "chain": 7095,
      "kore": 7096,
      "dipl": 7097,
      "closer": 7098,
      "irish": 7099,
      "installed": 7100,
      "prospect": 7101,
      "completed": 7102,
      "tenance": 7103,
      "zen": 7104,
      "divid": 7105,
      "journal": 7106,
      "flight": 7107,
      "definition": 7108,
      "charter": 7109,
      "strongly": 7110,
      "enables": 7111,
      "economies": 7112,
      "entitled": 7113,
      "stri": 7114,
      "dispos": 7115,
      "meters": 7116,
      "engineering": 7117,
      "elected": 7118,
      "vice": 7119,
      "amen": 7120,
      "notes": 7121,
      "liter": 7122,
      "1998": 7123,
      "concil": 7124,
      "extended": 7125,
      "ya": 7126,
      "sort": 7127,
      "cold": 7128,
      "artists": 7129,
      "route": 7130,
      "wealth": 7131,
      "sensitive": 7132,
      "individuals": 7133,
      "dedicated": 7134,
      "surrounding": 7135,
      "diplom": 7136,
      "fashion": 7137,
      "disease": 7138,
      "surrounded": 7139,
      "maintenance": 7140,
      "weapons": 7141,
      "unto": 7142,
      "exercise": 7143,
      "alliance": 7144,
      "hun": 7145,
      "sar": 7146,
      "wto": 7147,
      "ili": 7148,
      "pel": 7149,
      "75": 7150,
      "ukraine": 7151,
      "signal": 7152,
      "pm": 7153,
      "48": 7154,
      "totally": 7155,
      "honourable": 7156,
      "len": 7157,
      "cia": 7158,
      "cs": 7159,
      "prevention": 7160,
      "philo": 7161,
      "colour": 7162,
      "ensus": 7163,
      "enormous": 7164,
      "ugal": 7165,
      "chen": 7166,
      "payments": 7167,
      "buffet": 7168,
      "parent": 7169,
      "independence": 7170,
      "dp": 7171,
      "controls": 7172,
      "destroy": 7173,
      "registration": 7174,
      "photos": 7175,
      "fiscal": 7176,
      "intellig": 7177,
      "nether": 7178,
      "relaxing": 7179,
      "stands": 7180,
      "organised": 7181,
      "conclusions": 7182,
      "sched": 7183,
      "ilst": 7184,
      "residence": 7185,
      "whilst": 7186,
      "convinced": 7187,
      "granted": 7188,
      "inn": 7189,
      "ias": 7190,
      "iger": 7191,
      "onto": 7192,
      "turning": 7193,
      "grounds": 7194,
      "kosovo": 7195,
      "loun": 7196,
      "strength": 7197,
      "nar": 7198,
      "failed": 7199,
      "meant": 7200,
      "adapt": 7201,
      "revolution": 7202,
      "subsequ": 7203,
      "whate": 7204,
      "expression": 7205,
      "vehicle": 7206,
      "fraud": 7207,
      "heating": 7208,
      "accessible": 7209,
      "architect": 7210,
      "whatever": 7211,
      "eli": 7212,
      "approximately": 7213,
      "complain": 7214,
      "ione": 7215,
      "continuing": 7216,
      "edge": 7217,
      "greek": 7218,
      "renov": 7219,
      "existence": 7220,
      "shut": 7221,
      "vienna": 7222,
      "memor": 7223,
      "pension": 7224,
      "unable": 7225,
      "achieving": 7226,
      "trial": 7227,
      "factors": 7228,
      "recovery": 7229,
      "dete": 7230,
      "biggest": 7231,
      "croat": 7232,
      "appointed": 7233,
      "articles": 7234,
      "usual": 7235,
      "hostel": 7236,
      "advice": 7237,
      "laid": 7238,
      "attractions": 7239,
      "ambit": 7240,
      "arms": 7241,
      "perfectly": 7242,
      "afgh": 7243,
      "dynamic": 7244,
      "iron": 7245,
      "jac": 7246,
      "technological": 7247,
      "species": 7248,
      "aks": 7249,
      "aircraft": 7250,
      "zu": 7251,
      "cab": 7252,
      "intervention": 7253,
      "netherlands": 7254,
      "candidate": 7255,
      "theat": 7256,
      "eye": 7257,
      "reve": 7258,
      "testing": 7259,
      "susp": 7260,
      "palestinian": 7261,
      "lord": 7262,
      "contemporary": 7263,
      "physical": 7264,
      "liability": 7265,
      "governance": 7266,
      "outstanding": 7267,
      "commitments": 7268,
      "chosen": 7269,
      "satellite": 7270,
      "ambitious": 7271,
      "philosoph": 7272,
      "participants": 7273,
      "push": 7274,
      "apers": 7275,
      "ero": 7276,
      "conditioning": 7277,
      "limits": 7278,
      "examples": 7279,
      "rightly": 7280,
      "declaration": 7281,
      "contents": 7282,
      "label": 7283,
      "someone": 7284,
      "executive": 7285,
      "eight": 7286,
      "fal": 7287,
      "ume": 7288,
      "portugal": 7289,
      "sac": 7290,
      "tried": 7291,
      "multiple": 7292,
      "cheap": 7293,
      "provin": 7294,
      "neu": 7295,
      "institute": 7296,
      "ht": 7297,
      "reserve": 7298,
      "ae": 7299,
      "nearly": 7300,
      "holding": 7301,
      "reci": 7302,
      "latin": 7303,
      "outcome": 7304,
      "gone": 7305,
      "sie": 7306,
      "enger": 7307,
      "fuel": 7308,
      "obligations": 7309,
      "vereign": 7310,
      "explan": 7311,
      "license": 7312,
      "sovereign": 7313,
      "dele": 7314,
      "surv": 7315,
      "df": 7316,
      "casino": 7317,
      "mechanism": 7318,
      "truth": 7319,
      "sant": 7320,
      "battle": 7321,
      "bing": 7322,
      "pact": 7323,
      "instruct": 7324,
      "drin": 7325,
      "cancell": 7326,
      "successfully": 7327,
      "afghan": 7328,
      "atlantic": 7329,
      "bars": 7330,
      "male": 7331,
      "abil": 7332,
      "bringing": 7333,
      "constantly": 7334,
      "bill": 7335,
      "defic": 7336,
      "occasion": 7337,
      "phen": 7338,
      "assign": 7339,
      "qualified": 7340,
      "zy": 7341,
      "contained": 7342,
      "magn": 7343,
      "skin": 7344,
      "approval": 7345,
      "budgets": 7346,
      "dor": 7347,
      "ries": 7348,
      "cash": 7349,
      "38": 7350,
      "putting": 7351,
      "semin": 7352,
      "compliance": 7353,
      "appl": 7354,
      "manufacturing": 7355,
      "factor": 7356,
      "thening": 7357,
      "rence": 7358,
      "phase": 7359,
      "industries": 7360,
      "asking": 7361,
      "library": 7362,
      "colleague": 7363,
      "advent": 7364,
      "aza": 7365,
      "rep": 7366,
      "previously": 7367,
      "hill": 7368,
      "distin": 7369,
      "interpret": 7370,
      "named": 7371,
      "austrian": 7372,
      "grade": 7373,
      "landscape": 7374,
      "deposit": 7375,
      "jun": 7376,
      "recommendations": 7377,
      "expenditure": 7378,
      "cycle": 7379,
      "texts": 7380,
      "binding": 7381,
      "situations": 7382,
      "advantages": 7383,
      "amongst": 7384,
      "flat": 7385,
      "creative": 7386,
      "extend": 7387,
      "heritage": 7388,
      "strengthening": 7389,
      "driving": 7390,
      "planned": 7391,
      "targets": 7392,
      "nos": 7393,
      "furnished": 7394,
      "identity": 7395,
      "territor": 7396,
      "remove": 7397,
      "employed": 7398,
      "mini": 7399,
      "patients": 7400,
      "ulations": 7401,
      "guaranteed": 7402,
      "jur": 7403,
      "abol": 7404,
      "consensus": 7405,
      "filled": 7406,
      "submit": 7407,
      "iding": 7408,
      "merely": 7409,
      "98": 7410,
      "expensive": 7411,
      "classic": 7412,
      "album": 7413,
      "suites": 7414,
      "waiting": 7415,
      "stim": 7416,
      "iques": 7417,
      "proportion": 7418,
      "faces": 7419,
      "seeking": 7420,
      "john": 7421,
      "pleasure": 7422,
      "iff": 7423,
      "veget": 7424,
      "smaller": 7425,
      "substantial": 7426,
      "versions": 7427,
      "palace": 7428,
      "pros": 7429,
      "evaluation": 7430,
      "consistent": 7431,
      "ij": 7432,
      "personally": 7433,
      "holders": 7434,
      "elimin": 7435,
      "acting": 7436,
      "disposal": 7437,
      "33": 7438,
      "trail": 7439,
      "fan": 7440,
      "1997": 7441,
      "domain": 7442,
      "intention": 7443,
      "matic": 7444,
      "ticket": 7445,
      "universal": 7446,
      "stal": 7447,
      "withdraw": 7448,
      "corrup": 7449,
      "audi": 7450,
      "iar": 7451,
      "depending": 7452,
      "consists": 7453,
      "lets": 7454,
      "consolid": 7455,
      "resulting": 7456,
      "birth": 7457,
      "leis": 7458,
      "appoint": 7459,
      "determined": 7460,
      "spaces": 7461,
      "incorpor": 7462,
      "schools": 7463,
      "primary": 7464,
      "nine": 7465,
      "thereby": 7466,
      "leads": 7467,
      "slight": 7468,
      "waters": 7469,
      "jam": 7470,
      "entertainment": 7471,
      "responsibilities": 7472,
      "lob": 7473,
      "braz": 7474,
      "intellect": 7475,
      "defend": 7476,
      "htt": 7477,
      "retain": 7478,
      "stations": 7479,
      "causes": 7480,
      "spot": 7481,
      "metal": 7482,
      "harm": 7483,
      "boat": 7484,
      "dvd": 7485,
      "competence": 7486,
      "newsp": 7487,
      "solar": 7488,
      "clim": 7489,
      "deut": 7490,
      "kilome": 7491,
      "safeguard": 7492,
      "diversity": 7493,
      "switch": 7494,
      "lights": 7495,
      "looks": 7496,
      "cypr": 7497,
      "mol": 7498,
      "carbon": 7499,
      "lose": 7500,
      "wild": 7501,
      "ifications": 7502,
      "conclude": 7503,
      "wait": 7504,
      "attacks": 7505,
      "parame": 7506,
      "entially": 7507,
      "tours": 7508,
      "poker": 7509,
      "balcon": 7510,
      "automatic": 7511,
      "cha": 7512,
      "gap": 7513,
      "heavy": 7514,
      "sweden": 7515,
      "enn": 7516,
      "decades": 7517,
      "turned": 7518,
      "brings": 7519,
      "draf": 7520,
      "constant": 7521,
      "faced": 7522,
      "iced": 7523,
      "primarily": 7524,
      "heads": 7525,
      "trib": 7526,
      "chairman": 7527,
      "corner": 7528,
      "ios": 7529,
      "vulner": 7530,
      "34": 7531,
      "adequate": 7532,
      "copyright": 7533,
      "unders": 7534,
      "vene": 7535,
      "bloc": 7536,
      "dic": 7537,
      "investments": 7538,
      "talks": 7539,
      "99": 7540,
      "customs": 7541,
      "addressed": 7542,
      "tag": 7543,
      "mutual": 7544,
      "endor": 7545,
      "frag": 7546,
      "dollar": 7547,
      "onia": 7548,
      "exception": 7549,
      "psy": 7550,
      "drugs": 7551,
      "wear": 7552,
      "accounts": 7553,
      "idential": 7554,
      "tos": 7555,
      "discussing": 7556,
      "manufacturers": 7557,
      "oring": 7558,
      "inations": 7559,
      "visa": 7560,
      "nom": 7561,
      "alia": 7562,
      "fourth": 7563,
      "evol": 7564,
      "browser": 7565,
      "rental": 7566,
      "gor": 7567,
      "tend": 7568,
      "romania": 7569,
      "leisure": 7570,
      "400": 7571,
      "150": 7572,
      "alter": 7573,
      "dutch": 7574,
      "leadership": 7575,
      "delegation": 7576,
      "pill": 7577,
      "37": 7578,
      "panor": 7579,
      "pir": 7580,
      "preced": 7581,
      "fing": 7582,
      "acted": 7583,
      "uting": 7584,
      "kinds": 7585,
      "burden": 7586,
      "awa": 7587,
      "congress": 7588,
      "requested": 7589,
      "presentation": 7590,
      "controlled": 7591,
      "microsoft": 7592,
      "output": 7593,
      "fat": 7594,
      "delive": 7595,
      "magaz": 7596,
      "mex": 7597,
      "fon": 7598,
      "consultation": 7599,
      "umin": 7600,
      "army": 7601,
      "default": 7602,
      "gender": 7603,
      "abs": 7604,
      "opposite": 7605,
      "urge": 7606,
      "capt": 7607,
      "speakers": 7608,
      "treated": 7609,
      "reply": 7610,
      "shape": 7611,
      "brazil": 7612,
      "reven": 7613,
      "felt": 7614,
      "oth": 7615,
      "compatible": 7616,
      "represented": 7617,
      "delivered": 7618,
      "ali": 7619,
      "unanim": 7620,
      "mechanisms": 7621,
      "finding": 7622,
      "mobility": 7623,
      "http": 7624,
      "websites": 7625,
      "centres": 7626,
      "sold": 7627,
      "hospit": 7628,
      "equally": 7629,
      "flu": 7630,
      "refugees": 7631,
      "py": 7632,
      "dealt": 7633,
      "pin": 7634,
      "igno": 7635,
      "feeling": 7636,
      "fleet": 7637,
      "bedroom": 7638,
      "pick": 7639,
      "goog": 7640,
      "repeated": 7641,
      "amaz": 7642,
      "improvements": 7643,
      "compensation": 7644,
      "imper": 7645,
      "quarter": 7646,
      "besides": 7647,
      "rare": 7648,
      "units": 7649,
      "conciliation": 7650,
      "volume": 7651,
      "straight": 7652,
      "destru": 7653,
      "fers": 7654,
      "complic": 7655,
      "recommended": 7656,
      "miss": 7657,
      "consci": 7658,
      "bran": 7659,
      "onom": 7660,
      "egy": 7661,
      "royal": 7662,
      "error": 7663,
      "dep": 7664,
      "noise": 7665,
      "compe": 7666,
      "extension": 7667,
      "planet": 7668,
      "google": 7669,
      "lounge": 7670,
      "helping": 7671,
      "division": 7672,
      "significantly": 7673,
      "runs": 7674,
      "edition": 7675,
      "older": 7676,
      "moved": 7677,
      "charming": 7678,
      "requests": 7679,
      "referen": 7680,
      "engers": 7681,
      "stein": 7682,
      "publish": 7683,
      "trees": 7684,
      "covers": 7685,
      "exceed": 7686,
      "sanctions": 7687,
      "atically": 7688,
      "nik": 7689,
      "launched": 7690,
      "fighting": 7691,
      "gos": 7692,
      "charges": 7693,
      "experiences": 7694,
      "labe": 7695,
      "insist": 7696,
      "streets": 7697,
      "dav": 7698,
      "obligation": 7699,
      "directives": 7700,
      "supplement": 7701,
      "195": 7702,
      "attitude": 7703,
      "ador": 7704,
      "marit": 7705,
      "dinner": 7706,
      "estim": 7707,
      "prize": 7708,
      "furniture": 7709,
      "umn": 7710,
      "furt": 7711,
      "chap": 7712,
      "rot": 7713,
      "flash": 7714,
      "applicable": 7715,
      "aside": 7716,
      "acking": 7717,
      "knows": 7718,
      "ets": 7719,
      "combating": 7720,
      "php": 7721,
      "anne": 7722,
      "taxes": 7723,
      "ov": 7724,
      "isol": 7725,
      "destination": 7726,
      "renewable": 7727,
      "locations": 7728,
      "expertise": 7729,
      "objects": 7730,
      "drop": 7731,
      "operators": 7732,
      "ults": 7733,
      "anda": 7734,
      "supervis": 7735,
      "wered": 7736,
      "1996": 7737,
      "rejected": 7738,
      "weather": 7739,
      "visible": 7740,
      "politicians": 7741,
      "jection": 7742,
      "gallery": 7743,
      "kit": 7744,
      "eases": 7745,
      "01": 7746,
      "39": 7747,
      "heat": 7748,
      "1990": 7749,
      "settings": 7750,
      "afford": 7751,
      "peoples": 7752,
      "kir": 7753,
      "contrast": 7754,
      "barri": 7755,
      "temperature": 7756,
      "discovered": 7757,
      "roo": 7758,
      "substances": 7759,
      "recognise": 7760,
      "emphasis": 7761,
      "fee": 7762,
      "dark": 7763,
      "ari": 7764,
      "outdoor": 7765,
      "diag": 7766,
      "password": 7767,
      "latter": 7768,
      "millions": 7769,
      "dur": 7770,
      "ological": 7771,
      "akes": 7772,
      "egypt": 7773,
      "healthy": 7774,
      "solve": 7775,
      "oman": 7776,
      "quir": 7777,
      "scan": 7778,
      "expectations": 7779,
      "stuff": 7780,
      "producing": 7781,
      "appeared": 7782,
      "dishes": 7783,
      "ona": 7784,
      "autom": 7785,
      "carri": 7786,
      "handling": 7787,
      "iel": 7788,
      "passengers": 7789,
      "ox": 7790,
      "pak": 7791,
      "bedrooms": 7792,
      "das": 7793,
      "prop": 7794,
      "mine": 7795,
      "globalisation": 7796,
      "emphasise": 7797,
      "comply": 7798,
      "holds": 7799,
      "ugu": 7800,
      "simplif": 7801,
      "stad": 7802,
      "vast": 7803,
      "helps": 7804,
      "resolve": 7805,
      "consequently": 7806,
      "journey": 7807,
      "figure": 7808,
      "asing": 7809,
      "definite": 7810,
      "ultimately": 7811,
      "disaster": 7812,
      "exists": 7813,
      "fasc": 7814,
      "diseases": 7815,
      "auf": 7816,
      "proud": 7817,
      "relatively": 7818,
      "suffering": 7819,
      "repeat": 7820,
      "munich": 7821,
      "dining": 7822,
      "info": 7823,
      "plicit": 7824,
      "disabled": 7825,
      "leaving": 7826,
      "arrangements": 7827,
      "entered": 7828,
      "graphical": 7829,
      "disci": 7830,
      "apparent": 7831,
      "servers": 7832,
      "arrest": 7833,
      "meat": 7834,
      "95": 7835,
      "enhance": 7836,
      "upper": 7837,
      "offices": 7838,
      "wellness": 7839,
      "mont": 7840,
      "gence": 7841,
      "faith": 7842,
      "collective": 7843,
      "obst": 7844,
      "nd": 7845,
      "gran": 7846,
      "recognised": 7847,
      "fitness": 7848,
      "painting": 7849,
      "abling": 7850,
      "enses": 7851,
      "sql": 7852,
      "alco": 7853,
      "involving": 7854,
      "plate": 7855,
      "appreciate": 7856,
      "confirmed": 7857,
      "pra": 7858,
      "bird": 7859,
      "saint": 7860,
      "georg": 7861,
      "bureaucr": 7862,
      "ulty": 7863,
      "97": 7864,
      "exclusively": 7865,
      "protecting": 7866,
      "bom": 7867,
      "ules": 7868,
      "rol": 7869,
      "hat": 7870,
      "flag": 7871,
      "valuable": 7872,
      "treaties": 7873,
      "prosper": 7874,
      "hen": 7875,
      "raw": 7876,
      "gardens": 7877,
      "ology": 7878,
      "warrant": 7879,
      "criticism": 7880,
      "44": 7881,
      "rob": 7882,
      "happens": 7883,
      "incent": 7884,
      "calcul": 7885,
      "parents": 7886,
      "sauna": 7887,
      "fantastic": 7888,
      "cohe": 7889,
      "fulfil": 7890,
      "eva": 7891,
      "remote": 7892,
      "bug": 7893,
      "hence": 7894,
      "thorough": 7895,
      "iny": 7896,
      "polish": 7897,
      "recommendation": 7898,
      "virtual": 7899,
      "atures": 7900,
      "wirel": 7901,
      "bic": 7902,
      "compr": 7903,
      "provider": 7904,
      "reaching": 7905,
      "engage": 7906,
      "eyes": 7907,
      "deplo": 7908,
      "termine": 7909,
      "cable": 7910,
      "phr": 7911,
      "gment": 7912,
      "cutting": 7913,
      "strugg": 7914,
      "wireless": 7915,
      "exceptional": 7916,
      "obtained": 7917,
      "settlement": 7918,
      "gdp": 7919,
      "opposed": 7920,
      "chi": 7921,
      "contracts": 7922,
      "gers": 7923,
      "helped": 7924,
      "invent": 7925,
      "util": 7926,
      "familiar": 7927,
      "ria": 7928,
      "constructive": 7929,
      "interior": 7930,
      "aves": 7931,
      "illustr": 7932,
      "determine": 7933,
      "coal": 7934,
      "involvement": 7935,
      "preparation": 7936,
      "officials": 7937,
      "cos": 7938,
      "enforce": 7939,
      "trek": 7940,
      "spectac": 7941,
      "swedish": 7942,
      "prev": 7943,
      "define": 7944,
      "volunt": 7945,
      "belar": 7946,
      "96": 7947,
      "explore": 7948,
      "courage": 7949,
      "oly": 7950,
      "awareness": 7951,
      "newly": 7952,
      "nato": 7953,
      "vak": 7954,
      "index": 7955,
      "string": 7956,
      "walls": 7957,
      "hardware": 7958,
      "rd": 7959,
      "thirdly": 7960,
      "operational": 7961,
      "organizations": 7962,
      "strategies": 7963,
      "increases": 7964,
      "navig": 7965,
      "largely": 7966,
      "discharge": 7967,
      "britain": 7968,
      "euros": 7969,
      "mobil": 7970,
      "obstac": 7971,
      "tickets": 7972,
      "seat": 7973,
      "afghanistan": 7974,
      "ethnic": 7975,
      "massive": 7976,
      "roof": 7977,
      "entre": 7978,
      "serves": 7979,
      "debates": 7980,
      "cleaning": 7981,
      "liberalisation": 7982,
      "bulgar": 7983,
      "contributions": 7984,
      "removed": 7985,
      "impressive": 7986,
      "transportation": 7987,
      "sleep": 7988,
      "für": 7989,
      "stake": 7990,
      "chief": 7991,
      "applause": 7992,
      "pattern": 7993,
      "favor": 7994,
      "mandate": 7995,
      "lobby": 7996,
      "hundreds": 7997,
      "artist": 7998,
      "amounts": 7999,
      "prohib": 8000,
      "drink": 8001,
      "ania": 8002,
      "és": 8003,
      "quot": 8004,
      "announce": 8005,
      "japanese": 8006,
      "formal": 8007,
      "properties": 8008,
      "vacation": 8009,
      "64": 8010,
      "ku": 8011,
      "printing": 8012,
      "ourg": 8013,
      "fax": 8014,
      "aught": 8015,
      "luxemb": 8016,
      "restrictions": 8017,
      "ros": 8018,
      "witness": 8019,
      "rapporteurs": 8020,
      "drawing": 8021,
      "socialist": 8022,
      "organized": 8023,
      "regulatory": 8024,
      "frequently": 8025,
      "rum": 8026,
      "costa": 8027,
      "inhabit": 8028,
      "emergency": 8029,
      "ör": 8030,
      "creates": 8031,
      "opinions": 8032,
      "tees": 8033,
      "depth": 8034,
      "resolutions": 8035,
      "ata": 8036,
      "listen": 8037,
      "legally": 8038,
      "happening": 8039,
      "trou": 8040,
      "owner": 8041,
      "accompan": 8042,
      "certific": 8043,
      "parliaments": 8044,
      "norm": 8045,
      "hof": 8046,
      "issued": 8047,
      "liqu": 8048,
      "driver": 8049,
      "croatia": 8050,
      "icted": 8051,
      "worse": 8052,
      "impression": 8053,
      "swe": 8054,
      "nights": 8055,
      "acquis": 8056,
      "frankfurt": 8057,
      "max": 8058,
      "connections": 8059,
      "maritime": 8060,
      "abroad": 8061,
      "secret": 8062,
      "bis": 8063,
      "doors": 8064,
      "mary": 8065,
      "remaining": 8066,
      "statistics": 8067,
      "bike": 8068,
      "kon": 8069,
      "rio": 8070,
      "gate": 8071,
      "enthus": 8072,
      "intellectual": 8073,
      "cure": 8074,
      "finished": 8075,
      "characteristics": 8076,
      "plen": 8077,
      "messages": 8078,
      "requirement": 8079,
      "maintained": 8080,
      "shado": 8081,
      "migration": 8082,
      "reported": 8083,
      "profile": 8084,
      "citing": 8085,
      "tedly": 8086,
      "monu": 8087,
      "functioning": 8088,
      "resolved": 8089,
      "champion": 8090,
      "couple": 8091,
      "aband": 8092,
      "pieces": 8093,
      "jer": 8094,
      "inge": 8095,
      "aca": 8096,
      "roads": 8097,
      "mc": 8098,
      "55": 8099,
      "assure": 8100,
      "fly": 8101,
      "expan": 8102,
      "belarus": 8103,
      "functional": 8104,
      "doesn": 8105,
      "identify": 8106,
      "depends": 8107,
      "dram": 8108,
      "quis": 8109,
      "apo": 8110,
      "conflicts": 8111,
      "intend": 8112,
      "regularly": 8113,
      "renovated": 8114,
      "vig": 8115,
      "hagen": 8116,
      "lif": 8117,
      "olymp": 8118,
      "bulgaria": 8119,
      "slovak": 8120,
      "career": 8121,
      "certainty": 8122,
      "configuration": 8123,
      "bottom": 8124,
      "returned": 8125,
      "discipl": 8126,
      "pped": 8127,
      "ende": 8128,
      "miles": 8129,
      "welfare": 8130,
      "woman": 8131,
      "toler": 8132,
      "het": 8133,
      "tran": 8134,
      "oce": 8135,
      "reserves": 8136,
      "sexual": 8137,
      "comed": 8138,
      "ience": 8139,
      "friday": 8140,
      "divided": 8141,
      "kur": 8142,
      "ulating": 8143,
      "judicial": 8144,
      "intensive": 8145,
      "ula": 8146,
      "minority": 8147,
      "lip": 8148,
      "topic": 8149,
      "vat": 8150,
      "roma": 8151,
      "electricity": 8152,
      "reveal": 8153,
      "remark": 8154,
      "finish": 8155,
      "commerce": 8156,
      "ateful": 8157,
      "performed": 8158,
      "pakistan": 8159,
      "meps": 8160,
      "contacts": 8161,
      "tood": 8162,
      "documentation": 8163,
      "dates": 8164,
      "investors": 8165,
      "mou": 8166,
      "joined": 8167,
      "understood": 8168,
      "satur": 8169,
      "committees": 8170,
      "facilitate": 8171,
      "colon": 8172,
      "yu": 8173,
      "lovely": 8174,
      "eld": 8175,
      "stig": 8176,
      "mostly": 8177,
      "pdf": 8178,
      "ares": 8179,
      "asts": 8180,
      "supposed": 8181,
      "realistic": 8182,
      "intent": 8183,
      "passenger": 8184,
      "focused": 8185,
      "phenomen": 8186,
      "theme": 8187,
      "ils": 8188,
      "exit": 8189,
      "exem": 8190,
      "surroundings": 8191,
      "sad": 8192,
      "symp": 8193,
      "idden": 8194,
      "bright": 8195,
      "balk": 8196,
      "inser": 8197,
      "firms": 8198,
      "answers": 8199,
      "plug": 8200,
      "decorated": 8201,
      "canada": 8202,
      "conducted": 8203,
      "updated": 8204,
      "abandon": 8205,
      "rub": 8206,
      "elev": 8207,
      "facility": 8208,
      "deals": 8209,
      "balcony": 8210,
      "horse": 8211,
      "luxembourg": 8212,
      "49": 8213,
      "ingu": 8214,
      "drivers": 8215,
      "cyprus": 8216,
      "freedoms": 8217,
      "trafficking": 8218,
      "irect": 8219,
      "bush": 8220,
      "pollution": 8221,
      "somewhat": 8222,
      "resistance": 8223,
      "lich": 8224,
      "productive": 8225,
      "exc": 8226,
      "maintaining": 8227,
      "poo": 8228,
      "speaker": 8229,
      "faster": 8230,
      "demanding": 8231,
      "lists": 8232,
      "wines": 8233,
      "personnel": 8234,
      "displayed": 8235,
      "corruption": 8236,
      "tourists": 8237,
      "techniques": 8238,
      "chron": 8239,
      "complement": 8240,
      "oured": 8241,
      "terrorist": 8242,
      "alcohol": 8243,
      "disk": 8244,
      "flights": 8245,
      "smes": 8246,
      "tables": 8247,
      "wro": 8248,
      "follows": 8249,
      "noted": 8250,
      "portugu": 8251,
      "accompanied": 8252,
      "insp": 8253,
      "tri": 8254,
      "washing": 8255,
      "warning": 8256,
      "correctly": 8257,
      "munic": 8258,
      "effectiveness": 8259,
      "inflation": 8260,
      "entrance": 8261,
      "expansion": 8262,
      "magnific": 8263,
      "ore": 8264,
      "input": 8265,
      "dum": 8266,
      "ump": 8267,
      "moral": 8268,
      "educational": 8269,
      "hone": 8270,
      "47": 8271,
      "2020": 8272,
      "wan": 8273,
      "theatre": 8274,
      "surely": 8275,
      "signs": 8276,
      "municip": 8277,
      "worry": 8278,
      "leged": 8279,
      "invite": 8280,
      "1995": 8281,
      "grateful": 8282,
      "intergovernmental": 8283,
      "visiting": 8284,
      "tower": 8285,
      "65": 8286,
      "banking": 8287,
      "facts": 8288,
      "relaxation": 8289,
      "08": 8290,
      "paralle": 8291,
      "modu": 8292,
      "engen": 8293,
      "subsidies": 8294,
      "korea": 8295,
      "script": 8296,
      "arts": 8297,
      "muslim": 8298,
      "falls": 8299,
      "israeli": 8300,
      "collaboration": 8301,
      "lift": 8302,
      "detect": 8303,
      "visited": 8304,
      "caf": 8305,
      "towns": 8306,
      "sugar": 8307,
      "inhabitants": 8308,
      "starts": 8309,
      "portuguese": 8310,
      "football": 8311,
      "arrive": 8312,
      "satisfied": 8313,
      "broadcast": 8314,
      "packaging": 8315,
      "channels": 8316,
      "movie": 8317,
      "widely": 8318,
      "ancy": 8319,
      "tery": 8320,
      "indicated": 8321,
      "corresponding": 8322,
      "zur": 8323,
      "thumb": 8324,
      "catch": 8325,
      "reservations": 8326,
      "boot": 8327,
      "gb": 8328,
      "stylish": 8329,
      "federation": 8330,
      "delighted": 8331,
      "considering": 8332,
      "careful": 8333,
      "accident": 8334,
      "module": 8335,
      "stars": 8336,
      "mel": 8337,
      "attend": 8338,
      "promises": 8339,
      "genet": 8340,
      "aces": 8341,
      "films": 8342,
      "aria": 8343,
      "uries": 8344,
      "declared": 8345,
      "competent": 8346,
      "formed": 8347,
      "tea": 8348,
      "actively": 8349,
      "imposed": 8350,
      "scheme": 8351,
      "ici": 8352,
      "superi": 8353,
      "afternoon": 8354,
      "iled": 8355,
      "consulting": 8356,
      "involves": 8357,
      "presents": 8358,
      "kel": 8359,
      "showing": 8360,
      "det": 8361,
      "ita": 8362,
      "ancing": 8363,
      "jack": 8364,
      "appearance": 8365,
      "diction": 8366,
      "bell": 8367,
      "autonom": 8368,
      "hum": 8369,
      "ache": 8370,
      "lots": 8371,
      "exciting": 8372,
      "ola": 8373,
      "tennis": 8374,
      "stored": 8375,
      "managing": 8376,
      "inal": 8377,
      "winning": 8378,
      "possibly": 8379,
      "boost": 8380,
      "died": 8381,
      "demonstrate": 8382,
      "baltic": 8383,
      "distingu": 8384,
      "spoken": 8385,
      "cking": 8386,
      "demonstrated": 8387,
      "ule": 8388,
      "ene": 8389,
      "eat": 8390,
      "twenty": 8391,
      "shipping": 8392,
      "courts": 8393,
      "eventually": 8394,
      "inspe": 8395,
      "satisfaction": 8396,
      "airlines": 8397,
      "crimes": 8398,
      "dal": 8399,
      "lou": 8400,
      "bilateral": 8401,
      "emerging": 8402,
      "minorities": 8403,
      "baby": 8404,
      "ongoing": 8405,
      "interpre": 8406,
      "contrad": 8407,
      "iner": 8408,
      "spectacular": 8409,
      "cosy": 8410,
      "iano": 8411,
      "oriented": 8412,
      "adopting": 8413,
      "editor": 8414,
      "brother": 8415,
      "actors": 8416,
      "authen": 8417,
      "soviet": 8418,
      "cm": 8419,
      "silver": 8420,
      "justified": 8421,
      "looked": 8422,
      "theory": 8423,
      "professionals": 8424,
      "destruction": 8425,
      "kyo": 8426,
      "apy": 8427,
      "undertaking": 8428,
      "copen": 8429,
      "awarded": 8430,
      "concluded": 8431,
      "recorded": 8432,
      "behaviour": 8433,
      "targe": 8434,
      "graphy": 8435,
      "motiv": 8436,
      "assets": 8437,
      "proven": 8438,
      "immigrants": 8439,
      "kin": 8440,
      "prague": 8441,
      "superior": 8442,
      "secretary": 8443,
      "luxur": 8444,
      "sharing": 8445,
      "tric": 8446,
      "desired": 8447,
      "societ": 8448,
      "patient": 8449,
      "explicit": 8450,
      "regarded": 8451,
      "copenhagen": 8452,
      "province": 8453,
      "slav": 8454,
      "renown": 8455,
      "tree": 8456,
      "68": 8457,
      "containing": 8458,
      "taxation": 8459,
      "app": 8460,
      "partly": 8461,
      "hungary": 8462,
      "supplier": 8463,
      "suppliers": 8464,
      "icon": 8465,
      "whereas": 8466,
      "extraordinary": 8467,
      "igen": 8468,
      "subsidiarity": 8469,
      "fold": 8470,
      "housing": 8471,
      "flood": 8472,
      "musical": 8473,
      "component": 8474,
      "phrase": 8475,
      "stabil": 8476,
      "schengen": 8477,
      "routes": 8478,
      "assum": 8479,
      "artistic": 8480,
      "dependent": 8481,
      "distributed": 8482,
      "providers": 8483,
      "sending": 8484,
      "tobac": 8485,
      "beat": 8486,
      "compact": 8487,
      "determination": 8488,
      "transactions": 8489,
      "originally": 8490,
      "saving": 8491,
      "parad": 8492,
      "cies": 8493,
      "manufacturer": 8494,
      "exec": 8495,
      "assume": 8496,
      "hl": 8497,
      "milk": 8498,
      "vary": 8499,
      "plenty": 8500,
      "smooth": 8501,
      "belief": 8502,
      "respected": 8503,
      "lag": 8504,
      "tackle": 8505,
      "philosophy": 8506,
      "shares": 8507,
      "05": 8508,
      "stick": 8509,
      "edia": 8510,
      "concep": 8511,
      "nament": 8512,
      "tast": 8513,
      "rapidly": 8514,
      "legitimate": 8515,
      "replaced": 8516,
      "centuries": 8517,
      "belgium": 8518,
      "voluntary": 8519,
      "occasions": 8520,
      "overcome": 8521,
      "conce": 8522,
      "directory": 8523,
      "radical": 8524,
      "trend": 8525,
      "07": 8526,
      "riv": 8527,
      "golden": 8528,
      "authentic": 8529,
      "lined": 8530,
      "addresses": 8531,
      "madrid": 8532,
      "cycling": 8533,
      "consent": 8534,
      "ecu": 8535,
      "mexico": 8536,
      "weekend": 8537,
      "inclusion": 8538,
      "stronger": 8539,
      "scene": 8540,
      "makers": 8541,
      "cathe": 8542,
      "trips": 8543,
      "selling": 8544,
      "panel": 8545,
      "premium": 8546,
      "identified": 8547,
      "credibility": 8548,
      "imagine": 8549,
      "nationally": 8550,
      "magnificent": 8551,
      "interpretation": 8552,
      "tobacco": 8553,
      "encouraging": 8554,
      "scand": 8555,
      "plenary": 8556,
      "endorse": 8557,
      "clubs": 8558,
      "updates": 8559,
      "09": 8560,
      "plays": 8561,
      "thousand": 8562,
      "quarters": 8563,
      "everybody": 8564,
      "hungarian": 8565,
      "lunch": 8566,
      "ride": 8567,
      "preparing": 8568,
      "ara": 8569,
      "resource": 8570,
      "definitely": 8571,
      "retail": 8572,
      "fered": 8573,
      "dign": 8574,
      "46": 8575,
      "argument": 8576,
      "representation": 8577,
      "para": 8578,
      "fisher": 8579,
      "regardless": 8580,
      "iders": 8581,
      "wheel": 8582,
      "blan": 8583,
      "3d": 8584,
      "owned": 8585,
      "generated": 8586,
      "hael": 8587,
      "ranging": 8588,
      "cock": 8589,
      "narrow": 8590,
      "opera": 8591,
      "auditors": 8592,
      "thurs": 8593,
      "horiz": 8594,
      "nonetheless": 8595,
      "adults": 8596,
      "organic": 8597,
      "tight": 8598,
      "rating": 8599,
      "03": 8600,
      "forests": 8601,
      "lod": 8602,
      "marine": 8603,
      "elsewhere": 8604,
      "plastic": 8605,
      "42": 8606,
      "honest": 8607,
      "wis": 8608,
      "applying": 8609,
      "paul": 8610,
      "filter": 8611,
      "haus": 8612,
      "decisive": 8613,
      "slightly": 8614,
      "decre": 8615,
      "romantic": 8616,
      "concepts": 8617,
      "smart": 8618,
      "clin": 8619,
      "stic": 8620,
      "wrote": 8621,
      "luxurious": 8622,
      "defect": 8623,
      "clic": 8624,
      "drag": 8625,
      "restruct": 8626,
      "proposes": 8627,
      "judge": 8628,
      "lessons": 8629,
      "ops": 8630,
      "teams": 8631,
      "ido": 8632,
      "carrying": 8633,
      "everyday": 8634,
      "substance": 8635,
      "skill": 8636,
      "skiing": 8637,
      "examine": 8638,
      "armed": 8639,
      "accurate": 8640,
      "supplies": 8641,
      "subs": 8642,
      "departure": 8643,
      "2011": 8644,
      "haz": 8645,
      "duties": 8646,
      "uster": 8647,
      "appointment": 8648,
      "ora": 8649,
      "privi": 8650,
      "rev": 8651,
      "cuts": 8652,
      "tho": 8653,
      "ek": 8654,
      "renowned": 8655,
      "hus": 8656,
      "subjects": 8657,
      "lasting": 8658,
      "lugg": 8659,
      "ensures": 8660,
      "abuse": 8661,
      "savings": 8662,
      "religion": 8663,
      "wid": 8664,
      "magazine": 8665,
      "deficit": 8666,
      "800": 8667,
      "inated": 8668,
      "claimed": 8669,
      "homes": 8670,
      "excessive": 8671,
      "600": 8672,
      "maybe": 8673,
      "diverse": 8674,
      "villages": 8675,
      "cis": 8676,
      "solely": 8677,
      "traditions": 8678,
      "topics": 8679,
      "rational": 8680,
      "legitim": 8681,
      "exports": 8682,
      "llers": 8683,
      "rising": 8684,
      "bonus": 8685,
      "sunday": 8686,
      "oub": 8687,
      "gra": 8688,
      "prestig": 8689,
      "proposing": 8690,
      "attempts": 8691,
      "absence": 8692,
      "aqu": 8693,
      "illa": 8694,
      "strain": 8695,
      "santa": 8696,
      "bourg": 8697,
      "ppe": 8698,
      "tres": 8699,
      "celer": 8700,
      "colours": 8701,
      "cad": 8702,
      "attrib": 8703,
      "uniform": 8704,
      "layer": 8705,
      "unity": 8706,
      "fabric": 8707,
      "html": 8708,
      "continuous": 8709,
      "vulnerable": 8710,
      "agers": 8711,
      "chat": 8712,
      "factory": 8713,
      "fifth": 8714,
      "tested": 8715,
      "dog": 8716,
      "ida": 8717,
      "sud": 8718,
      "06": 8719,
      "gul": 8720,
      "reput": 8721,
      "england": 8722,
      "mos": 8723,
      "diagno": 8724,
      "asser": 8725,
      "sheet": 8726,
      "drinks": 8727,
      "programming": 8728,
      "specified": 8729,
      "revision": 8730,
      "excur": 8731,
      "massage": 8732,
      "passion": 8733,
      "prene": 8734,
      "impose": 8735,
      "farming": 8736,
      "thursday": 8737,
      "thermal": 8738,
      "aviation": 8739,
      "portfol": 8740,
      "cancer": 8741,
      "aci": 8742,
      "phones": 8743,
      "reserved": 8744,
      "overview": 8745,
      "complicated": 8746,
      "suggestions": 8747,
      "ius": 8748,
      "deter": 8749,
      "entreprene": 8750,
      "museums": 8751,
      "records": 8752,
      "politically": 8753,
      "reaction": 8754,
      "iii": 8755,
      "zim": 8756,
      "enabled": 8757,
      "kom": 8758,
      "concert": 8759,
      "hur": 8760,
      "peter": 8761,
      "gained": 8762,
      "acknowledge": 8763,
      "fans": 8764,
      "eads": 8765,
      "equival": 8766,
      "breach": 8767,
      "comparison": 8768,
      "icing": 8769,
      "countryside": 8770,
      "arrived": 8771,
      "liquid": 8772,
      "isa": 8773,
      "adding": 8774,
      "paying": 8775,
      "lor": 8776,
      "ander": 8777,
      "mental": 8778,
      "acp": 8779,
      "introducing": 8780,
      "greatly": 8781,
      "02": 8782,
      "invited": 8783,
      "1st": 8784,
      "alex": 8785,
      "vine": 8786,
      "receiving": 8787,
      "hamburg": 8788,
      "nail": 8789,
      "pad": 8790,
      "confirmation": 8791,
      "ava": 8792,
      "acceler": 8793,
      "unforget": 8794,
      "enabling": 8795,
      "kee": 8796,
      "specialist": 8797,
      "shadow": 8798,
      "sounds": 8799,
      "rical": 8800,
      "permitted": 8801,
      "tam": 8802,
      "sustainability": 8803,
      "missing": 8804,
      "indirect": 8805,
      "ifies": 8806,
      "handle": 8807,
      "hydro": 8808,
      "flows": 8809,
      "delicious": 8810,
      "anony": 8811,
      "monday": 8812,
      "societies": 8813,
      "pursue": 8814,
      "wider": 8815,
      "voy": 8816,
      "difficulty": 8817,
      "periods": 8818,
      "shuttle": 8819,
      "saf": 8820,
      "directed": 8821,
      "proceedings": 8822,
      "cathedr": 8823,
      "undoub": 8824,
      "toile": 8825,
      "suggested": 8826,
      "publication": 8827,
      "deploy": 8828,
      "instructions": 8829,
      "normally": 8830,
      "stun": 8831,
      "chip": 8832,
      "spoke": 8833,
      "arguments": 8834,
      "chapter": 8835,
      "sections": 8836,
      "harmonisation": 8837,
      "destroyed": 8838,
      "asian": 8839,
      "unes": 8840,
      "iring": 8841,
      "commissioners": 8842,
      "1994": 8843,
      "bc": 8844,
      "thy": 8845,
      "secut": 8846,
      "chant": 8847,
      "simult": 8848,
      "placing": 8849,
      "communist": 8850,
      "underground": 8851,
      "ral": 8852,
      "exclusion": 8853,
      "sett": 8854,
      "jes": 8855,
      "mouth": 8856,
      "root": 8857,
      "cere": 8858,
      "buds": 8859,
      "female": 8860,
      "eds": 8861,
      "collap": 8862,
      "cells": 8863,
      "constitute": 8864,
      "aughter": 8865,
      "gift": 8866,
      "iro": 8867,
      "prosperity": 8868,
      "co2": 8869,
      "imports": 8870,
      "ocean": 8871,
      "didn": 8872,
      "usb": 8873,
      "michael": 8874,
      "significance": 8875,
      "supervision": 8876,
      "enhanced": 8877,
      "promised": 8878,
      "simultane": 8879,
      "necessarily": 8880,
      "satisfactory": 8881,
      "tap": 8882,
      "enjoyed": 8883,
      "modules": 8884,
      "reconstruction": 8885,
      "leaves": 8886,
      "lived": 8887,
      "astron": 8888,
      "psycho": 8889,
      "sought": 8890,
      "accordingly": 8891,
      "negotiating": 8892,
      "pse": 8893,
      "iber": 8894,
      "medicine": 8895,
      "dance": 8896,
      "barro": 8897,
      "incident": 8898,
      "split": 8899,
      "cf": 8900,
      "dé": 8901,
      "universities": 8902,
      "refers": 8903,
      "contradict": 8904,
      "lastly": 8905,
      "expo": 8906,
      "pod": 8907,
      "cooperate": 8908,
      "stras": 8909,
      "labelling": 8910,
      "fees": 8911,
      "preventing": 8912,
      "killed": 8913,
      "wave": 8914,
      "obliged": 8915,
      "classes": 8916,
      "loy": 8917,
      "hd": 8918,
      "transmission": 8919,
      "characters": 8920,
      "repair": 8921,
      "hiking": 8922,
      "portal": 8923,
      "sd": 8924,
      "lia": 8925,
      "gather": 8926,
      "salz": 8927,
      "hardly": 8928,
      "alban": 8929,
      "trag": 8930,
      "luggage": 8931,
      "evident": 8932,
      "hospitality": 8933,
      "aven": 8934,
      "travelling": 8935,
      "margin": 8936,
      "referendum": 8937,
      "pit": 8938,
      "tz": 8939,
      "covering": 8940,
      "amazing": 8941,
      "manual": 8942,
      "ville": 8943,
      "guided": 8944,
      "generate": 8945,
      "unlike": 8946,
      "neighb": 8947,
      "unforgettable": 8948,
      "tries": 8949,
      "04": 8950,
      "andre": 8951,
      "horizon": 8952,
      "yer": 8953,
      "revis": 8954,
      "85": 8955,
      "gio": 8956,
      "usage": 8957,
      "intens": 8958,
      "student": 8959,
      "posing": 8960,
      "nur": 8961,
      "finland": 8962,
      "videos": 8963,
      "stret": 8964,
      "songs": 8965,
      "tral": 8966,
      "recognized": 8967,
      "combine": 8968,
      "newsletter": 8969,
      "raid": 8970,
      "vor": 8971,
      "adventure": 8972,
      "strasbourg": 8973,
      "novel": 8974,
      "till": 8975,
      "indian": 8976,
      "rotary": 8977,
      "crew": 8978,
      "cket": 8979,
      "calend": 8980,
      "43": 8981,
      "moroc": 8982,
      "cathedral": 8983,
      "kernel": 8984,
      "neighbourhood": 8985,
      "usal": 8986,
      "parameters": 8987,
      "productivity": 8988,
      "javas": 8989,
      "crow": 8990,
      "indicate": 8991,
      "acceptance": 8992,
      "heim": 8993,
      "rupt": 8994,
      "restricted": 8995,
      "suffered": 8996,
      "errors": 8997,
      "allocated": 8998,
      "welcomes": 8999,
      "welcomed": 9000,
      "nit": 9001,
      "sters": 9002,
      "damages": 9003,
      "undoubtedly": 9004,
      "beings": 9005,
      "ante": 9006,
      "trig": 9007,
      "juris": 9008,
      "ecological": 9009,
      "twin": 9010,
      "experiment": 9011,
      "computers": 9012,
      "disco": 9013,
      "icht": 9014,
      "permit": 9015,
      "remained": 9016,
      "doctor": 9017,
      "islamic": 9018,
      "annivers": 9019,
      "arbit": 9020,
      "forthcoming": 9021,
      "javascript": 9022,
      "tram": 9023,
      "contributed": 9024,
      "mits": 9025,
      "movements": 9026,
      "investigation": 9027,
      "motive": 9028,
      "leon": 9029,
      "parallel": 9030,
      "acknowled": 9031,
      "alongside": 9032,
      "barroso": 9033,
      "rand": 9034,
      "foun": 9035,
      "logic": 9036,
      "barriers": 9037,
      "alpine": 9038,
      "meal": 9039,
      "shift": 9040,
      "breath": 9041,
      "americans": 9042,
      "hearing": 9043,
      "bin": 9044,
      "christmas": 9045,
      "explained": 9046,
      "shr": 9047,
      "vib": 9048,
      "conventional": 9049,
      "ow": 9050,
      "severe": 9051,
      "trian": 9052,
      "enem": 9053,
      "41": 9054,
      "firmly": 9055,
      "floors": 9056,
      "roots": 9057,
      "saturday": 9058,
      "ieval": 9059,
      "inevit": 9060,
      "nap": 9061,
      "tibet": 9062,
      "stocks": 9063,
      "accus": 9064,
      "marina": 9065,
      "internationally": 9066,
      "kal": 9067,
      "vessels": 9068,
      "remarks": 9069,
      "functionality": 9070,
      "restructuring": 9071,
      "ulous": 9072,
      "clause": 9073,
      "bau": 9074,
      "realise": 9075,
      "native": 9076,
      "exploitation": 9077,
      "academ": 9078,
      "obstacles": 9079,
      "collected": 9080,
      "encing": 9081,
      "än": 9082,
      "generations": 9083,
      "cater": 9084,
      "aids": 9085,
      "coordinated": 9086,
      "120": 9087,
      "patch": 9088,
      "serbia": 9089,
      "saved": 9090,
      "usive": 9091,
      "swi": 9092,
      "uls": 9093,
      "cuba": 9094,
      "sloven": 9095,
      "250": 9096,
      "schedul": 9097,
      "ün": 9098,
      "cultures": 9099,
      "driven": 9100,
      "mov": 9101,
      "welcoming": 9102,
      "adapted": 9103,
      "subsequent": 9104,
      "throw": 9105,
      "gues": 9106,
      "blin": 9107,
      "checks": 9108,
      "ista": 9109,
      "incred": 9110,
      "fs": 9111,
      "heading": 9112,
      "penalty": 9113,
      "inquir": 9114,
      "magic": 9115,
      "ombuds": 9116,
      "whenever": 9117,
      "opens": 9118,
      "disasters": 9119,
      "tracks": 9120,
      "ía": 9121,
      "rh": 9122,
      "bles": 9123,
      "thetic": 9124,
      "olive": 9125,
      "hop": 9126,
      "thes": 9127,
      "violations": 9128,
      "implic": 9129,
      "dignity": 9130,
      "clock": 9131,
      "worthy": 9132,
      "supervisory": 9133,
      "ibly": 9134,
      "dictator": 9135,
      "ell": 9136,
      "conve": 9137,
      "operator": 9138,
      "infringe": 9139,
      "thir": 9140,
      "ingred": 9141,
      "graphics": 9142,
      "reliability": 9143,
      "deliber": 9144,
      "initially": 9145,
      "excluded": 9146,
      "cession": 9147,
      "showed": 9148,
      "uous": 9149,
      "cin": 9150,
      "som": 9151,
      "endeav": 9152,
      "reflected": 9153,
      "bearing": 9154,
      "venice": 9155,
      "thu": 9156,
      "strip": 9157,
      "height": 9158,
      "filling": 9159,
      "luck": 9160,
      "raising": 9161,
      "riding": 9162,
      "printed": 9163,
      "liked": 9164,
      "distinct": 9165,
      "worst": 9166,
      "losses": 9167,
      "pled": 9168,
      "sophistic": 9169,
      "considerably": 9170,
      "anniversary": 9171,
      "fairly": 9172,
      "mirr": 9173,
      "camps": 9174,
      "omas": 9175,
      "joining": 9176,
      "kg": 9177,
      "geneva": 9178,
      "gradu": 9179,
      "fishermen": 9180,
      "agre": 9181,
      "alumin": 9182,
      "hills": 9183,
      "insu": 9184,
      "harbour": 9185,
      "trends": 9186,
      "geor": 9187,
      "laun": 9188,
      "astronom": 9189,
      "essentially": 9190,
      "mouse": 9191,
      "multilateral": 9192,
      "believes": 9193,
      "restore": 9194,
      "oting": 9195,
      "pilot": 9196,
      "cribe": 9197,
      "1980": 9198,
      "australia": 9199,
      "anticip": 9200,
      "sovereignty": 9201,
      "nobody": 9202,
      "designs": 9203,
      "amenities": 9204,
      "overlooking": 9205,
      "transferred": 9206,
      "splend": 9207,
      "rit": 9208,
      "missions": 9209,
      "azz": 9210,
      "newspapers": 9211,
      "opol": 9212,
      "19th": 9213,
      "decade": 9214,
      "shortly": 9215,
      "agents": 9216,
      "abor": 9217,
      "tai": 9218,
      "ented": 9219,
      "territorial": 9220,
      "pressed": 9221,
      "pillar": 9222,
      "yugo": 9223,
      "scientists": 9224,
      "everywhere": 9225,
      "portfolio": 9226,
      "supplied": 9227,
      "pretty": 9228,
      "mers": 9229,
      "passing": 9230,
      "college": 9231,
      "tournament": 9232,
      "annex": 9233,
      "arise": 9234,
      "adjustment": 9235,
      "sv": 9236,
      "inj": 9237,
      "governing": 9238,
      "yugoslav": 9239,
      "stages": 9240,
      "processed": 9241,
      "teaching": 9242,
      "2013": 9243,
      "porters": 9244,
      "restored": 9245,
      "yard": 9246,
      "blind": 9247,
      "freely": 9248,
      "ecb": 9249,
      "arising": 9250,
      "traged": 9251,
      "refr": 9252,
      "absor": 9253,
      "engines": 9254,
      "concentrate": 9255,
      "classical": 9256,
      "reflects": 9257,
      "islam": 9258,
      "balkans": 9259,
      "ordered": 9260,
      "licens": 9261,
      "alt": 9262,
      "approve": 9263,
      "panoramic": 9264,
      "targeted": 9265,
      "bil": 9266,
      "aux": 9267,
      "satisfy": 9268,
      "oms": 9269,
      "disput": 9270,
      "calm": 9271,
      "anywhere": 9272,
      "captain": 9273,
      "briefly": 9274,
      "900": 9275,
      "strengthened": 9276,
      "inade": 9277,
      "composition": 9278,
      "ura": 9279,
      "highlights": 9280,
      "undertaken": 9281,
      "ombudsman": 9282,
      "producer": 9283,
      "desktop": 9284,
      "acies": 9285,
      "iest": 9286,
      "lev": 9287,
      "rough": 9288,
      "recording": 9289,
      "equivalent": 9290,
      "constitu": 9291,
      "treas": 9292,
      "learned": 9293,
      "beer": 9294,
      "profits": 9295,
      "inspired": 9296,
      "grown": 9297,
      "empire": 9298,
      "entering": 9299,
      "sudden": 9300,
      "treatments": 9301,
      "nest": 9302,
      "gross": 9303,
      "lakes": 9304,
      "schem": 9305,
      "hidden": 9306,
      "attached": 9307,
      "prevail": 9308,
      "cot": 9309,
      "letters": 9310,
      "medieval": 9311,
      "tort": 9312,
      "neighbouring": 9313,
      "anton": 9314,
      "associations": 9315,
      "aling": 9316,
      "execution": 9317,
      "pharm": 9318,
      "reporting": 9319,
      "m2": 9320,
      "soul": 9321,
      "democrat": 9322,
      "actor": 9323,
      "ads": 9324,
      "liable": 9325,
      "pace": 9326,
      "orches": 9327,
      "iti": 9328,
      "deeply": 9329,
      "deutsche": 9330,
      "compl": 9331,
      "macro": 9332,
      "coherent": 9333,
      "tus": 9334,
      "ideally": 9335,
      "presenting": 9336,
      "pressing": 9337,
      "exerc": 9338,
      "sacr": 9339,
      "picturesque": 9340,
      "mining": 9341,
      "án": 9342,
      "argent": 9343,
      "ambi": 9344,
      "utor": 9345,
      "embar": 9346,
      "java": 9347,
      "tough": 9348,
      "mysql": 9349,
      "operates": 9350,
      "boats": 9351,
      "edit": 9352,
      "explanation": 9353,
      "produces": 9354,
      "itative": 9355,
      "forgot": 9356,
      "individually": 9357,
      "yel": 9358,
      "martin": 9359,
      "eg": 9360,
      "boards": 9361,
      "adds": 9362,
      "1992": 9363,
      "tranqu": 9364,
      "protest": 9365,
      "sights": 9366,
      "fried": 9367,
      "airports": 9368,
      "varied": 9369,
      "referring": 9370,
      "amed": 9371,
      "a5": 9372,
      "ji": 9373,
      "apple": 9374,
      "threats": 9375,
      "denmark": 9376,
      "geographical": 9377,
      "listings": 9378,
      "sorry": 9379,
      "advoc": 9380,
      "indoor": 9381,
      "georgia": 9382,
      "asset": 9383,
      "endors": 9384,
      "incorporated": 9385,
      "ministry": 9386,
      "appropriations": 9387,
      "survey": 9388,
      "gies": 9389,
      "engaged": 9390,
      "sensible": 9391,
      "vest": 9392,
      "motions": 9393,
      "cles": 9394,
      "tube": 9395,
      "decline": 9396,
      "shel": 9397,
      "intelligent": 9398,
      "pute": 9399,
      "struggle": 9400,
      "ena": 9401,
      "regulated": 9402,
      "revenue": 9403,
      "boy": 9404,
      "serving": 9405,
      "wides": 9406,
      "therapy": 9407,
      "pipe": 9408,
      "formats": 9409,
      "differ": 9410,
      "rose": 9411,
      "teachers": 9412,
      "mistake": 9413,
      "fro": 9414,
      "skype": 9415,
      "jose": 9416,
      "zero": 9417,
      "pens": 9418,
      "funded": 9419,
      "upgrade": 9420,
      "belgian": 9421,
      "strictly": 9422,
      "reputation": 9423,
      "ngos": 9424,
      "soil": 9425,
      "colors": 9426,
      "taxi": 9427,
      "66": 9428,
      "fined": 9429,
      "david": 9430,
      "operated": 9431,
      "obama": 9432,
      "nl": 9433,
      "ademy": 9434,
      "bun": 9435,
      "hospital": 9436,
      "blocks": 9437,
      "stunning": 9438,
      "developers": 9439,
      "affili": 9440,
      "virtually": 9441,
      "mt": 9442,
      "twice": 9443,
      "academy": 9444,
      "expl": 9445,
      "sufficiently": 9446,
      "resid": 9447,
      "diplomatic": 9448,
      "conferences": 9449,
      "specialists": 9450,
      "toward": 9451,
      "statute": 9452,
      "prospects": 9453,
      "feet": 9454,
      "bru": 9455,
      "cultiv": 9456,
      "seats": 9457,
      "gradually": 9458,
      "bathrooms": 9459,
      "inner": 9460,
      "intends": 9461,
      "compos": 9462,
      "phenomenon": 9463,
      "arran": 9464,
      "miner": 9465,
      "relates": 9466,
      "certified": 9467,
      "ultimate": 9468,
      "begins": 9469,
      "astro": 9470,
      "ng": 9471,
      "compuls": 9472,
      "constructed": 9473,
      "diving": 9474,
      "manif": 9475,
      "dir": 9476,
      "soldi": 9477,
      "acquired": 9478,
      "seas": 9479,
      "superb": 9480,
      "girls": 9481,
      "hin": 9482,
      "matically": 9483,
      "terminal": 9484,
      "naz": 9485,
      "inating": 9486,
      "basically": 9487,
      "steam": 9488,
      "sophisticated": 9489,
      "reiter": 9490,
      "fection": 9491,
      "cookies": 9492,
      "hole": 9493,
      "itar": 9494,
      "meets": 9495,
      "candidates": 9496,
      "urgently": 9497,
      "dialog": 9498,
      "bicy": 9499,
      "navigation": 9500,
      "nish": 9501,
      "efficiently": 9502,
      "victory": 9503,
      "kilometres": 9504,
      "partial": 9505,
      "brain": 9506,
      "clicking": 9507,
      "ert": 9508,
      "participating": 9509,
      "surprise": 9510,
      "pg": 9511,
      "grav": 9512,
      "discount": 9513,
      "conscious": 9514,
      "bout": 9515,
      "hil": 9516,
      "oldest": 9517,
      "taxpay": 9518,
      "pointing": 9519,
      "aer": 9520,
      "considers": 9521,
      "ette": 9522,
      "jet": 9523,
      "favourable": 9524,
      "accounting": 9525,
      "counts": 9526,
      "deem": 9527,
      "ored": 9528,
      "empty": 9529,
      "occurred": 9530,
      "haust": 9531,
      "consequence": 9532,
      "presidents": 9533,
      "integrate": 9534,
      "grass": 9535,
      "bosn": 9536,
      "ray": 9537,
      "highlighted": 9538,
      "prisoners": 9539,
      "bou": 9540,
      "ras": 9541,
      "tab": 9542,
      "ifi": 9543,
      "causing": 9544,
      "succeeded": 9545,
      "conditioned": 9546,
      "outer": 9547,
      "ltd": 9548,
      "dens": 9549,
      "kong": 9550,
      "predict": 9551,
      "bid": 9552,
      "gart": 9553,
      "pical": 9554,
      "infect": 9555,
      "convergence": 9556,
      "quote": 9557,
      "greg": 9558,
      "certificate": 9559,
      "resulted": 9560,
      "wage": 9561,
      "combines": 9562,
      "wooden": 9563,
      "subsequently": 9564,
      "cod": 9565,
      "achievement": 9566,
      "exhaust": 9567,
      "environmentally": 9568,
      "pour": 9569,
      "hero": 9570,
      "nia": 9571,
      "orous": 9572,
      "convert": 9573,
      "jean": 9574,
      "specialized": 9575,
      "certification": 9576,
      "kt": 9577,
      "gel": 9578,
      "millenn": 9579,
      "convenience": 9580,
      "maria": 9581,
      "meals": 9582,
      "affects": 9583,
      "coach": 9584,
      "legend": 9585,
      "imperial": 9586,
      "widespread": 9587,
      "slovakia": 9588,
      "stories": 9589,
      "calc": 9590,
      "troops": 9591,
      "broken": 9592,
      "accidents": 9593,
      "extending": 9594,
      "vocational": 9595,
      "unfair": 9596,
      "dos": 9597,
      "calendar": 9598,
      "mort": 9599,
      "nutr": 9600,
      "qualities": 9601,
      "parks": 9602,
      "circu": 9603,
      "oration": 9604,
      "wir": 9605,
      "encouraged": 9606,
      "mn": 9607,
      "shor": 9608,
      "lopes": 9609,
      "medicines": 9610,
      "mall": 9611,
      "sta": 9612,
      "flav": 9613,
      "atom": 9614,
      "1993": 9615,
      "breed": 9616,
      "ua": 9617,
      "mixed": 9618,
      "accompl": 9619,
      "amended": 9620,
      "negotiation": 9621,
      "lied": 9622,
      "dryer": 9623,
      "compulsory": 9624,
      "indis": 9625,
      "danish": 9626,
      "layout": 9627,
      "seeks": 9628,
      "bach": 9629,
      "mere": 9630,
      "harmful": 9631,
      "ams": 9632,
      "plaza": 9633,
      "desir": 9634,
      "similarly": 9635,
      "ré": 9636,
      "virus": 9637,
      "preserve": 9638,
      "dispute": 9639,
      "ika": 9640,
      "dio": 9641,
      "hong": 9642,
      "surprising": 9643,
      "ön": 9644,
      "thro": 9645,
      "inspir": 9646,
      "choices": 9647,
      "contextual": 9648,
      "quotas": 9649,
      "puts": 9650,
      "seconds": 9651,
      "ald": 9652,
      "bern": 9653,
      "lithu": 9654,
      "holy": 9655,
      "fert": 9656,
      "bow": 9657,
      "clarify": 9658,
      "keys": 9659,
      "intim": 9660,
      "accompany": 9661,
      "mono": 9662,
      "cancellation": 9663,
      "league": 9664,
      "assigned": 9665,
      "cine": 9666,
      "plates": 9667,
      "checked": 9668,
      "enforcement": 9669,
      "acks": 9670,
      "additionally": 9671,
      "purely": 9672,
      "700": 9673,
      "electrical": 9674,
      "utmost": 9675,
      "permission": 9676,
      "sessions": 9677,
      "featuring": 9678,
      "dublin": 9679,
      "20th": 9680,
      "mant": 9681,
      "observed": 9682,
      "impli": 9683,
      "managers": 9684,
      "autumn": 9685,
      "anonymous": 9686,
      "references": 9687,
      "spite": 9688,
      "wars": 9689,
      "branch": 9690,
      "automotive": 9691,
      "estimated": 9692,
      "adult": 9693,
      "hesit": 9694,
      "thumbnail": 9695,
      "capabilities": 9696,
      "pap": 9697,
      "greens": 9698,
      "holder": 9699,
      "bm": 9700,
      "stores": 9701,
      "ão": 9702,
      "printer": 9703,
      "discre": 9704,
      "hypo": 9705,
      "surprised": 9706,
      "officer": 9707,
      "enjoying": 9708,
      "recognize": 9709,
      "splendid": 9710,
      "istical": 9711,
      "67": 9712,
      "principal": 9713,
      "confidential": 9714,
      "width": 9715,
      "scheduled": 9716,
      "interactive": 9717,
      "nowad": 9718,
      "enthusi": 9719,
      "willingness": 9720,
      "wolf": 9721,
      "yards": 9722,
      "communicate": 9723,
      "upgrad": 9724,
      "nowadays": 9725,
      "a4": 9726,
      "closure": 9727,
      "prec": 9728,
      "bahn": 9729,
      "logistics": 9730,
      "1000": 9731,
      "agent": 9732,
      "professor": 9733,
      "staying": 9734,
      "sumed": 9735,
      "contest": 9736,
      "concentration": 9737,
      "percentage": 9738,
      "thors": 9739,
      "bread": 9740,
      "hopes": 9741,
      "ais": 9742,
      "mount": 9743,
      "occupation": 9744,
      "aro": 9745,
      "publishing": 9746,
      "relationships": 9747,
      "audience": 9748,
      "escape": 9749,
      "dia": 9750,
      "nt": 9751,
      "journalists": 9752,
      "kre": 9753,
      "88": 9754,
      "shot": 9755,
      "cht": 9756,
      "junction": 9757,
      "thick": 9758,
      "whol": 9759,
      "adic": 9760,
      "organise": 9761,
      "gene": 9762,
      "studied": 9763,
      "addressing": 9764,
      "elevator": 9765,
      "schemes": 9766,
      "designer": 9767,
      "tub": 9768,
      "secondary": 9769,
      "frequency": 9770,
      "bra": 9771,
      "persist": 9772,
      "charm": 9773,
      "crises": 9774,
      "pools": 9775,
      "insul": 9776,
      "mosco": 9777,
      "gun": 9778,
      "kor": 9779,
      "senior": 9780,
      "violation": 9781,
      "upload": 9782,
      "monte": 9783,
      "george": 9784,
      "prompt": 9785,
      "sunny": 9786,
      "scenar": 9787,
      "nut": 9788,
      "wife": 9789,
      "transfers": 9790,
      "tte": 9791,
      "prodi": 9792,
      "motorway": 9793,
      "hans": 9794,
      "imf": 9795,
      "technique": 9796,
      "implications": 9797,
      "eliminate": 9798,
      "gau": 9799,
      "edited": 9800,
      "translated": 9801,
      "believed": 9802,
      "ingredients": 9803,
      "trace": 9804,
      "bling": 9805,
      "arbitr": 9806,
      "avi": 9807,
      "minent": 9808,
      "incentives": 9809,
      "gentoo": 9810,
      "expense": 9811,
      "strike": 9812,
      "shore": 9813,
      "chic": 9814,
      "folder": 9815,
      "hect": 9816,
      "false": 9817,
      "echo": 9818,
      "buses": 9819,
      "approaches": 9820,
      "jewish": 9821,
      "corre": 9822,
      "dress": 9823,
      "ofin": 9824,
      "completion": 9825,
      "caution": 9826,
      "campaigns": 9827,
      "utical": 9828,
      "listening": 9829,
      "envis": 9830,
      "spons": 9831,
      "ownership": 9832,
      "tox": 9833,
      "textile": 9834,
      "alo": 9835,
      "array": 9836,
      "chairs": 9837,
      "ishment": 9838,
      "tec": 9839,
      "wik": 9840,
      "describe": 9841,
      "77": 9842,
      "yield": 9843,
      "mechanical": 9844,
      "remed": 9845,
      "foundations": 9846,
      "tariff": 9847,
[...]
