{
  "version": "1.0",
  "truncation": null,
  "padding": null,
  "added_tokens": [
    {
      "id": 0,
      "content": "[UNK]",
      "single_word": false,
      "lstrip": false,
      "rstrip": false,
      "normalized": false,
      "special": true
    },
    {
      "id": 1,
      "content": "[PAD]",
      "single_word": false,
      "lstrip": false,
      "rstrip": false,
      "normalized": false,
      "special": true
    },
    {
      "id": 2,
      "content": "[SOS]",
      "single_word": false,
      "lstrip": false,
      "rstrip": false,
      "normalized": false,
      "special": true
    },
    {
      "id": 3,
      "content": "[EOS]",
      "single_word": false,
      "lstrip": false,
      "rstrip": false,
      "normalized": false,
      "special": true
    }
  ],
  "normalizer": {
    "type": "Lowercase"
  },
  "pre_tokenizer": {
    "type": "Sequence",
    "pretokenizers": [
      {
        "type": "Whitespace"
      },
      {
        "type": "Punctuation",
        "behavior": "Isolated"
      }
    ]
  },
  "post_processor": {
    "type": "TemplateProcessing",
    "single": [
      {
        "SpecialToken": {
          "id": "[SOS]",
          "type_id": 0
        }
      },
      {
        "Sequence": {
          "id": "A",
          "type_id": 0
        }
      },
      {
        "SpecialToken": {
          "id": "[EOS]",
          "type_id": 0
        }
      }
    ],
    "pair": [
      {
        "Sequence": {
          "id": "A",
          "type_id": 0
        }
      },
      {
        "Sequence": {
          "id": "B",
          "type_id": 1
        }
      }
    ],
    "special_tokens": {
      "[EOS]": {
        "id": "[EOS]",
        "ids": [
          3
        ],
        "tokens": [
          "[EOS]"
        ]
      },
      "[SOS]": {
        "id": "[SOS]",
        "ids": [
          2
        ],
        "tokens": [
          "[SOS]"
        ]
      }
    }
  },
  "decoder": null,
  "model": {
    "type": "BPE",
    "dropout": null,
    "unk_token": "[UNK]",
    "continuing_subword_prefix": null,
    "end_of_word_suffix": null,
    "fuse_unk": false,
    "byte_fallback": false,
    "ignore_merges": false,
    "vocab": {
      "[UNK]": 0,
      "[PAD]": 1,
      "[SOS]": 2,
      "[EOS]": 3,
      "!": 4,
      "\"": 5,
      "#": 6,
      "$": 7,
      "%": 8,
      "&": 9,
      "'": 10,
      "(": 11,
      ")": 12,
      "*": 13,
      "+": 14,
      ",": 15,
      "-": 16,
      ".": 17,
      "/": 18,
      "0": 19,
      "1": 20,
      "2": 21,
      "3": 22,
      "4": 23,
      "5": 24,
      "6": 25,
      "7": 26,
      "8": 27,
      "9": 28,
      ":": 29,
      ";": 30,
      "=": 31,
      "?": 32,
      "@": 33,
      "[": 34,
      "]": 35,
      "^": 36,
      "_": 37,
      "`": 38,
      "a": 39,
      "b": 40,
      "c": 41,
      "d": 42,
      "e": 43,
      "f": 44,
      "g": 45,
      "h": 46,
      "i": 47,
      "j": 48,
      "k": 49,
      "l": 50,
      "m": 51,
      "n": 52,
      "o": 53,
      "p": 54,
      "q": 55,
      "r": 56,
      "s": 57,
      "t": 58,
      "u": 59,
      "v": 60,
      "w": 61,
      "x": 62,
      "y": 63,
      "z": 64,
      "": 65,
      "": 66,
      "": 67,
      "": 68,
      "¡": 69,
      "£": 70,
      "¥": 71,
      "©": 72,
      "«": 73,
      "­": 74,
      "®": 75,
      "°": 76,
      "²": 77,
      "³": 78,
      "´": 79,
      "¶": 80,
      "»": 81,
      "¼": 82,
      "½": 83,
      "¾": 84,
      "×": 85,
      "ß": 86,
      "à": 87,
      "á": 88,
      "â": 89,
      "ã": 90,
      "ä": 91,
      "å": 92,
      "ç": 93,
      "è": 94,
      "é": 95,
      "ê": 96,
      "ë": 97,
      "í": 98,
      "ï": 99,
      "ñ": 100,
      "ó": 101,
      "ô": 102,
      "ö": 103,
      "ø": 104,
      "ú": 105,
      "ü": 106,
      "ý": 107,
      "ā": 108,
      "ć": 109,
      "č": 110,
      "ě": 111,
      "ī": 112,
      "œ": 113,
      "š": 114,
      "ū": 115,
      "ű": 116,
      "β": 117,
      "к": 118,
      "ӓ": 119,
      "‒": 120,
      "–": 121,
      "—": 122,
      "‘": 123,
      "’": 124,
      "‚": 125,
      "“": 126,
      "”": 127,
      "„": 128,
      "‟": 129,
      "…": 130,
      "‹": 131,
      "›": 132,
      "€": 133,
      "™": 134,
      "♪": 135,
      "♫": 136,
      "你": 137,
      "葱": 138,
      "送": 139,
      "﻿": 140,
      "，": 141,
      "en": 142,
      "er": 143,
      "ch": 144,
      "in": 145,
      "ie": 146,
      "un": 147,
      "ich": 148,
      "st": 149,
      "ein": 150,
      "an": 151,
      "es": 152,
      "as": 153,
      "die": 154,
      "ei": 155,
      "und": 156,
      "au": 157,
      "der": 158,
      "sch": 159,
      "al": 160,
      "ge": 161,
      "te": 162,
      "das": 163,
      "wi": 164,
      "on": 165,
      "ar": 166,
      "zu": 167,
      "den": 168,
      "gen": 169,
      "le": 170,
      "ten": 171,
      "wir": 172,
      "de": 173,
      "sie": 174,
      "se": 175,
      "hr": 176,
      "ab": 177,
      "or": 178,
      "ist": 179,
      "at": 180,
      "it": 181,
      "eine": 182,
      "icht": 183,
      "el": 184,
      "ver": 185,
      "be": 186,
      "ach": 187,
      "lich": 188,
      "so": 189,
      "ier": 190,
      "men": 191,
      "ur": 192,
      "ter": 193,
      "re": 194,
      "ung": 195,
      "auf": 196,
      "ro": 197,
      "sen": 198,
      "mit": 199,
      "um": 200,
      "nen": 201,
      "ig": 202,
      "von": 203,
      "ür": 204,
      "nicht": 205,
      "ber": 206,
      "am": 207,
      "im": 208,
      "ll": 209,
      "dass": 210,
      "eit": 211,
      "ben": 212,
      "wie": 213,
      "aus": 214,
      "was": 215,
      "ser": 216,
      "ck": 217,
      "man": 218,
      "ne": 219,
      "war": 220,
      "hab": 221,
      "ind": 222,
      "wei": 223,
      "sp": 224,
      "tz": 225,
      "ion": 226,
      "wen": 227,
      "ann": 228,
      "hen": 229,
      "om": 230,
      "sich": 231,
      "ges": 232,
      "wer": 233,
      "da": 234,
      "len": 235,
      "kt": 236,
      "ra": 237,
      "für": 238,
      "über": 239,
      "isch": 240,
      "ste": 241,
      "is": 242,
      "diese": 243,
      "ent": 244,
      "me": 245,
      "ahr": 246,
      "sind": 247,
      "als": 248,
      "aber": 249,
      "je": 250,
      "ol": 251,
      "ft": 252,
      "haben": 253,
      "dem": 254,
      "ön": 255,
      "einen": 256,
      "wenn": 257,
      "ir": 258,
      "vor": 259,
      "us": 260,
      "hat": 261,
      "bei": 262,
      "des": 263,
      "gr": 264,
      "iel": 265,
      "ag": 266,
      "ihr": 267,
      "il": 268,
      "kön": 269,
      "her": 270,
      "än": 271,
      "ik": 272,
      "pro": 273,
      "all": 274,
      "br": 275,
      "ff": 276,
      "wo": 277,
      "auch": 278,
      "einer": 279,
      "ut": 280,
      "et": 281,
      "och": 282,
      "schen": 283,
      "he": 284,
      "lan": 285,
      "kom": 286,
      "sten": 287,
      "ssen": 288,
      "mach": 289,
      "ander": 290,
      "nach": 291,
      "uns": 292,
      "also": 293,
      "oder": 294,
      "wel": 295,
      "ern": 296,
      "we": 297,
      "einem": 298,
      "ih": 299,
      "kl": 300,
      "unser": 301,
      "ze": 302,
      "ieren": 303,
      "ken": 304,
      "rei": 305,
      "bt": 306,
      "können": 307,
      "kann": 308,
      "uch": 309,
      "hier": 310,
      "jahr": 311,
      "werden": 312,
      "scha": 313,
      "fü": 314,
      "ien": 315,
      "stel": 316,
      "hl": 317,
      "gan": 318,
      "ute": 319,
      "ungen": 320,
      "ger": 321,
      "mer": 322,
      "iert": 323,
      "unter": 324,
      "dies": 325,
      "dar": 326,
      "ation": 327,
      "lie": 328,
      "hal": 329,
      "gesch": 330,
      "tr": 331,
      "ht": 332,
      "for": 333,
      "bes": 334,
      "kon": 335,
      "fr": 336,
      "gi": 337,
      "sa": 338,
      "viel": 339,
      "nur": 340,
      "gt": 341,
      "leben": 342,
      "mal": 343,
      "dann": 344,
      "ige": 345,
      "ück": 346,
      "and": 347,
      "sehen": 348,
      "sehr": 349,
      "gl": 350,
      "wird": 351,
      "iv": 352,
      "menschen": 353,
      "00": 354,
      "ör": 355,
      "sein": 356,
      "mö": 357,
      "igen": 358,
      "mich": 359,
      "wä": 360,
      "lt": 361,
      "per": 362,
      "welt": 363,
      "gibt": 364,
      "chen": 365,
      "art": 366,
      "wur": 367,
      "urch": 368,
      "noch": 369,
      "ihnen": 370,
      "hin": 371,
      "ot": 372,
      "ob": 373,
      "bl": 374,
      "ort": 375,
      "tzt": 376,
      "du": 377,
      "mus": 378,
      "durch": 379,
      "ät": 380,
      "tei": 381,
      "sel": 382,
      "äch": 383,
      "gel": 384,
      "wissen": 385,
      "fin": 386,
      "mein": 387,
      "etwas": 388,
      "fl": 389,
      "vie": 390,
      "dieser": 391,
      "alle": 392,
      "zeit": 393,
      "sam": 394,
      "schaft": 395,
      "fe": 396,
      "mehr": 397,
      "ihre": 398,
      "gro": 399,
      "os": 400,
      "ke": 401,
      "hn": 402,
      "op": 403,
      "dr": 404,
      "kr": 405,
      "mir": 406,
      "habe": 407,
      "dern": 408,
      "zur": 409,
      "og": 410,
      "eigen": 411,
      "sag": 412,
      "wirk": 413,
      "ische": 414,
      "son": 415,
      "fen": 416,
      "heit": 417,
      "din": 418,
      "geb": 419,
      "groß": 420,
      "ischen": 421,
      "na": 422,
      "keit": 423,
      "lichen": 424,
      "wür": 425,
      "zum": 426,
      "zwei": 427,
      "liche": 428,
      "vers": 429,
      "zen": 430,
      "ffen": 431,
      "fra": 432,
      "auen": 433,
      "kommen": 434,
      "di": 435,
      "unsere": 436,
      "meine": 437,
      "weil": 438,
      "inn": 439,
      "fach": 440,
      "immer": 441,
      "che": 442,
      "mü": 443,
      "machen": 444,
      "fä": 445,
      "hmen": 446,
      "ant": 447,
      "inter": 448,
      "wurde": 449,
      "wirklich": 450,
      "mt": 451,
      "neu": 452,
      "tet": 453,
      "zie": 454,
      "ill": 455,
      "tzen": 456,
      "einfach": 457,
      "dieses": 458,
      "bil": 459,
      "la": 460,
      "assen": 461,
      "oll": 462,
      "bar": 463,
      "str": 464,
      "aut": 465,
      "ster": 466,
      "gew": 467,
      "ler": 468,
      "dan": 469,
      "nun": 470,
      "pr": 471,
      "hei": 472,
      "äu": 473,
      "tun": 474,
      "bin": 475,
      "teil": 476,
      "ün": 477,
      "hren": 478,
      "macht": 479,
      "ess": 480,
      "sy": 481,
      "woll": 482,
      "ungs": 483,
      "bis": 484,
      "pa": 485,
      "ing": 486,
      "jetzt": 487,
      "sagen": 488,
      "bst": 489,
      "eines": 490,
      "ho": 491,
      "soll": 492,
      "ma": 493,
      "viele": 494,
      "ta": 495,
      "är": 496,
      "mo": 497,
      "ass": 498,
      "spiel": 499,
      "stellen": 500,
      "hatte": 501,
      "schie": 502,
      "keine": 503,
      "ktion": 504,
      "leich": 505,
      "hlen": 506,
      "leicht": 507,
      "gehen": 508,
      "ide": 509,
      "könn": 510,
      "tat": 511,
      "leute": 512,
      "weg": 513,
      "sta": 514,
      "selbst": 515,
      "weiter": 516,
      "arbei": 517,
      "schl": 518,
      "pp": 519,
      "geh": 520,
      "ug": 521,
      "ingen": 522,
      "glich": 523,
      "tra": 524,
      "ßen": 525,
      "ka": 526,
      "wa": 527,
      "prob": 528,
      "chte": 529,
      "ichtig": 530,
      "müssen": 531,
      "denn": 532,
      "ell": 533,
      "spr": 534,
      "andere": 535,
      "cht": 536,
      "waren": 537,
      "gleich": 538,
      "halten": 539,
      "ja": 540,
      "diesem": 541,
      "nat": 542,
      "ul": 543,
      "wieder": 544,
      "ha": 545,
      "diesen": 546,
      "tel": 547,
      "sagte": 548,
      "nie": 549,
      "glau": 550,
      "alles": 551,
      "dinge": 552,
      "grund": 553,
      "olog": 554,
      "ment": 555,
      "fahr": 556,
      "sei": 557,
      "jahren": 558,
      "fol": 559,
      "pf": 560,
      "unden": 561,
      "chn": 562,
      "ex": 563,
      "kin": 564,
      "gut": 565,
      "nehmen": 566,
      "gab": 567,
      "geben": 568,
      "det": 569,
      "proble": 570,
      "weise": 571,
      "nis": 572,
      "denken": 573,
      "pl": 574,
      "wahr": 575,
      "geht": 576,
      "anderen": 577,
      "qu": 578,
      "land": 579,
      "gegen": 580,
      "iger": 581,
      "würde": 582,
      "damit": 583,
      "geschich": 584,
      "stehen": 585,
      "ionen": 586,
      "zusam": 587,
      "brauch": 588,
      "iz": 589,
      "pt": 590,
      "bo": 591,
      "zusammen": 592,
      "ität": 593,
      "heraus": 594,
      "ert": 595,
      "finden": 596,
      "mat": 597,
      "gar": 598,
      "vielleicht": 599,
      "ph": 600,
      "genau": 601,
      "lei": 602,
      "wick": 603,
      "arb": 604,
      "kam": 605,
      "ick": 606,
      "zent": 607,
      "änder": 608,
      "fan": 609,
      "form": 610,
      "mill": 611,
      "stim": 612,
      "fre": 613,
      "versuch": 614,
      "techn": 615,
      "entwick": 616,
      "tats": 617,
      "aum": 618,
      "oh": 619,
      "schn": 620,
      "jahre": 621,
      "bild": 622,
      "wor": 623,
      "erst": 624,
      "del": 625,
      "möglich": 626,
      "gend": 627,
      "zurück": 628,
      "zei": 629,
      "grö": 630,
      "zi": 631,
      "ale": 632,
      "za": 633,
      "alt": 634,
      "beg": 635,
      "reich": 636,
      "zel": 637,
      "pass": 638,
      "mei": 639,
      "stell": 640,
      "muss": 641,
      "uten": 642,
      "lassen": 643,
      "heute": 644,
      "ganz": 645,
      "gese": 646,
      "arbeit": 647,
      "schon": 648,
      "han": 649,
      "dig": 650,
      "ache": 651,
      "stu": 652,
      "letz": 653,
      "besser": 654,
      "fall": 655,
      "schr": 656,
      "warum": 657,
      "drei": 658,
      "hau": 659,
      "kinder": 660,
      "tro": 661,
      "zä": 662,
      "sol": 663,
      "ächlich": 664,
      "führ": 665,
      "konn": 666,
      "lang": 667,
      "acht": 668,
      "dort": 669,
      "ner": 670,
      "einige": 671,
      "möchte": 672,
      "größ": 673,
      "pu": 674,
      "doch": 675,
      "net": 676,
      "syste": 677,
      "denen": 678,
      "fa": 679,
      "halb": 680,
      "will": 681,
      "lin": 682,
      "igkeit": 683,
      "geschichte": 684,
      "sicher": 685,
      "besch": 686,
      "ationen": 687,
      "cken": 688,
      "rechen": 689,
      "kommt": 690,
      "mensch": 691,
      "davon": 692,
      "mar": 693,
      "tre": 694,
      "tatsächlich": 695,
      "hör": 696,
      "bede": 697,
      "em": 698,
      "wichtig": 699,
      "ko": 700,
      "schein": 701,
      "schu": 702,
      "wasser": 703,
      "nu": 704,
      "ank": 705,
      "mut": 706,
      "paar": 707,
      "fun": 708,
      "ierte": 709,
      "hatten": 710,
      "ok": 711,
      "alen": 712,
      "hand": 713,
      "lau": 714,
      "esen": 715,
      "könnte": 716,
      "spie": 717,
      "000": 718,
      "mon": 719,
      "natür": 720,
      "min": 721,
      "tag": 722,
      "eln": 723,
      "reg": 724,
      "stand": 725,
      "wollen": 726,
      "such": 727,
      "kte": 728,
      "mlich": 729,
      "ändern": 730,
      "richt": 731,
      "weiß": 732,
      "lö": 733,
      "sto": 734,
      "ihn": 735,
      "hä": 736,
      "meiner": 737,
      "achte": 738,
      "kre": 739,
      "wort": 740,
      "bi": 741,
      "bringen": 742,
      "tern": 743,
      "ika": 744,
      "darüber": 745,
      "kun": 746,
      "wohl": 747,
      "gemein": 748,
      "funktion": 749,
      "mand": 750,
      "ologie": 751,
      "atz": 752,
      "stra": 753,
      "stat": 754,
      "voll": 755,
      "problem": 756,
      "eiten": 757,
      "kur": 758,
      "wischen": 759,
      "jeder": 760,
      "itt": 761,
      "ffe": 762,
      "ktiv": 763,
      "beispiel": 764,
      "ihren": 765,
      "wurden": 766,
      "oren": 767,
      "nor": 768,
      "werde": 769,
      "frage": 770,
      "irn": 771,
      "daten": 772,
      "to": 773,
      "sieht": 774,
      "zwischen": 775,
      "vielen": 776,
      "essen": 777,
      "ade": 778,
      "sondern": 779,
      "uss": 780,
      "chin": 781,
      "seine": 782,
      "irgend": 783,
      "wissenschaft": 784,
      "erzä": 785,
      "wach": 786,
      "pol": 787,
      "währen": 788,
      "schei": 789,
      "20": 790,
      "öff": 791,
      "wäre": 792,
      "pun": 793,
      "spe": 794,
      "betr": 795,
      "dazu": 796,
      "legen": 797,
      "allen": 798,
      "hö": 799,
      "während": 800,
      "stellt": 801,
      "dien": 802,
      "unge": 803,
      "neue": 804,
      "kein": 805,
      "unserer": 806,
      "interess": 807,
      "stän": 808,
      "lebens": 809,
      "ersten": 810,
      "natürlich": 811,
      "rie": 812,
      "sogar": 813,
      "seit": 814,
      "wus": 815,
      "plan": 816,
      "sicht": 817,
      "fühl": 818,
      "hät": 819,
      "hund": 820,
      "produ": 821,
      "vom": 822,
      "com": 823,
      "fer": 824,
      "amm": 825,
      "system": 826,
      "denke": 827,
      "arbeiten": 828,
      "sprechen": 829,
      "verb": 830,
      "nichts": 831,
      "the": 832,
      "achten": 833,
      "19": 834,
      "aufen": 835,
      "einmal": 836,
      "gie": 837,
      "äd": 838,
      "co": 839,
      "vier": 840,
      "ult": 841,
      "gemacht": 842,
      "näch": 843,
      "gerade": 844,
      "ohne": 845,
      "raum": 846,
      "hän": 847,
      "wegen": 848,
      "glaube": 849,
      "ihrer": 850,
      "inner": 851,
      "zeigen": 852,
      "frauen": 853,
      "uni": 854,
      "lo": 855,
      "ker": 856,
      "kennen": 857,
      "letzten": 858,
      "ins": 859,
      "amer": 860,
      "ru": 861,
      "ange": 862,
      "verschie": 863,
      "ele": 864,
      "ften": 865,
      "dafür": 866,
      "mittel": 867,
      "pe": 868,
      "fragen": 869,
      "vol": 870,
      "gehirn": 871,
      "würden": 872,
      "ierung": 873,
      "weit": 874,
      "verl": 875,
      "tlich": 876,
      "ce": 877,
      "innen": 878,
      "ba": 879,
      "anz": 880,
      "recht": 881,
      "10": 882,
      "kop": 883,
      "keiten": 884,
      "hel": 885,
      "los": 886,
      "verstehen": 887,
      "ende": 888,
      "wirt": 889,
      "upp": 890,
      "zeu": 891,
      "mann": 892,
      "kör": 893,
      "steht": 894,
      "prozent": 895,
      "erste": 896,
      "ren": 897,
      "meisten": 898,
      "ys": 899,
      "elt": 900,
      "fern": 901,
      "konnte": 902,
      "gef": 903,
      "meinen": 904,
      "sit": 905,
      "licht": 906,
      "passiert": 907,
      "etwa": 908,
      "millionen": 909,
      "person": 910,
      "wirtschaft": 911,
      "ener": 912,
      "organ": 913,
      "zahl": 914,
      "dank": 915,
      "stru": 916,
      "star": 917,
      "fähr": 918,
      "vö": 919,
      "zin": 920,
      "haus": 921,
      "ikan": 922,
      "daran": 923,
      "schaffen": 924,
      "ganze": 925,
      "seite": 926,
      "ßer": 927,
      "nä": 928,
      "achen": 929,
      "kü": 930,
      "buch": 931,
      "welche": 932,
      "zeich": 933,
      "ischer": 934,
      "sollte": 935,
      "bel": 936,
      "ativ": 937,
      "veränder": 938,
      "große": 939,
      "dab": 940,
      "komp": 941,
      "ging": 942,
      "idee": 943,
      "kar": 944,
      "hm": 945,
      "körper": 946,
      "par": 947,
      "cher": 948,
      "licher": 949,
      "inform": 950,
      "danke": 951,
      "sollten": 952,
      "dabei": 953,
      "gesehen": 954,
      "geld": 955,
      "könnten": 956,
      "wund": 957,
      "frei": 958,
      "ang": 959,
      "wert": 960,
      "benu": 961,
      "glück": 962,
      "po": 963,
      "end": 964,
      "bereit": 965,
      "punkt": 966,
      "hoch": 967,
      "uck": 968,
      "schauen": 969,
      "bekommen": 970,
      "nt": 971,
      "schlie": 972,
      "50": 973,
      "dt": 974,
      "ßt": 975,
      "lle": 976,
      "einander": 977,
      "unterschie": 978,
      "sagt": 979,
      "mor": 980,
      "iere": 981,
      "bau": 982,
      "lu": 983,
      "wollte": 984,
      "proje": 985,
      "fort": 986,
      "meinem": 987,
      "fäh": 988,
      "ss": 989,
      "freund": 990,
      "fil": 991,
      "halt": 992,
      "compu": 993,
      "fel": 994,
      "darauf": 995,
      "einz": 996,
      "lung": 997,
      "ziemlich": 998,
      "mas": 999,
      "grupp": 1000,
      "fahren": 1001,
      "krie": 1002,
      "mu": 1003,
      "technologie": 1004,
      "hil": 1005,
      "grün": 1006,
      "bauen": 1007,
      "män": 1008,
      "bü": 1009,
      "bere": 1010,
      "werk": 1011,
      "wahrschein": 1012,
      "jemand": 1013,
      "gest": 1014,
      "haupt": 1015,
      "ign": 1016,
      "statt": 1017,
      "doll": 1018,
      "kind": 1019,
      "aten": 1020,
      "zeigt": 1021,
      "fte": 1022,
      "ic": 1023,
      "sozi": 1024,
      "univers": 1025,
      "dollar": 1026,
      "setzen": 1027,
      "get": 1028,
      "eben": 1029,
      "utet": 1030,
      "schw": 1031,
      "yp": 1032,
      "außer": 1033,
      "fest": 1034,
      "sache": 1035,
      "lernen": 1036,
      "enz": 1037,
      "fangen": 1038,
      "energie": 1039,
      "schwi": 1040,
      "schrei": 1041,
      "agt": 1042,
      "stadt": 1043,
      "glauben": 1044,
      "kor": 1045,
      "entschei": 1046,
      "computer": 1047,
      "eigentlich": 1048,
      "antwort": 1049,
      "onder": 1050,
      "ktur": 1051,
      "verwen": 1052,
      "weniger": 1053,
      "äter": 1054,
      "brauchen": 1055,
      "amil": 1056,
      "zeug": 1057,
      "wahrscheinlich": 1058,
      "bs": 1059,
      "elle": 1060,
      "namen": 1061,
      "schle": 1062,
      "bestim": 1063,
      "gesund": 1064,
      "forsch": 1065,
      "prä": 1066,
      "kten": 1067,
      "ve": 1068,
      "kleinen": 1069,
      "laub": 1070,
      "wunder": 1071,
      "besonder": 1072,
      "let": 1073,
      "gehör": 1074,
      "hinter": 1075,
      "famil": 1076,
      "genom": 1077,
      "llen": 1078,
      "rück": 1079,
      "ogen": 1080,
      "stan": 1081,
      "krank": 1082,
      "folgen": 1083,
      "gte": 1084,
      "itte": 1085,
      "frü": 1086,
      "jeden": 1087,
      "fün": 1088,
      "führen": 1089,
      "su": 1090,
      "chten": 1091,
      "dachte": 1092,
      "dung": 1093,
      "ater": 1094,
      "großen": 1095,
      "hören": 1096,
      "ans": 1097,
      "nung": 1098,
      "bedeutet": 1099,
      "öffent": 1100,
      "zentr": 1101,
      "ierten": 1102,
      "unseren": 1103,
      "äft": 1104,
      "alter": 1105,
      "gesell": 1106,
      "kleine": 1107,
      "gang": 1108,
      "jedes": 1109,
      "afr": 1110,
      "gefühl": 1111,
      "ak": 1112,
      "kunft": 1113,
      "res": 1114,
      "frau": 1115,
      "lange": 1116,
      "pat": 1117,
      "tete": 1118,
      "organis": 1119,
      "ihm": 1120,
      "ckt": 1121,
      "rich": 1122,
      "lehr": 1123,
      "polit": 1124,
      "tau": 1125,
      "ate": 1126,
      "zer": 1127,
      "offen": 1128,
      "menge": 1129,
      "ca": 1130,
      "ganzen": 1131,
      "ihrem": 1132,
      "uer": 1133,
      "igt": 1134,
      "mag": 1135,
      "nutzen": 1136,
      "alten": 1137,
      "spielen": 1138,
      "fünf": 1139,
      "flie": 1140,
      "beim": 1141,
      "druck": 1142,
      "sst": 1143,
      "unterschied": 1144,
      "tie": 1145,
      "id": 1146,
      "wenig": 1147,
      "reichen": 1148,
      "kün": 1149,
      "ingt": 1150,
      "schü": 1151,
      "moment": 1152,
      "mutter": 1153,
      "verbr": 1154,
      "versuchen": 1155,
      "führt": 1156,
      "alis": 1157,
      "schön": 1158,
      "sah": 1159,
      "kult": 1160,
      "später": 1161,
      "200": 1162,
      "dam": 1163,
      "ellen": 1164,
      "hätte": 1165,
      "mals": 1166,
      "ition": 1167,
      "ald": 1168,
      "schnell": 1169,
      "fast": 1170,
      "kra": 1171,
      "gal": 1172,
      "tze": 1173,
      "sor": 1174,
      "gesagt": 1175,
      "augen": 1176,
      "hundert": 1177,
      "ast": 1178,
      "nein": 1179,
      "mel": 1180,
      "wan": 1181,
      "kä": 1182,
      "schaften": 1183,
      "schul": 1184,
      "do": 1185,
      "gute": 1186,
      "zukunft": 1187,
      "klär": 1188,
      "aller": 1189,
      "schwer": 1190,
      "beweg": 1191,
      "teilen": 1192,
      "ts": 1193,
      "blick": 1194,
      "keinen": 1195,
      "folg": 1196,
      "gramm": 1197,
      "arten": 1198,
      "unglaub": 1199,
      "klar": 1200,
      "stellung": 1201,
      "if": 1202,
      "stück": 1203,
      "fot": 1204,
      "anders": 1205,
      "dich": 1206,
      "nation": 1207,
      "musik": 1208,
      "ial": 1209,
      "indem": 1210,
      "natur": 1211,
      "oft": 1212,
      "entde": 1213,
      "hung": 1214,
      "iar": 1215,
      "richtig": 1216,
      "ia": 1217,
      "trag": 1218,
      "mater": 1219,
      "jede": 1220,
      "jen": 1221,
      "ution": 1222,
      "30": 1223,
      "zehn": 1224,
      "blei": 1225,
      "gesundheit": 1226,
      "dre": 1227,
      "unternehmen": 1228,
      "ris": 1229,
      "probleme": 1230,
      "genommen": 1231,
      "gri": 1232,
      "reis": 1233,
      "anzu": 1234,
      "kultur": 1235,
      "erde": 1236,
      "heißt": 1237,
      "lage": 1238,
      "konnten": 1239,
      "funktioniert": 1240,
      "ding": 1241,
      "bewus": 1242,
      "zt": 1243,
      "kraft": 1244,
      "netz": 1245,
      "met": 1246,
      "deln": 1247,
      "mente": 1248,
      "vide": 1249,
      "alität": 1250,
      "eigenen": 1251,
      "milliar": 1252,
      "falls": 1253,
      "amerikan": 1254,
      "zellen": 1255,
      "normal": 1256,
      "ah": 1257,
      "schule": 1258,
      "liebe": 1259,
      "hält": 1260,
      "iden": 1261,
      "helfen": 1262,
      "struktur": 1263,
      "projekt": 1264,
      "eins": 1265,
      "gener": 1266,
      "gestellt": 1267,
      "verhalten": 1268,
      "verschieden": 1269,
      "eur": 1270,
      "sinn": 1271,
      "win": 1272,
      "einzel": 1273,
      "tzlich": 1274,
      "ott": 1275,
      "ere": 1276,
      "iges": 1277,
      "medi": 1278,
      "ße": 1279,
      "design": 1280,
      "lern": 1281,
      "exper": 1282,
      "aktiv": 1283,
      "lä": 1284,
      "schwier": 1285,
      "internet": 1286,
      "sü": 1287,
      "no": 1288,
      "ive": 1289,
      "erzählen": 1290,
      "fal": 1291,
      "herum": 1292,
      "ober": 1293,
      "gesellschaft": 1294,
      "gra": 1295,
      "ziel": 1296,
      "lex": 1297,
      "bevor": 1298,
      "kontro": 1299,
      "kol": 1300,
      "eten": 1301,
      "fu": 1302,
      "fäll": 1303,
      "lös": 1304,
      "tausen": 1305,
      "seiner": 1306,
      "forder": 1307,
      "kopf": 1308,
      "sche": 1309,
      "bas": 1310,
      "lichkeit": 1311,
      "ähn": 1312,
      "gesam": 1313,
      "tage": 1314,
      "100": 1315,
      "maschin": 1316,
      "ziehen": 1317,
      "isches": 1318,
      "wachsen": 1319,
      "bewusst": 1320,
      "ähr": 1321,
      "erklär": 1322,
      "verk": 1323,
      "mik": 1324,
      "manch": 1325,
      "glichen": 1326,
      "nisse": 1327,
      "nächsten": 1328,
      "oka": 1329,
      "ungefähr": 1330,
      "neuen": 1331,
      "genug": 1332,
      "einfl": 1333,
      "kunst": 1334,
      "usa": 1335,
      "elekt": 1336,
      "dro": 1337,
      "erfolg": 1338,
      "braucht": 1339,
      "ite": 1340,
      "suchen": 1341,
      "ord": 1342,
      "hlt": 1343,
      "ton": 1344,
      "go": 1345,
      "mp": 1346,
      "hle": 1347,
      "isten": 1348,
      "darum": 1349,
      "heiten": 1350,
      "unserem": 1351,
      "hol": 1352,
      "komm": 1353,
      "manchmal": 1354,
      "wohn": 1355,
      "volution": 1356,
      "far": 1357,
      "sech": 1358,
      "itten": 1359,
      "reden": 1360,
      "ums": 1361,
      "öt": 1362,
      "gruppe": 1363,
      "überall": 1364,
      "glob": 1365,
      "gangen": 1366,
      "ks": 1367,
      "begann": 1368,
      "gehört": 1369,
      "zug": 1370,
      "fas": 1371,
      "dau": 1372,
      "bereich": 1373,
      "stü": 1374,
      "verändern": 1375,
      "ieb": 1376,
      "okay": 1377,
      "län": 1378,
      "sage": 1379,
      "mode": 1380,
      "mis": 1381,
      "dessen": 1382,
      "liegt": 1383,
      "schau": 1384,
      "stoff": 1385,
      "regel": 1386,
      "kel": 1387,
      "new": 1388,
      "tragen": 1389,
      "krieg": 1390,
      "ogra": 1391,
      "zess": 1392,
      "gebäu": 1393,
      "arch": 1394,
      "männer": 1395,
      "ideen": 1396,
      "gleichen": 1397,
      "planeten": 1398,
      "eren": 1399,
      "informationen": 1400,
      "erfahr": 1401,
      "jo": 1402,
      "bekann": 1403,
      "ustr": 1404,
      "leuten": 1405,
      "häu": 1406,
      "part": 1407,
      "ret": 1408,
      "ras": 1409,
      "sä": 1410,
      "ted": 1411,
      "ip": 1412,
      "bisschen": 1413,
      "euch": 1414,
      "städ": 1415,
      "kosten": 1416,
      "liches": 1417,
      "trä": 1418,
      "gewalt": 1419,
      "hause": 1420,
      "rel": 1421,
      "wär": 1422,
      "deshalb": 1423,
      "inst": 1424,
      "seinen": 1425,
      "krebs": 1426,
      "fir": 1427,
      "schnitt": 1428,
      "großart": 1429,
      "oben": 1430,
      "erkennen": 1431,
      "ad": 1432,
      "chan": 1433,
      "sagten": 1434,
      "har": 1435,
      "schä": 1436,
      "ädchen": 1437,
      "atur": 1438,
      "mädchen": 1439,
      "igkeiten": 1440,
      "phys": 1441,
      "fang": 1442,
      "treffen": 1443,
      "nennen": 1444,
      "geschichten": 1445,
      "film": 1446,
      "vater": 1447,
      "flug": 1448,
      "findet": 1449,
      "gott": 1450,
      "auto": 1451,
      "sprache": 1452,
      "ständ": 1453,
      "milliarden": 1454,
      "delt": 1455,
      "vorher": 1456,
      "gu": 1457,
      "tzung": 1458,
      "fand": 1459,
      "lagen": 1460,
      "entwickelt": 1461,
      "mot": 1462,
      "ausge": 1463,
      "iker": 1464,
      "leb": 1465,
      "teile": 1466,
      "bilder": 1467,
      "ven": 1468,
      "sachen": 1469,
      "besonders": 1470,
      "cke": 1471,
      "äche": 1472,
      "zahlen": 1473,
      "video": 1474,
      "th": 1475,
      "wesen": 1476,
      "kamen": 1477,
      "musste": 1478,
      "anderes": 1479,
      "pan": 1480,
      "afrika": 1481,
      "15": 1482,
      "ienten": 1483,
      "bereits": 1484,
      "arbeitet": 1485,
      "bildung": 1486,
      "dis": 1487,
      "gesicht": 1488,
      "schritt": 1489,
      "außen": 1490,
      "sechs": 1491,
      "stunden": 1492,
      "zept": 1493,
      "zun": 1494,
      "darin": 1495,
      "minuten": 1496,
      "erreichen": 1497,
      "stelle": 1498,
      "familie": 1499,
      "richten": 1500,
      "typ": 1501,
      "öl": 1502,
      "tell": 1503,
      "frie": 1504,
      "vis": 1505,
      "erwar": 1506,
      "machte": 1507,
      "flü": 1508,
      "hätten": 1509,
      "beob": 1510,
      "markt": 1511,
      "kurz": 1512,
      "gebie": 1513,
      "herz": 1514,
      "eltern": 1515,
      "bezie": 1516,
      "pos": 1517,
      "aktion": 1518,
      "robo": 1519,
      "hme": 1520,
      "vir": 1521,
      "verbind": 1522,
      "wand": 1523,
      "schö": 1524,
      "tem": 1525,
      "medizin": 1526,
      "länder": 1527,
      "drück": 1528,
      "namens": 1529,
      "verschiedene": 1530,
      "tex": 1531,
      "antwor": 1532,
      "sk": 1533,
      "programm": 1534,
      "hilfe": 1535,
      "benutzen": 1536,
      "tu": 1537,
      "erinn": 1538,
      "merk": 1539,
      "aufgab": 1540,
      "hoff": 1541,
      "öhn": 1542,
      "dire": 1543,
      "anken": 1544,
      "auszu": 1545,
      "indien": 1546,
      "fehl": 1547,
      "fert": 1548,
      "ergeb": 1549,
      "deut": 1550,
      "besten": 1551,
      "angst": 1552,
      "onen": 1553,
      "kat": 1554,
      "gerne": 1555,
      "luft": 1556,
      "seinem": 1557,
      "publ": 1558,
      "gei": 1559,
      "kan": 1560,
      "einigen": 1561,
      "ismus": 1562,
      "patienten": 1563,
      "modell": 1564,
      "schreiben": 1565,
      "platz": 1566,
      "ome": 1567,
      "asse": 1568,
      "völ": 1569,
      "komplex": 1570,
      "experi": 1571,
      "heut": 1572,
      "spiele": 1573,
      "bewegen": 1574,
      "entwickeln": 1575,
      "bestimm": 1576,
      "li": 1577,
      "sse": 1578,
      "regierung": 1579,
      "fühlen": 1580,
      "dir": 1581,
      "langen": 1582,
      "pflan": 1583,
      "laufen": 1584,
      "künst": 1585,
      "gefunden": 1586,
      "schließ": 1587,
      "irgendwie": 1588,
      "grei": 1589,
      "kap": 1590,
      "niemand": 1591,
      "nahmen": 1592,
      "bald": 1593,
      "pen": 1594,
      "wind": 1595,
      "esse": 1596,
      "bare": 1597,
      "beginn": 1598,
      "rot": 1599,
      "material": 1600,
      "nü": 1601,
      "möglichkeit": 1602,
      "unde": 1603,
      "innerhalb": 1604,
      "ident": 1605,
      "schwar": 1606,
      "jedem": 1607,
      "stre": 1608,
      "mil": 1609,
      "nim": 1610,
      "lebt": 1611,
      "neur": 1612,
      "gewöhn": 1613,
      "gern": 1614,
      "ständig": 1615,
      "ov": 1616,
      "sex": 1617,
      "ries": 1618,
      "gung": 1619,
      "reise": 1620,
      "gebaut": 1621,
      "gleiche": 1622,
      "völker": 1623,
      "aur": 1624,
      "exist": 1625,
      "psy": 1626,
      "zeugen": 1627,
      "einzige": 1628,
      "daher": 1629,
      "gere": 1630,
      "samm": 1631,
      "krat": 1632,
      "schließlich": 1633,
      "ged": 1634,
      "jahrhundert": 1635,
      "gebr": 1636,
      "one": 1637,
      "vorstellen": 1638,
      "gebäude": 1639,
      "genann": 1640,
      "ktor": 1641,
      "reicht": 1642,
      "meer": 1643,
      "roboter": 1644,
      "vertr": 1645,
      "lauf": 1646,
      "trei": 1647,
      "erhalten": 1648,
      "verein": 1649,
      "rest": 1650,
      "elektr": 1651,
      "bie": 1652,
      "hü": 1653,
      "ume": 1654,
      "dungen": 1655,
      "io": 1656,
      "ust": 1657,
      "äl": 1658,
      "danken": 1659,
      "abhän": 1660,
      "industr": 1661,
      "prozess": 1662,
      "pers": 1663,
      "obwohl": 1664,
      "nam": 1665,
      "test": 1666,
      "jeman": 1667,
      "ift": 1668,
      "möglichkeiten": 1669,
      "nämlich": 1670,
      "jähr": 1671,
      "stär": 1672,
      "kommun": 1673,
      "lab": 1674,
      "bitte": 1675,
      "teten": 1676,
      "schick": 1677,
      "att": 1678,
      "lösen": 1679,
      "interessan": 1680,
      "40": 1681,
      "app": 1682,
      "ächt": 1683,
      "bab": 1684,
      "läu": 1685,
      "bemer": 1686,
      "mikro": 1687,
      "verschiedenen": 1688,
      "standen": 1689,
      "beiden": 1690,
      "umwelt": 1691,
      "sicherheit": 1692,
      "fläche": 1693,
      "heim": 1694,
      "beginnen": 1695,
      "wollten": 1696,
      "geschäft": 1697,
      "psych": 1698,
      "maß": 1699,
      "studen": 1700,
      "iken": 1701,
      "unterstü": 1702,
      "boden": 1703,
      "mathe": 1704,
      "ländern": 1705,
      "satz": 1706,
      "damals": 1707,
      "ett": 1708,
      "wahl": 1709,
      "berü": 1710,
      "hnen": 1711,
      "tier": 1712,
      "äten": 1713,
      "kennt": 1714,
      "lesen": 1715,
      "yor": 1716,
      "erinner": 1717,
      "staun": 1718,
      "verändert": 1719,
      "med": 1720,
      "eher": 1721,
      "ian": 1722,
      "aufzu": 1723,
      "unglaublich": 1724,
      "verbesser": 1725,
      "verwenden": 1726,
      "lehrer": 1727,
      "kindern": 1728,
      "menschlichen": 1729,
      "hiel": 1730,
      "eng": 1731,
      "morgen": 1732,
      "lag": 1733,
      "zieren": 1734,
      "bewegung": 1735,
      "entfern": 1736,
      "eller": 1737,
      "interessant": 1738,
      "entwicklung": 1739,
      "bringt": 1740,
      "trotz": 1741,
      "fliegen": 1742,
      "60": 1743,
      "kunden": 1744,
      "not": 1745,
      "publik": 1746,
      "persön": 1747,
      "tö": 1748,
      "enzen": 1749,
      "technolog": 1750,
      "sym": 1751,
      "fähigkeit": 1752,
      "fisch": 1753,
      "sau": 1754,
      "lieben": 1755,
      "18": 1756,
      "sterben": 1757,
      "stab": 1758,
      "schwe": 1759,
      "tages": 1760,
      "china": 1761,
      "anfang": 1762,
      "stellte": 1763,
      "vest": 1764,
      "zw": 1765,
      "gegeben": 1766,
      "tran": 1767,
      "bür": 1768,
      "bu": 1769,
      "are": 1770,
      "getan": 1771,
      "wör": 1772,
      "invest": 1773,
      "beste": 1774,
      "überhaupt": 1775,
      "leist": 1776,
      "obje": 1777,
      "staat": 1778,
      "kehr": 1779,
      "lösung": 1780,
      "ium": 1781,
      "ima": 1782,
      "tut": 1783,
      "cen": 1784,
      "asst": 1785,
      "okrat": 1786,
      "lässt": 1787,
      "hy": 1788,
      "erweise": 1789,
      "muster": 1790,
      "gebracht": 1791,
      "formen": 1792,
      "haft": 1793,
      "kleiner": 1794,
      "forschung": 1795,
      "akt": 1796,
      "wann": 1797,
      "neben": 1798,
      "richtung": 1799,
      "omen": 1800,
      "erstaun": 1801,
      "zwar": 1802,
      "tiere": 1803,
      "mögen": 1804,
      "solche": 1805,
      "orden": 1806,
      "innov": 1807,
      "scheint": 1808,
      "bleiben": 1809,
      "zustellen": 1810,
      "nimmt": 1811,
      "wochen": 1812,
      "staaten": 1813,
      "dun": 1814,
      "ucht": 1815,
      "herausforder": 1816,
      "letzte": 1817,
      "erzähl": 1818,
      "ehr": 1819,
      "ase": 1820,
      "ations": 1821,
      "allem": 1822,
      "tief": 1823,
      "af": 1824,
      "prof": 1825,
      "sprach": 1826,
      "situ": 1827,
      "spir": 1828,
      "absol": 1829,
      "menschliche": 1830,
      "leiden": 1831,
      "wissenschaftler": 1832,
      "gten": 1833,
      "unten": 1834,
      "herr": 1835,
      "versucht": 1836,
      "universum": 1837,
      "team": 1838,
      "deren": 1839,
      "rad": 1840,
      "grunde": 1841,
      "wider": 1842,
      "treten": 1843,
      "erfahrung": 1844,
      "dy": 1845,
      "zweiten": 1846,
      "tele": 1847,
      "fanden": 1848,
      "junge": 1849,
      "verfü": 1850,
      "bevölker": 1851,
      "anderer": 1852,
      "nahm": 1853,
      "mathemat": 1854,
      "ches": 1855,
      "jedoch": 1856,
      "ivi": 1857,
      "schlag": 1858,
      "gol": 1859,
      "imm": 1860,
      "effe": 1861,
      "orie": 1862,
      "äng": 1863,
      "gemeinschaft": 1864,
      "lett": 1865,
      "bat": 1866,
      "nächste": 1867,
      "bedeut": 1868,
      "hne": 1869,
      "ital": 1870,
      "nachdem": 1871,
      "80": 1872,
      "wes": 1873,
      "igten": 1874,
      "handeln": 1875,
      "gemeinsam": 1876,
      "fig": 1877,
      "sin": 1878,
      "möglichen": 1879,
      "meines": 1880,
      "spezie": 1881,
      "prin": 1882,
      "freunde": 1883,
      "falsch": 1884,
      "demokrat": 1885,
      "europ": 1886,
      "mussten": 1887,
      "kranken": 1888,
      "dür": 1889,
      "weisen": 1890,
      "weitere": 1891,
      "tim": 1892,
      "stro": 1893,
      "dingen": 1894,
      "wusste": 1895,
      "betrachten": 1896,
      "völl": 1897,
      "mm": 1898,
      "letzt": 1899,
      "line": 1900,
      "les": 1901,
      "erf": 1902,
      "ine": 1903,
      "gedanken": 1904,
      "eitet": 1905,
      "arm": 1906,
      "12": 1907,
      "zogen": 1908,
      "baren": 1909,
      "eis": 1910,
      "rieben": 1911,
      "pra": 1912,
      "genauso": 1913,
      "bill": 1914,
      "verständ": 1915,
      "präsen": 1916,
      "uren": 1917,
      "cker": 1918,
      "klein": 1919,
      "dlich": 1920,
      "ti": 1921,
      "rä": 1922,
      "tot": 1923,
      "mä": 1924,
      "oper": 1925,
      "sieben": 1926,
      "überras": 1927,
      "feld": 1928,
      "erinnern": 1929,
      "wandel": 1930,
      "off": 1931,
      "anal": 1932,
      "maschine": 1933,
      "miss": 1934,
      "archite": 1935,
      "ap": 1936,
      "job": 1937,
      "jungen": 1938,
      "wicht": 1939,
      "direkt": 1940,
      "preis": 1941,
      "hervor": 1942,
      "wachst": 1943,
      "geist": 1944,
      "affen": 1945,
      "zü": 1946,
      "stet": 1947,
      "plö": 1948,
      "entscheiden": 1949,
      "metho": 1950,
      "publikum": 1951,
      "wären": 1952,
      "gesetzt": 1953,
      "char": 1954,
      "auft": 1955,
      "iziert": 1956,
      "ball": 1957,
      "stei": 1958,
      "danach": 1959,
      "erte": 1960,
      "blo": 1961,
      "männ": 1962,
      "bein": 1963,
      "kal": 1964,
      "manche": 1965,
      "eigene": 1966,
      "dete": 1967,
      "sport": 1968,
      "wech": 1969,
      "frieden": 1970,
      "ju": 1971,
      "regen": 1972,
      "weis": 1973,
      "ri": 1974,
      "york": 1975,
      "besit": 1976,
      "konzentr": 1977,
      "fragte": 1978,
      "worden": 1979,
      "langsam": 1980,
      "amerika": 1981,
      "griff": 1982,
      "sc": 1983,
      "kamer": 1984,
      "stie": 1985,
      "thema": 1986,
      "völlig": 1987,
      "übr": 1988,
      "geführt": 1989,
      "zuerst": 1990,
      "schluss": 1991,
      "häl": 1992,
      "zip": 1993,
      "oze": 1994,
      "blut": 1995,
      "monate": 1996,
      "einzu": 1997,
      "schlecht": 1998,
      "lungs": 1999,
      "spro": 2000,
      "labor": 2001,
      "izieren": 2002,
      "kreativ": 2003,
      "kaufen": 2004,
      "achtet": 2005,
      "nacht": 2006,
      "verantwort": 2007,
      "erlau": 2008,
      "technik": 2009,
      "sichtlich": 2010,
      "nahr": 2011,
      "defin": 2012,
      "karte": 2013,
      "ient": 2014,
      "zerst": 2015,
      "sollen": 2016,
      "ieben": 2017,
      "woche": 2018,
      "welches": 2019,
      "zweite": 2020,
      "ont": 2021,
      "umgeb": 2022,
      "stern": 2023,
      "liegen": 2024,
      "autos": 2025,
      "funktionieren": 2026,
      "moder": 2027,
      "spar": 2028,
      "gelern": 2029,
      "bürger": 2030,
      "beru": 2031,
      "fant": 2032,
      "chter": 2033,
      "besteht": 2034,
      "spa": 2035,
      "gewi": 2036,
      "sour": 2037,
      "stimmt": 2038,
      "größte": 2039,
      "verbunden": 2040,
      "mmer": 2041,
      "hast": 2042,
      "klima": 2043,
      "plötzlich": 2044,
      "rat": 2045,
      "guten": 2046,
      "werfen": 2047,
      "üs": 2048,
      "mitte": 2049,
      "industrie": 2050,
      "familien": 2051,
      "ehmen": 2052,
      "för": 2053,
      "fragt": 2054,
      "zuvor": 2055,
      "aussehen": 2056,
      "selben": 2057,
      "od": 2058,
      "schre": 2059,
      "legt": 2060,
      "ware": 2061,
      "größer": 2062,
      "größten": 2063,
      "zeuge": 2064,
      "medika": 2065,
      "schließen": 2066,
      "kontroll": 2067,
      "mole": 2068,
      "bet": 2069,
      "olle": 2070,
      "gruppen": 2071,
      "pflanzen": 2072,
      "studenten": 2073,
      "gesundheits": 2074,
      "relig": 2075,
      "handelt": 2076,
      "greifen": 2077,
      "erd": 2078,
      "inde": 2079,
      "weder": 2080,
      "pap": 2081,
      "lossen": 2082,
      "schwierig": 2083,
      "finanz": 2084,
      "tausende": 2085,
      "eig": 2086,
      "sehe": 2087,
      "versch": 2088,
      "bot": 2089,
      "ban": 2090,
      "agieren": 2091,
      "neues": 2092,
      "ifft": 2093,
      "egal": 2094,
      "ard": 2095,
      "beschäft": 2096,
      "tin": 2097,
      "medien": 2098,
      "extre": 2099,
      "instit": 2100,
      "setz": 2101,
      "benöt": 2102,
      "tter": 2103,
      "gene": 2104,
      "soft": 2105,
      "verbindung": 2106,
      "gerät": 2107,
      "größe": 2108,
      "stark": 2109,
      "ograf": 2110,
      "bung": 2111,
      "kter": 2112,
      "messen": 2113,
      "verschw": 2114,
      "seln": 2115,
      "rechts": 2116,
      "daraus": 2117,
      "gelernt": 2118,
      "ku": 2119,
      "toll": 2120,
      "unseres": 2121,
      "hig": 2122,
      "glücklich": 2123,
      "zerstör": 2124,
      "gegenüber": 2125,
      "bücher": 2126,
      "krankheit": 2127,
      "ozean": 2128,
      "intell": 2129,
      "setzt": 2130,
      "intelligen": 2131,
      "draußen": 2132,
      "lungen": 2133,
      "erschaffen": 2134,
      "entschie": 2135,
      "geboren": 2136,
      "abhäng": 2137,
      "ed": 2138,
      "technologien": 2139,
      "bist": 2140,
      "durchschnitt": 2141,
      "gewesen": 2142,
      "herauszu": 2143,
      "stimme": 2144,
      "entdeck": 2145,
      "telef": 2146,
      "beeinfl": 2147,
      "lieb": 2148,
      "dio": 2149,
      "iver": 2150,
      "spre": 2151,
      "nahme": 2152,
      "freu": 2153,
      "stein": 2154,
      "unbe": 2155,
      "gefähr": 2156,
      "fuß": 2157,
      "fällt": 2158,
      "pfen": 2159,
      "verur": 2160,
      "meter": 2161,
      "90": 2162,
      "dition": 2163,
      "kle": 2164,
      "engl": 2165,
      "antworten": 2166,
      "künstler": 2167,
      "ihres": 2168,
      "super": 2169,
      "revolution": 2170,
      "iko": 2171,
      "reihe": 2172,
      "opp": 2173,
      "schutz": 2174,
      "holen": 2175,
      "bekannt": 2176,
      "san": 2177,
      "testen": 2178,
      "veröffent": 2179,
      "perfe": 2180,
      "posit": 2181,
      "aufgabe": 2182,
      "denkt": 2183,
      "ure": 2184,
      "untersuch": 2185,
      "kämp": 2186,
      "25": 2187,
      "onnen": 2188,
      "möchten": 2189,
      "krä": 2190,
      "städte": 2191,
      "bevölkerung": 2192,
      "präsent": 2193,
      "fallen": 2194,
      "beide": 2195,
      "prochen": 2196,
      "straße": 2197,
      "ama": 2198,
      "don": 2199,
      "zeige": 2200,
      "strom": 2201,
      "stud": 2202,
      "experiment": 2203,
      "zimmer": 2204,
      "teilt": 2205,
      "mark": 2206,
      "früher": 2207,
      "beeinflus": 2208,
      "mache": 2209,
      "samkeit": 2210,
      "sonst": 2211,
      "systeme": 2212,
      "passen": 2213,
      "ity": 2214,
      "anstatt": 2215,
      "wahrheit": 2216,
      "firma": 2217,
      "schmer": 2218,
      "gliche": 2219,
      "verste": 2220,
      "hi": 2221,
      "kil": 2222,
      "tä": 2223,
      "anten": 2224,
      "schla": 2225,
      "vergangen": 2226,
      "rolle": 2227,
      "situation": 2228,
      "evolution": 2229,
      "passieren": 2230,
      "studie": 2231,
      "scho": 2232,
      "straßen": 2233,
      "sum": 2234,
      "verrück": 2235,
      "geworden": 2236,
      "enden": 2237,
      "bilden": 2238,
      "anwen": 2239,
      "aler": 2240,
      "erklären": 2241,
      "fehler": 2242,
      "dor": 2243,
      "sofort": 2244,
      "allein": 2245,
      "text": 2246,
      "prinzip": 2247,
      "verbin": 2248,
      "nachdenken": 2249,
      "sitzen": 2250,
      "miteinander": 2251,
      "inspir": 2252,
      "anzahl": 2253,
      "spricht": 2254,
      "tatsache": 2255,
      "älter": 2256,
      "gingen": 2257,
      "scht": 2258,
      "jemals": 2259,
      "igung": 2260,
      "häre": 2261,
      "umgebung": 2262,
      "bank": 2263,
      "sphäre": 2264,
      "gesprochen": 2265,
      "iven": 2266,
      "schrieb": 2267,
      "scheinen": 2268,
      "spit": 2269,
      "priv": 2270,
      "soziale": 2271,
      "bus": 2272,
      "vo": 2273,
      "gessen": 2274,
      "kleines": 2275,
      "ings": 2276,
      "hälfte": 2277,
      "iten": 2278,
      "gezeigt": 2279,
      "indivi": 2280,
      "folge": 2281,
      "gän": 2282,
      "iste": 2283,
      "traum": 2284,
      "verloren": 2285,
      "70": 2286,
      "sser": 2287,
      "anfangen": 2288,
      "ärz": 2289,
      "politik": 2290,
      "beginnt": 2291,
      "individu": 2292,
      "gelegen": 2293,
      "ille": 2294,
      "brachte": 2295,
      "foto": 2296,
      "mens": 2297,
      "vortrag": 2298,
      "fühle": 2299,
      "besuch": 2300,
      "gesetz": 2301,
      "vorstellung": 2302,
      "produkt": 2303,
      "itäten": 2304,
      "bekommt": 2305,
      "sonnen": 2306,
      "links": 2307,
      "handel": 2308,
      "zeugt": 2309,
      "veränderung": 2310,
      "kür": 2311,
      "gebe": 2312,
      "brit": 2313,
      "weltweit": 2314,
      "versor": 2315,
      "tür": 2316,
      "moral": 2317,
      "seiten": 2318,
      "ergebnis": 2319,
      "bro": 2320,
      "digen": 2321,
      "aufmerk": 2322,
      "amp": 2323,
      "ernst": 2324,
      "niemals": 2325,
      "oberfläche": 2326,
      "pla": 2327,
      "best": 2328,
      "hinein": 2329,
      "prü": 2330,
      "arbeits": 2331,
      "glie": 2332,
      "ienen": 2333,
      "neh": 2334,
      "hinaus": 2335,
      "phil": 2336,
      "werte": 2337,
      "krankheiten": 2338,
      "gebiet": 2339,
      "versuche": 2340,
      "regier": 2341,
      "ordnung": 2342,
      "genannt": 2343,
      "wörter": 2344,
      "geschrieben": 2345,
      "verwendet": 2346,
      "hungen": 2347,
      "bewe": 2348,
      "berg": 2349,
      "grenzen": 2350,
      "selbe": 2351,
      "11": 2352,
      "west": 2353,
      "klin": 2354,
      "zeitig": 2355,
      "stamm": 2356,
      "reaktion": 2357,
      "span": 2358,
      "poten": 2359,
      "länger": 2360,
      "ror": 2361,
      "bewer": 2362,
      "nachzu": 2363,
      "entfernt": 2364,
      "nachrichten": 2365,
      "zeiten": 2366,
      "höher": 2367,
      "oss": 2368,
      "zelle": 2369,
      "richtige": 2370,
      "bedeutung": 2371,
      "wachstum": 2372,
      "papier": 2373,
      "hor": 2374,
      "lam": 2375,
      "schrift": 2376,
      "bestimmt": 2377,
      "bewusstsein": 2378,
      "him": 2379,
      "kn": 2380,
      "laden": 2381,
      "komplett": 2382,
      "jemanden": 2383,
      "raus": 2384,
      "gewicht": 2385,
      "my": 2386,
      "realität": 2387,
      "aufge": 2388,
      "web": 2389,
      "fing": 2390,
      "internation": 2391,
      "absolut": 2392,
      "vent": 2393,
      "orte": 2394,
      "machten": 2395,
      "hinzu": 2396,
      "krit": 2397,
      "beschrei": 2398,
      "faszin": 2399,
      "age": 2400,
      "lok": 2401,
      "mitt": 2402,
      "darf": 2403,
      "ppen": 2404,
      "entwicklungs": 2405,
      "ct": 2406,
      "kompl": 2407,
      "taten": 2408,
      "regeln": 2409,
      "hielt": 2410,
      "dna": 2411,
      "schneller": 2412,
      "benutzt": 2413,
      "baum": 2414,
      "bekam": 2415,
      "geschie": 2416,
      "fluss": 2417,
      "selt": 2418,
      "blau": 2419,
      "bakter": 2420,
      "generation": 2421,
      "herausforderung": 2422,
      "hoffe": 2423,
      "troffen": 2424,
      "büro": 2425,
      "online": 2426,
      "istan": 2427,
      "raten": 2428,
      "arbeiter": 2429,
      "vertrauen": 2430,
      "kreis": 2431,
      "sal": 2432,
      "studien": 2433,
      "handlung": 2434,
      "spezi": 2435,
      "rein": 2436,
      "schaut": 2437,
      "gaben": 2438,
      "entscheidungen": 2439,
      "ator": 2440,
      "rede": 2441,
      "halte": 2442,
      "meinung": 2443,
      "kri": 2444,
      "emot": 2445,
      "schulen": 2446,
      "mäß": 2447,
      "finde": 2448,
      "tradition": 2449,
      "voller": 2450,
      "information": 2451,
      "kos": 2452,
      "desig": 2453,
      "fähigkeiten": 2454,
      "häuser": 2455,
      "fassen": 2456,
      "erreicht": 2457,
      "zeichen": 2458,
      "ähnlich": 2459,
      "erfolgreich": 2460,
      "wesent": 2461,
      "wü": 2462,
      "car": 2463,
      "erkennt": 2464,
      "zutage": 2465,
      "gram": 2466,
      "dimens": 2467,
      "gekommen": 2468,
      "ehe": 2469,
      "schi": 2470,
      "überleben": 2471,
      "mechan": 2472,
      "sahen": 2473,
      "kontrolle": 2474,
      "jung": 2475,
      "sim": 2476,
      "sign": 2477,
      "chr": 2478,
      "aben": 2479,
      "abzu": 2480,
      "trotzdem": 2481,
      "ierend": 2482,
      "nutz": 2483,
      "mächt": 2484,
      "erwachsen": 2485,
      "linie": 2486,
      "näher": 2487,
      "gor": 2488,
      "las": 2489,
      "eisen": 2490,
      "alte": 2491,
      "konzept": 2492,
      "führung": 2493,
      "beziehung": 2494,
      "heutzutage": 2495,
      "urspr": 2496,
      "grü": 2497,
      "entwickel": 2498,
      "theorie": 2499,
      "habt": 2500,
      "sonne": 2501,
      "gleichzeitig": 2502,
      "monat": 2503,
      "zunehmen": 2504,
      "prakt": 2505,
      "übrigen": 2506,
      "stellten": 2507,
      "kern": 2508,
      "rechte": 2509,
      "jahrzehn": 2510,
      "samen": 2511,
      "nahe": 2512,
      "aden": 2513,
      "num": 2514,
      "fälle": 2515,
      "irgendwo": 2516,
      "offensichtlich": 2517,
      "disk": 2518,
      "dachten": 2519,
      "port": 2520,
      "komme": 2521,
      "tod": 2522,
      "interessiert": 2523,
      "früh": 2524,
      "firmen": 2525,
      "steigen": 2526,
      "chem": 2527,
      "hnung": 2528,
      "bedeuten": 2529,
      "sorgen": 2530,
      "einfluss": 2531,
      "physik": 2532,
      "läuft": 2533,
      "wichtige": 2534,
      "erwä": 2535,
      "mitgefühl": 2536,
      "jenigen": 2537,
      "zit": 2538,
      "vereinigten": 2539,
      "ktive": 2540,
      "ehen": 2541,
      "fle": 2542,
      "sequ": 2543,
      "gespr": 2544,
      "wirkungen": 2545,
      "gebur": 2546,
      "gutes": 2547,
      "pekt": 2548,
      "cy": 2549,
      "einge": 2550,
      "ffiz": 2551,
      "stens": 2552,
      "einfache": 2553,
      "software": 2554,
      "geschieht": 2555,
      "pi": 2556,
      "see": 2557,
      "kurze": 2558,
      "molekü": 2559,
      "uelle": 2560,
      "hang": 2561,
      "sozialen": 2562,
      "herauszufinden": 2563,
      "bewegt": 2564,
      "ghan": 2565,
      "wil": 2566,
      "stimmen": 2567,
      "telefon": 2568,
      "bä": 2569,
      "enor": 2570,
      "erkann": 2571,
      "stä": 2572,
      "minist": 2573,
      "goog": 2574,
      "fertig": 2575,
      "ax": 2576,
      "ds": 2577,
      "abend": 2578,
      "befinden": 2579,
      "feuer": 2580,
      "band": 2581,
      "nennt": 2582,
      "ären": 2583,
      "mob": 2584,
      "gearbeitet": 2585,
      "dopp": 2586,
      "kul": 2587,
      "vergessen": 2588,
      "rech": 2589,
      "ppe": 2590,
      "tauch": 2591,
      "ziert": 2592,
      "strate": 2593,
      "europa": 2594,
      "hum": 2595,
      "krei": 2596,
      "ichten": 2597,
      "orten": 2598,
      "began": 2599,
      "schaf": 2600,
      "punkte": 2601,
      "normalerweise": 2602,
      "uhr": 2603,
      "takt": 2604,
      "wichtiger": 2605,
      "nehmer": 2606,
      "arme": 2607,
      "gesp": 2608,
      "hnt": 2609,
      "gesamte": 2610,
      "keiner": 2611,
      "alien": 2612,
      "universität": 2613,
      "fantast": 2614,
      "außerdem": 2615,
      "einzelne": 2616,
      "beobachten": 2617,
      "hoffnung": 2618,
      "menten": 2619,
      "werke": 2620,
      "ologen": 2621,
      "ikel": 2622,
      "füll": 2623,
      "tren": 2624,
      "nord": 2625,
      "dienst": 2626,
      "ressour": 2627,
      "maschinen": 2628,
      "fän": 2629,
      "redu": 2630,
      "kannst": 2631,
      "großer": 2632,
      "dia": 2633,
      "personen": 2634,
      "google": 2635,
      "ales": 2636,
      "rop": 2637,
      "dienen": 2638,
      "sammeln": 2639,
      "begannen": 2640,
      "ansehen": 2641,
      "dadurch": 2642,
      "kampf": 2643,
      "dorf": 2644,
      "beding": 2645,
      "führte": 2646,
      "haut": 2647,
      "lon": 2648,
      "vorbei": 2649,
      "schlüs": 2650,
      "gründe": 2651,
      "deine": 2652,
      "gewe": 2653,
      "geheim": 2654,
      "zugang": 2655,
      "verlassen": 2656,
      "nachhalt": 2657,
      "ließ": 2658,
      "wussten": 2659,
      "ebene": 2660,
      "aufmerksamkeit": 2661,
      "mittler": 2662,
      "gas": 2663,
      "tum": 2664,
      "genet": 2665,
      "sobald": 2666,
      "voraus": 2667,
      "bur": 2668,
      "tät": 2669,
      "leg": 2670,
      "ändert": 2671,
      "vorstell": 2672,
      "train": 2673,
      "kommunik": 2674,
      "lev": 2675,
      "atten": 2676,
      "wieso": 2677,
      "übrigens": 2678,
      "zuminde": 2679,
      "zeichnen": 2680,
      "bemerken": 2681,
      "tes": 2682,
      "schlagen": 2683,
      "sekunden": 2684,
      "klasse": 2685,
      "hört": 2686,
      "amerikaner": 2687,
      "einzelnen": 2688,
      "himmel": 2689,
      "neun": 2690,
      "tagen": 2691,
      "sprachen": 2692,
      "passierte": 2693,
      "region": 2694,
      "produzieren": 2695,
      "volle": 2696,
      "demokratie": 2697,
      "arzt": 2698,
      "denk": 2699,
      "terror": 2700,
      "ime": 2701,
      "großes": 2702,
      "ative": 2703,
      "bestimmten": 2704,
      "bleibt": 2705,
      "drücken": 2706,
      "500": 2707,
      "falt": 2708,
      "kö": 2709,
      "schir": 2710,
      "wählen": 2711,
      "gewinnen": 2712,
      "karten": 2713,
      "gedacht": 2714,
      "kämpfen": 2715,
      "fische": 2716,
      "diesel": 2717,
      "bahn": 2718,
      "zentrum": 2719,
      "schüler": 2720,
      "nete": 2721,
      "neuer": 2722,
      "monaten": 2723,
      "zeichnet": 2724,
      "netzwerk": 2725,
      "extrem": 2726,
      "fo": 2727,
      "äumen": 2728,
      "arbeitete": 2729,
      "empf": 2730,
      "zumindest": 2731,
      "con": 2732,
      "armut": 2733,
      "kla": 2734,
      "klei": 2735,
      "16": 2736,
      "mi": 2737,
      "geschwind": 2738,
      "konfl": 2739,
      "sand": 2740,
      "ilis": 2741,
      "versuchte": 2742,
      "14": 2743,
      "poliz": 2744,
      "log": 2745,
      "ry": 2746,
      "abge": 2747,
      "biolog": 2748,
      "amerikanischen": 2749,
      "interessante": 2750,
      "wün": 2751,
      "sohn": 2752,
      "nachbar": 2753,
      "geschehen": 2754,
      "trans": 2755,
      "profess": 2756,
      "steu": 2757,
      "beispiele": 2758,
      "landes": 2759,
      "uchs": 2760,
      "organisation": 2761,
      "rund": 2762,
      "ese": 2763,
      "verstanden": 2764,
      "afrikan": 2765,
      "schreck": 2766,
      "ossen": 2767,
      "tan": 2768,
      "gegangen": 2769,
      "geschlossen": 2770,
      "bessere": 2771,
      "hunderte": 2772,
      "freiheit": 2773,
      "stau": 2774,
      "qualität": 2775,
      "wirtschafts": 2776,
      "ps": 2777,
      "tisch": 2778,
      "warten": 2779,
      "schlä": 2780,
      "methode": 2781,
      "spaß": 2782,
      "brechen": 2783,
      "führer": 2784,
      "richtigen": 2785,
      "john": 2786,
      "verbessern": 2787,
      "stieg": 2788,
      "adr": 2789,
      "echt": 2790,
      "omat": 2791,
      "effiz": 2792,
      "menschheit": 2793,
      "präs": 2794,
      "partner": 2795,
      "schöne": 2796,
      "spezies": 2797,
      "hu": 2798,
      "hiv": 2799,
      "aufgrund": 2800,
      "hindern": 2801,
      "folgt": 2802,
      "einkommen": 2803,
      "designer": 2804,
      "wal": 2805,
      "wol": 2806,
      "seh": 2807,
      "grenz": 2808,
      "japan": 2809,
      "leider": 2810,
      "mitteln": 2811,
      "pal": 2812,
      "wald": 2813,
      "verlieren": 2814,
      "galax": 2815,
      "kamera": 2816,
      "höhe": 2817,
      "gründen": 2818,
      "ki": 2819,
      "erhö": 2820,
      "verhält": 2821,
      "spiegel": 2822,
      "park": 2823,
      "stig": 2824,
      "anschauen": 2825,
      "deta": 2826,
      "press": 2827,
      "ham": 2828,
      "liste": 2829,
      "tas": 2830,
      "itär": 2831,
      "ette": 2832,
      "müs": 2833,
      "schlechte": 2834,
      "geschwindigkeit": 2835,
      "stör": 2836,
      "nachricht": 2837,
      "produktion": 2838,
      "retten": 2839,
      "ergebnisse": 2840,
      "ziv": 2841,
      "erzeugen": 2842,
      "ielle": 2843,
      "mail": 2844,
      "spieler": 2845,
      "verständnis": 2846,
      "bö": 2847,
      "var": 2848,
      "diejenigen": 2849,
      "dert": 2850,
      "ingenie": 2851,
      "süd": 2852,
      "grad": 2853,
      "kollegen": 2854,
      "holz": 2855,
      "nummer": 2856,
      "frem": 2857,
      "199": 2858,
      "baby": 2859,
      "kaum": 2860,
      "äre": 2861,
      "chris": 2862,
      "heben": 2863,
      "traf": 2864,
      "entscheidung": 2865,
      "standar": 2866,
      "objekt": 2867,
      "blich": 2868,
      "mung": 2869,
      "yo": 2870,
      "zwe": 2871,
      "wellen": 2872,
      "gebil": 2873,
      "akter": 2874,
      "geschäfts": 2875,
      "innovation": 2876,
      "ther": 2877,
      "ökon": 2878,
      "ressourcen": 2879,
      "bienen": 2880,
      "tal": 2881,
      "worte": 2882,
      "mathematik": 2883,
      "yste": 2884,
      "mitglie": 2885,
      "waffen": 2886,
      "meister": 2887,
      "erzählt": 2888,
      "erlaubt": 2889,
      "fund": 2890,
      "fab": 2891,
      "ms": 2892,
      "chst": 2893,
      "zufäll": 2894,
      "ore": 2895,
      "sodass": 2896,
      "prot": 2897,
      "bio": 2898,
      "ebenso": 2899,
      "winz": 2900,
      "treiben": 2901,
      "vergangenheit": 2902,
      "fi": 2903,
      "kauf": 2904,
      "sweise": 2905,
      "bren": 2906,
      "kombin": 2907,
      "öffnen": 2908,
      "abhängig": 2909,
      "bakterien": 2910,
      "schlüssel": 2911,
      "zustand": 2912,
      "aussieht": 2913,
      "großartig": 2914,
      "vergleich": 2915,
      "artikel": 2916,
      "wirklichkeit": 2917,
      "chines": 2918,
      "entdecken": 2919,
      "bestimmte": 2920,
      "dra": 2921,
      "tieren": 2922,
      "wege": 2923,
      "stoffe": 2924,
      "nachzudenken": 2925,
      "rum": 2926,
      "säu": 2927,
      "geräu": 2928,
      "spielt": 2929,
      "schicken": 2930,
      "hirn": 2931,
      "entweder": 2932,
      "emp": 2933,
      "suche": 2934,
      "ärzte": 2935,
      "17": 2936,
      "hall": 2937,
      "sowohl": 2938,
      "gefäng": 2939,
      "endlich": 2940,
      "farbe": 2941,
      "großartige": 2942,
      "institut": 2943,
      "kräfte": 2944,
      "kilome": 2945,
      "laut": 2946,
      "fällen": 2947,
      "gesamten": 2948,
      "uell": 2949,
      "unmöglich": 2950,
      "wirken": 2951,
      "könig": 2952,
      "digit": 2953,
      "hände": 2954,
      "risiko": 2955,
      "riesige": 2956,
      "charakter": 2957,
      "fs": 2958,
      "meeres": 2959,
      "schmerz": 2960,
      "bom": 2961,
      "asen": 2962,
      "solchen": 2963,
      "statist": 2964,
      "fotos": 2965,
      "farben": 2966,
      "beziehungen": 2967,
      "verbinden": 2968,
      "gerä": 2969,
      "zeigte": 2970,
      "muse": 2971,
      "erfahren": 2972,
      "armen": 2973,
      "iti": 2974,
      "verwan": 2975,
      "ierter": 2976,
      "jahres": 2977,
      "model": 2978,
      "dreht": 2979,
      "regierungen": 2980,
      "krise": 2981,
      "geburt": 2982,
      "lück": 2983,
      "runter": 2984,
      "leisten": 2985,
      "kohlen": 2986,
      "fein": 2987,
      "koch": 2988,
      "lit": 2989,
      "nungen": 2990,
      "dasselbe": 2991,
      "verbrauch": 2992,
      "bezug": 2993,
      "gelö": 2994,
      "ferenz": 2995,
      "licherweise": 2996,
      "hilft": 2997,
      "fotograf": 2998,
      "krankenhaus": 2999,
      "of": 3000,
      "umzu": 3001,
      "nenne": 3002,
      "nehm": 3003,
      "untersuchen": 3004,
      "haup": 3005,
      "gü": 3006,
      "mmen": 3007,
      "vi": 3008,
      "verstand": 3009,
      "optim": 3010,
      "schlimm": 3011,
      "wagen": 3012,
      "niedr": 3013,
      "globalen": 3014,
      "chance": 3015,
      "inge": 3016,
      "dritte": 3017,
      "haltung": 3018,
      "rau": 3019,
      "tung": 3020,
      "ereig": 3021,
      "geg": 3022,
      "atom": 3023,
      "ierende": 3024,
      "ers": 3025,
      "stol": 3026,
      "gefragt": 3027,
      "lebe": 3028,
      "stände": 3029,
      "leistung": 3030,
      "bedür": 3031,
      "trifft": 3032,
      "finger": 3033,
      "bühne": 3034,
      "flugzeug": 3035,
      "bieten": 3036,
      "nahrung": 3037,
      "herstellen": 3038,
      "hörte": 3039,
      "einzig": 3040,
      "schützen": 3041,
      "leidenschaft": 3042,
      "uellen": 3043,
      "welcher": 3044,
      "blü": 3045,
      "bisher": 3046,
      "drogen": 3047,
      "13": 3048,
      "peratur": 3049,
      "seits": 3050,
      "motor": 3051,
      "architektur": 3052,
      "koh": 3053,
      "pau": 3054,
      "passt": 3055,
      "verkehr": 3056,
      "phän": 3057,
      "national": 3058,
      "sätzlich": 3059,
      "notwen": 3060,
      "sinne": 3061,
      "pop": 3062,
      "stes": 3063,
      "stam": 3064,
      "lege": 3065,
      "leuch": 3066,
      "grundlegen": 3067,
      "million": 3068,
      "tausend": 3069,
      "aufgaben": 3070,
      "wechsel": 3071,
      "seltsam": 3072,
      "massen": 3073,
      "üben": 3074,
      "kenne": 3075,
      "dritten": 3076,
      "version": 3077,
      "minister": 3078,
      "instru": 3079,
      "auswirkungen": 3080,
      "stecken": 3081,
      "gewinn": 3082,
      "heil": 3083,
      "arbeite": 3084,
      "erstens": 3085,
      "hart": 3086,
      "mes": 3087,
      "gewä": 3088,
      "konstru": 3089,
      "teilung": 3090,
      "herausfinden": 3091,
      "nerven": 3092,
      "ograph": 3093,
      "entschieden": 3094,
      "dit": 3095,
      "ib": 3096,
      "mögl": 3097,
      "produkte": 3098,
      "lösungen": 3099,
      "iö": 3100,
      "ue": 3101,
      "verm": 3102,
      "bestehen": 3103,
      "kontin": 3104,
      "interesse": 3105,
      "entdeckt": 3106,
      "phänomen": 3107,
      "bol": 3108,
      "kunde": 3109,
      "ucken": 3110,
      "erweiter": 3111,
      "bestand": 3112,
      "bedro": 3113,
      "ilien": 3114,
      "trin": 3115,
      "drehen": 3116,
      "erzählte": 3117,
      "erleben": 3118,
      "stunde": 3119,
      "igte": 3120,
      "unterschei": 3121,
      "glaub": 3122,
      "besondere": 3123,
      "ehrlich": 3124,
      "afghan": 3125,
      "ursprün": 3126,
      "ermögl": 3127,
      "hrt": 3128,
      "behandlung": 3129,
      "vielfalt": 3130,
      "fortschritt": 3131,
      "außerhalb": 3132,
      "name": 3133,
      "englisch": 3134,
      "schiff": 3135,
      "dein": 3136,
      "reisen": 3137,
      "betrachtet": 3138,
      "lose": 3139,
      "öffentlichen": 3140,
      "spitze": 3141,
      "bedingungen": 3142,
      "ermöglicht": 3143,
      "läch": 3144,
      "bru": 3145,
      "bruch": 3146,
      "brust": 3147,
      "wohin": 3148,
      "maßen": 3149,
      "begei": 3150,
      "organisationen": 3151,
      "letztes": 3152,
      "beit": 3153,
      "ga": 3154,
      "hist": 3155,
      "lachen": 3156,
      "herunter": 3157,
      "kontakt": 3158,
      "akzept": 3159,
      "verurs": 3160,
      "gefängnis": 3161,
      "col": 3162,
      "wander": 3163,
      "schnei": 3164,
      "face": 3165,
      "temperatur": 3166,
      "fabr": 3167,
      "dok": 3168,
      "fik": 3169,
      "geschaffen": 3170,
      "flei": 3171,
      "nann": 3172,
      "inse": 3173,
      "weile": 3174,
      "ächst": 3175,
      "sozial": 3176,
      "motiv": 3177,
      "schirm": 3178,
      "bal": 3179,
      "veran": 3180,
      "beein": 3181,
      "bezahl": 3182,
      "steuer": 3183,
      "glas": 3184,
      "mars": 3185,
      "speich": 3186,
      "astrop": 3187,
      "schafft": 3188,
      "geräte": 3189,
      "km": 3190,
      "ächen": 3191,
      "gehe": 3192,
      "desto": 3193,
      "befindet": 3194,
      "forschen": 3195,
      "front": 3196,
      "ruf": 3197,
      "einzigen": 3198,
      "schätzen": 3199,
      "unterstützen": 3200,
      "wett": 3201,
      "genu": 3202,
      "deten": 3203,
      "abel": 3204,
      "einfachen": 3205,
      "nieder": 3206,
      "altung": 3207,
      "wichtigste": 3208,
      "fühlt": 3209,
      "virus": 3210,
      "militär": 3211,
      "liebl": 3212,
      "leid": 3213,
      "fähig": 3214,
      "knoch": 3215,
      "üb": 3216,
      "ausdruck": 3217,
      "rate": 3218,
      "allge": 3219,
      "ffer": 3220,
      "wäl": 3221,
      "anti": 3222,
      "biologie": 3223,
      "fühlte": 3224,
      "alismus": 3225,
      "katastrop": 3226,
      "spreche": 3227,
      "doku": 3228,
      "ile": 3229,
      "mär": 3230,
      "yr": 3231,
      "orben": 3232,
      "spür": 3233,
      "geschle": 3234,
      "fuhr": 3235,
      "zweitens": 3236,
      "effekt": 3237,
      "rechten": 3238,
      "westen": 3239,
      "co2": 3240,
      "ina": 3241,
      "ager": 3242,
      "blog": 3243,
      "prim": 3244,
      "richtungen": 3245,
      "folgendes": 3246,
      "jene": 3247,
      "dimension": 3248,
      "flächen": 3249,
      "boot": 3250,
      "veränderungen": 3251,
      "projekte": 3252,
      "zunächst": 3253,
      "position": 3254,
      "pil": 3255,
      "up": 3256,
      "deswegen": 3257,
      "eigenschaften": 3258,
      "gehirns": 3259,
      "guter": 3260,
      "transport": 3261,
      "nöt": 3262,
      "agno": 3263,
      "mehrere": 3264,
      "solar": 3265,
      "unterschiede": 3266,
      "rücken": 3267,
      "lebte": 3268,
      "emotion": 3269,
      "knochen": 3270,
      "verletz": 3271,
      "roh": 3272,
      "brü": 3273,
      "materie": 3274,
      "lernte": 3275,
      "materialien": 3276,
      "medikamente": 3277,
      "nei": 3278,
      "rt": 3279,
      "mitten": 3280,
      "wenige": 3281,
      "zeitpunkt": 3282,
      "plä": 3283,
      "verbindungen": 3284,
      "high": 3285,
      "21": 3286,
      "tens": 3287,
      "urn": 3288,
      "imin": 3289,
      "steckt": 3290,
      "titel": 3291,
      "freude": 3292,
      "kilometer": 3293,
      "300": 3294,
      "weib": 3295,
      "ktoren": 3296,
      "geln": 3297,
      "außergewöhn": 3298,
      "erfahrungen": 3299,
      "wärts": 3300,
      "privat": 3301,
      "fass": 3302,
      "sh": 3303,
      "getroffen": 3304,
      "beteil": 3305,
      "sper": 3306,
      "opt": 3307,
      "fenster": 3308,
      "worten": 3309,
      "filme": 3310,
      "dynam": 3311,
      "klimawandel": 3312,
      "detail": 3313,
      "agen": 3314,
      "inden": 3315,
      "altet": 3316,
      "vermut": 3317,
      "wenden": 3318,
      "herzen": 3319,
      "selten": 3320,
      "wirkung": 3321,
      "wunderbar": 3322,
      "ansatz": 3323,
      "städten": 3324,
      "erwarten": 3325,
      "bedürf": 3326,
      "echte": 3327,
      "sichtig": 3328,
      "atmo": 3329,
      "meta": 3330,
      "spekt": 3331,
      "stattdessen": 3332,
      "ebenfalls": 3333,
      "jemandem": 3334,
      "erinnere": 3335,
      "rü": 3336,
      "zy": 3337,
      "onie": 3338,
      "annt": 3339,
      "opfer": 3340,
      "cool": 3341,
      "verkaufen": 3342,
      "brot": 3343,
      "gier": 3344,
      "unsch": 3345,
      "behaup": 3346,
      "rechn": 3347,
      "sucht": 3348,
      "rufen": 3349,
      "jahrhunderts": 3350,
      "afft": 3351,
      "gramme": 3352,
      "fleisch": 3353,
      "keln": 3354,
      "lass": 3355,
      "weite": 3356,
      "herzustellen": 3357,
      "mögliche": 3358,
      "müll": 3359,
      "ulation": 3360,
      "unterschiedliche": 3361,
      "heutigen": 3362,
      "bäume": 3363,
      "london": 3364,
      "polizei": 3365,
      "heran": 3366,
      "klass": 3367,
      "gesellschaften": 3368,
      "ids": 3369,
      "unglaubliche": 3370,
      "verantwortung": 3371,
      "gil": 3372,
      "ira": 3373,
      "oso": 3374,
      "inte": 3375,
      "sommer": 3376,
      "quelle": 3377,
      "freunden": 3378,
      "ganzes": 3379,
      "dings": 3380,
      "männern": 3381,
      "kommunikation": 3382,
      "hie": 3383,
      "riere": 3384,
      "äst": 3385,
      "inne": 3386,
      "ons": 3387,
      "einsatz": 3388,
      "britann": 3389,
      "still": 3390,
      "sens": 3391,
      "linien": 3392,
      "null": 3393,
      "benutz": 3394,
      "forscher": 3395,
      "result": 3396,
      "gesamt": 3397,
      "schwarz": 3398,
      "behandeln": 3399,
      "indung": 3400,
      "naja": 3401,
      "barkeit": 3402,
      "gehir": 3403,
      "dat": 3404,
      "ifor": 3405,
      "jün": 3406,
      "nehme": 3407,
      "schaff": 3408,
      "seien": 3409,
      "schritte": 3410,
      "lager": 3411,
      "modelle": 3412,
      "mult": 3413,
      "infra": 3414,
      "iss": 3415,
      "gress": 3416,
      "ativen": 3417,
      "werkzeuge": 3418,
      "täglich": 3419,
      "begeister": 3420,
      "pag": 3421,
      "auge": 3422,
      "ignor": 3423,
      "eitung": 3424,
      "autor": 3425,
      "expl": 3426,
      "häufig": 3427,
      "24": 3428,
      "fei": 3429,
      "hom": 3430,
      "klang": 3431,
      "scher": 3432,
      "schte": 3433,
      "wiesen": 3434,
      "ließen": 3435,
      "geschafft": 3436,
      "sitz": 3437,
      "masse": 3438,
      "globale": 3439,
      "erfunden": 3440,
      "bett": 3441,
      "teuer": 3442,
      "vermei": 3443,
      "schönheit": 3444,
      "amerikanische": 3445,
      "erstaunlich": 3446,
      "plast": 3447,
      "iforn": 3448,
      "infrastruktur": 3449,
      "dicht": 3450,
      "alist": 3451,
      "weich": 3452,
      "ierenden": 3453,
      "geschah": 3454,
      "ford": 3455,
      "ickt": 3456,
      "öffnet": 3457,
      "nähe": 3458,
      "religion": 3459,
      "verrückt": 3460,
      "ahnung": 3461,
      "dach": 3462,
      "gien": 3463,
      "britannien": 3464,
      "furch": 3465,
      "haufen": 3466,
      "anc": 3467,
      "perspe": 3468,
      "flu": 3469,
      "digt": 3470,
      "soldaten": 3471,
      "freien": 3472,
      "konzentrieren": 3473,
      "ac": 3474,
      "dom": 3475,
      "stag": 3476,
      "lektion": 3477,
      "konferenz": 3478,
      "wichtigsten": 3479,
      "angefangen": 3480,
      "elektro": 3481,
      "schönen": 3482,
      "schwarze": 3483,
      "überraschen": 3484,
      "vogel": 3485,
      "hit": 3486,
      "argu": 3487,
      "verbringen": 3488,
      "ernähr": 3489,
      "größere": 3490,
      "existiert": 3491,
      "interessanter": 3492,
      "genutzt": 3493,
      "fett": 3494,
      "schien": 3495,
      "gefangen": 3496,
      "aufnahme": 3497,
      "entstehen": 3498,
      "ände": 3499,
      "eigenes": 3500,
      "dient": 3501,
      "ziele": 3502,
      "book": 3503,
      "kostet": 3504,
      "kreu": 3505,
      "verfügung": 3506,
      "fiel": 3507,
      "loch": 3508,
      "arab": 3509,
      "islam": 3510,
      "brauchte": 3511,
      "erstes": 3512,
      "erstoff": 3513,
      "gemeinde": 3514,
      "dauer": 3515,
      "hielten": 3516,
      "ox": 3517,
      "täu": 3518,
      "achsen": 3519,
      "ausbildung": 3520,
      "unternehmer": 3521,
      "lied": 3522,
      "glaubt": 3523,
      "alisierung": 3524,
      "philoso": 3525,
      "effizien": 3526,
      "präsident": 3527,
      "mass": 3528,
      "szen": 3529,
      "tolle": 3530,
      "wunsch": 3531,
      "stop": 3532,
      "schil": 3533,
      "entlich": 3534,
      "verkauf": 3535,
      "dauern": 3536,
      "gelegenheit": 3537,
      "gewebe": 3538,
      "mart": 3539,
      "van": 3540,
      "angeb": 3541,
      "hey": 3542,
      "fügen": 3543,
      "dium": 3544,
      "diagno": 3545,
      "vollen": 3546,
      "nächstes": 3547,
      "werkzeug": 3548,
      "frühen": 3549,
      "basis": 3550,
      "sauerstoff": 3551,
      "het": 3552,
      "cha": 3553,
      "ies": 3554,
      "stift": 3555,
      "brück": 3556,
      "nachts": 3557,
      "gestalten": 3558,
      "alternat": 3559,
      "schlaf": 3560,
      "fängt": 3561,
      "integr": 3562,
      "dün": 3563,
      "ichtet": 3564,
      "begriff": 3565,
      "ckte": 3566,
      "dav": 3567,
      "brie": 3568,
      "lief": 3569,
      "drucken": 3570,
      "stuhl": 3571,
      "journ": 3572,
      "dunkel": 3573,
      "nahrungs": 3574,
      "kürz": 3575,
      "bemerkens": 3576,
      "stolz": 3577,
      "rän": 3578,
      "dennoch": 3579,
      "ameisen": 3580,
      "irur": 3581,
      "kehren": 3582,
      "quadr": 3583,
      "gesetze": 3584,
      "verfüg": 3585,
      "drit": 3586,
      "weiterhin": 3587,
      "landwirtschaft": 3588,
      "todes": 3589,
      "fernsehen": 3590,
      "respekt": 3591,
      "politische": 3592,
      "allerdings": 3593,
      "typen": 3594,
      "neuronen": 3595,
      "jugend": 3596,
      "kontrollieren": 3597,
      "erzeugt": 3598,
      "strei": 3599,
      "auseinander": 3600,
      "ikas": 3601,
      "ochter": 3602,
      "fahrer": 3603,
      "sicherlich": 3604,
      "mond": 3605,
      "bud": 3606,
      "block": 3607,
      "beeinflusst": 3608,
      "bon": 3609,
      "sur": 3610,
      "austr": 3611,
      "depress": 3612,
      "geschä": 3613,
      "seines": 3614,
      "eigent": 3615,
      "begonnen": 3616,
      "digung": 3617,
      "irgendwann": 3618,
      "systems": 3619,
      "verhaltens": 3620,
      "erwartet": 3621,
      "mmern": 3622,
      "ament": 3623,
      "epi": 3624,
      "lü": 3625,
      "aufgenommen": 3626,
      "mex": 3627,
      "metr": 3628,
      "gelassen": 3629,
      "dingt": 3630,
      "riesigen": 3631,
      "räume": 3632,
      "cor": 3633,
      "maus": 3634,
      "auer": 3635,
      "schim": 3636,
      "gem": 3637,
      "somit": 3638,
      "hohe": 3639,
      "kurs": 3640,
      "politischen": 3641,
      "strukturen": 3642,
      "perfekt": 3643,
      "einzigart": 3644,
      "bit": 3645,
      "ikt": 3646,
      "jam": 3647,
      "osten": 3648,
      "ske": 3649,
      "gefühle": 3650,
      "zusagen": 3651,
      "reagieren": 3652,
      "brei": 3653,
      "klassen": 3654,
      "größeren": 3655,
      "strahl": 3656,
      "viertel": 3657,
      "lebten": 3658,
      "kreativität": 3659,
      "ökonom": 3660,
      "dur": 3661,
      "tanz": 3662,
      "tochter": 3663,
      "erstellen": 3664,
      "aren": 3665,
      "klingt": 3666,
      "großbritannien": 3667,
      "garten": 3668,
      "gefallen": 3669,
      "gä": 3670,
      "hte": 3671,
      "lasst": 3672,
      "rand": 3673,
      "roll": 3674,
      "roman": 3675,
      "neten": 3676,
      "intervie": 3677,
      "schlei": 3678,
      "letztendlich": 3679,
      "korallen": 3680,
      "künft": 3681,
      "mobil": 3682,
      "gelöst": 3683,
      "sho": 3684,
      "wuchs": 3685,
      "auber": 3686,
      "zufrieden": 3687,
      "setzung": 3688,
      "entlang": 3689,
      "flüss": 3690,
      "kaliforn": 3691,
      "erlauben": 3692,
      "gespräch": 3693,
      "ermöglichen": 3694,
      "sekunde": 3695,
      "bras": 3696,
      "fragten": 3697,
      "sterne": 3698,
      "produziert": 3699,
      "küste": 3700,
      "karriere": 3701,
      "noten": 3702,
      "wohner": 3703,
      "aurier": 3704,
      "operation": 3705,
      "analy": 3706,
      "atmosphäre": 3707,
      "dige": 3708,
      "wet": 3709,
      "gehalten": 3710,
      "dagegen": 3711,
      "fasst": 3712,
      "investieren": 3713,
      "beruf": 3714,
      "museum": 3715,
      "wettbewer": 3716,
      "cl": 3717,
      "dlichen": 3718,
      "verfolgen": 3719,
      "rael": 3720,
      "iran": 3721,
      "trieben": 3722,
      "wält": 3723,
      "einfacher": 3724,
      "gewachsen": 3725,
      "pfel": 3726,
      "stoßen": 3727,
      "elektron": 3728,
      "ala": 3729,
      "davor": 3730,
      "dahin": 3731,
      "israel": 3732,
      "flas": 3733,
      "jährigen": 3734,
      "beeinflussen": 3735,
      "verhältnis": 3736,
      "fok": 3737,
      "schwei": 3738,
      "begeg": 3739,
      "serv": 3740,
      "gren": 3741,
      "krimin": 3742,
      "teilchen": 3743,
      "pfer": 3744,
      "landschaft": 3745,
      "linken": 3746,
      "beine": 3747,
      "cent": 3748,
      "dum": 3749,
      "tur": 3750,
      "stür": 3751,
      "rahmen": 3752,
      "trick": 3753,
      "ulieren": 3754,
      "fahrt": 3755,
      "gabe": 3756,
      "dorthin": 3757,
      "minde": 3758,
      "aktivität": 3759,
      "botschaft": 3760,
      "afghanistan": 3761,
      "gilt": 3762,
      "inen": 3763,
      "fehlen": 3764,
      "automat": 3765,
      "teles": 3766,
      "zusammenhang": 3767,
      "wahrscheinlichkeit": 3768,
      "steuern": 3769,
      "sil": 3770,
      "erforschen": 3771,
      "unsicht": 3772,
      "großteil": 3773,
      "bildern": 3774,
      "code": 3775,
      "experimente": 3776,
      "töten": 3777,
      "versorgung": 3778,
      "sequenz": 3779,
      "kurzem": 3780,
      "histor": 3781,
      "city": 3782,
      "oten": 3783,
      "wein": 3784,
      "behandelt": 3785,
      "sogenann": 3786,
      "konsum": 3787,
      "male": 3788,
      "zieht": 3789,
      "pri": 3790,
      "hängt": 3791,
      "verkauft": 3792,
      "dauert": 3793,
      "sparen": 3794,
      "fundament": 3795,
      "vermutlich": 3796,
      "hon": 3797,
      "pas": 3798,
      "rit": 3799,
      "chirur": 3800,
      "insel": 3801,
      "behalten": 3802,
      "neg": 3803,
      "neut": 3804,
      "handlungen": 3805,
      "gestorben": 3806,
      "bewegungen": 3807,
      "diskuss": 3808,
      "zig": 3809,
      "weiten": 3810,
      "natürliche": 3811,
      "gorit": 3812,
      "zivilis": 3813,
      "insekten": 3814,
      "furcht": 3815,
      "by": 3816,
      "kir": 3817,
      "koll": 3818,
      "algorit": 3819,
      "genie": 3820,
      "leun": 3821,
      "verg": 3822,
      "entsteht": 3823,
      "alleine": 3824,
      "vollkommen": 3825,
      "virtu": 3826,
      "ech": 3827,
      "rät": 3828,
      "yn": 3829,
      "uner": 3830,
      "vermögen": 3831,
      "tritt": 3832,
      "besor": 3833,
      "betrifft": 3834,
      "schwimmen": 3835,
      "hintergrund": 3836,
      "alisieren": 3837,
      "effektiv": 3838,
      "bloß": 3839,
      "dieselbe": 3840,
      "liter": 3841,
      "facebook": 3842,
      "david": 3843,
      "grenze": 3844,
      "nan": 3845,
      "derzeit": 3846,
      "gelt": 3847,
      "zuhause": 3848,
      "izität": 3849,
      "beschleun": 3850,
      "griffen": 3851,
      "hoffentlich": 3852,
      "unterstützung": 3853,
      "gewisse": 3854,
      "entwickelten": 3855,
      "mos": 3856,
      "ration": 3857,
      "orig": 3858,
      "wächst": 3859,
      "stress": 3860,
      "gewonnen": 3861,
      "weiteres": 3862,
      "wiederum": 3863,
      "wissenschaftliche": 3864,
      "gerecht": 3865,
      "schwester": 3866,
      "entschied": 3867,
      "veröffentlicht": 3868,
      "drittel": 3869,
      "ble": 3870,
      "erhält": 3871,
      "schicht": 3872,
      "demie": 3873,
      "problemen": 3874,
      "vollständig": 3875,
      "meistens": 3876,
      "videos": 3877,
      "gebiete": 3878,
      "babys": 3879,
      "verursacht": 3880,
      "ökos": 3881,
      "füllen": 3882,
      "saß": 3883,
      "bildungs": 3884,
      "handy": 3885,
      "höch": 3886,
      "stücke": 3887,
      "dichte": 3888,
      "komplexität": 3889,
      "identität": 3890,
      "jährige": 3891,
      "kommunizieren": 3892,
      "irak": 3893,
      "jan": 3894,
      "intens": 3895,
      "wirst": 3896,
      "kriegen": 3897,
      "verbreitet": 3898,
      "augenblick": 3899,
      "gesichts": 3900,
      "restaur": 3901,
      "intelligenz": 3902,
      "ökosyste": 3903,
      "2000": 3904,
      "sowie": 3905,
      "theor": 3906,
      "198": 3907,
      "beschreiben": 3908,
      "400": 3909,
      "aids": 3910,
      "zog": 3911,
      "unt": 3912,
      "starb": 3913,
      "regend": 3914,
      "schlimmer": 3915,
      "wahrnehm": 3916,
      "lette": 3917,
      "basiert": 3918,
      "vision": 3919,
      "kapital": 3920,
      "stärker": 3921,
      "jobs": 3922,
      "methoden": 3923,
      "steigt": 3924,
      "benötigen": 3925,
      "spannen": 3926,
      "kompliz": 3927,
      "dokument": 3928,
      "plastik": 3929,
      "quadrat": 3930,
      "kalifornien": 3931,
      "nas": 3932,
      "ran": 3933,
      "angel": 3934,
      "eien": 3935,
      "überzeugen": 3936,
      "überzeugt": 3937,
      "traur": 3938,
      "satell": 3939,
      "mütter": 3940,
      "interaktion": 3941,
      "worfen": 3942,
      "buchstä": 3943,
      "zufällig": 3944,
      "notwendig": 3945,
      "ek": 3946,
      "sächlich": 3947,
      "tor": 3948,
      "gezogen": 3949,
      "roten": 3950,
      "frist": 3951,
      "stron": 3952,
      "meilen": 3953,
      "losen": 3954,
      "kümmern": 3955,
      "gestern": 3956,
      "universums": 3957,
      "atem": 3958,
      "laufe": 3959,
      "objekte": 3960,
      "vari": 3961,
      "bitten": 3962,
      "gs": 3963,
      "ami": 3964,
      "entwerfen": 3965,
      "graben": 3966,
      "bran": 3967,
      "eth": 3968,
      "liebt": 3969,
      "othe": 3970,
      "zusammenarbeit": 3971,
      "leiten": 3972,
      "post": 3973,
      "erinnert": 3974,
      "füllt": 3975,
      "standard": 3976,
      "pul": 3977,
      "ws": 3978,
      "asi": 3979,
      "wirkt": 3980,
      "abschluss": 3981,
      "red": 3982,
      "umgehen": 3983,
      "radio": 3984,
      "langt": 3985,
      "sitzt": 3986,
      "apie": 3987,
      "oge": 3988,
      "umen": 3989,
      "ös": 3990,
      "behör": 3991,
      "mengen": 3992,
      "gras": 3993,
      "welchen": 3994,
      "lieber": 3995,
      "frika": 3996,
      "drin": 3997,
      "neugier": 3998,
      "herausgefunden": 3999,
      "zurückzu": 4000,
      "bauern": 4001,
      "träge": 4002,
      "school": 4003,
      "gebildet": 4004,
      "ada": 4005,
      "bra": 4006,
      "hmt": 4007,
      "mess": 4008,
      "ni": 4009,
      "por": 4010,
      "einheit": 4011,
      "steller": 4012,
      "zeitalter": 4013,
      "hohen": 4014,
      "öffentliche": 4015,
      "käm": 4016,
      "modernen": 4017,
      "religiö": 4018,
      "beschäftigt": 4019,
      "unbedingt": 4020,
      "institutionen": 4021,
      "perspektive": 4022,
      "ecke": 4023,
      "ns": 4024,
      "eindruck": 4025,
      "gefahr": 4026,
      "verdienen": 4027,
      "issen": 4028,
      "wurzel": 4029,
      "möglicherweise": 4030,
      "lautet": 4031,
      "themen": 4032,
      "belieb": 4033,
      "schreibt": 4034,
      "herausforderungen": 4035,
      "tend": 4036,
      "bert": 4037,
      "impf": 4038,
      "übertragen": 4039,
      "chemik": 4040,
      "hängen": 4041,
      "bestimmen": 4042,
      "deutlich": 4043,
      "besitzen": 4044,
      "buchstäblich": 4045,
      "niger": 4046,
      "gelangen": 4047,
      "verwand": 4048,
      "rochen": 4049,
      "woher": 4050,
      "frank": 4051,
      "gift": 4052,
      "nochmal": 4053,
      "durchgeführt": 4054,
      "falsche": 4055,
      "relativ": 4056,
      "profit": 4057,
      "restaurant": 4058,
      "baut": 4059,
      "kna": 4060,
      "twi": 4061,
      "erster": 4062,
      "ley": 4063,
      "bezahlen": 4064,
      "selber": 4065,
      "dringen": 4066,
      "arbeiteten": 4067,
      "wachen": 4068,
      "volk": 4069,
      "freiwill": 4070,
      "unterschiedlichen": 4071,
      "alisiert": 4072,
      "experten": 4073,
      "moleküle": 4074,
      "schimpan": 4075,
      "fischer": 4076,
      "kart": 4077,
      "russ": 4078,
      "orient": 4079,
      "beton": 4080,
      "isiert": 4081,
      "etten": 4082,
      "klick": 4083,
      "kontext": 4084,
      "geladen": 4085,
      "weiteren": 4086,
      "probieren": 4087,
      "schlechter": 4088,
      "erklärt": 4089,
      "mindestens": 4090,
      "erle": 4091,
      "inhalt": 4092,
      "anden": 4093,
      "schalten": 4094,
      "gedanke": 4095,
      "begrenz": 4096,
      "usw": 4097,
      "wood": 4098,
      "geschen": 4099,
      "spruch": 4100,
      "anderem": 4101,
      "extra": 4102,
      "bildschirm": 4103,
      "getö": 4104,
      "milliarde": 4105,
      "europä": 4106,
      "fördern": 4107,
      "konflikt": 4108,
      "kohlenstoff": 4109,
      "pft": 4110,
      "äg": 4111,
      "asien": 4112,
      "teste": 4113,
      "vergleichen": 4114,
      "bewahr": 4115,
      "sozusagen": 4116,
      "rem": 4117,
      "hinweg": 4118,
      "fält": 4119,
      "kate": 4120,
      "kaffe": 4121,
      "dürfen": 4122,
      "benötigt": 4123,
      "geschlecht": 4124,
      "150": 4125,
      "aster": 4126,
      "colle": 4127,
      "ose": 4128,
      "ungleich": 4129,
      "wart": 4130,
      "klu": 4131,
      "quellen": 4132,
      "kampag": 4133,
      "korru": 4134,
      "gehören": 4135,
      "golf": 4136,
      "setzte": 4137,
      "argument": 4138,
      "pfe": 4139,
      "rauch": 4140,
      "geor": 4141,
      "zukünft": 4142,
      "repräsent": 4143,
      "vorteil": 4144,
      "gehol": 4145,
      "hafte": 4146,
      "zählen": 4147,
      "helden": 4148,
      "tiefe": 4149,
      "tember": 4150,
      "analys": 4151,
      "ld": 4152,
      "pel": 4153,
      "daß": 4154,
      "irgen": 4155,
      "osaurier": 4156,
      "streit": 4157,
      "ärm": 4158,
      "pfei": 4159,
      "gegenteil": 4160,
      "ptop": 4161,
      "stimm": 4162,
      "besseren": 4163,
      "achtung": 4164,
      "lebensmittel": 4165,
      "hauptsächlich": 4166,
      "kriegs": 4167,
      "gewisser": 4168,
      "strategie": 4169,
      "mäu": 4170,
      "pon": 4171,
      "rig": 4172,
      "anim": 4173,
      "nah": 4174,
      "äuß": 4175,
      "springen": 4176,
      "toi": 4177,
      "trägt": 4178,
      "tests": 4179,
      "kohle": 4180,
      "lieblings": 4181,
      "king": 4182,
      "vin": 4183,
      "einsetzen": 4184,
      "zuhören": 4185,
      "senden": 4186,
      "planet": 4187,
      "belo": 4188,
      "kindheit": 4189,
      "patient": 4190,
      "flücht": 4191,
      "symbol": 4192,
      "erkenntnis": 4193,
      "professor": 4194,
      "fabrik": 4195,
      "45": 4196,
      "deinen": 4197,
      "fter": 4198,
      "endet": 4199,
      "gewissen": 4200,
      "sep": 4201,
      "vern": 4202,
      "unterricht": 4203,
      "ungskraft": 4204,
      "para": 4205,
      "sub": 4206,
      "schaute": 4207,
      "erinnerung": 4208,
      "verständlich": 4209,
      "mission": 4210,
      "brenn": 4211,
      "erten": 4212,
      "gefahren": 4213,
      "weiss": 4214,
      "dinosaurier": 4215,
      "interagieren": 4216,
      "ption": 4217,
      "stock": 4218,
      "verlust": 4219,
      "ähnliche": 4220,
      "holt": 4221,
      "wechseln": 4222,
      "galaxien": 4223,
      "getötet": 4224,
      "stö": 4225,
      "ragen": 4226,
      "gerü": 4227,
      "wähl": 4228,
      "musl": 4229,
      "pak": 4230,
      "könnt": 4231,
      "zugän": 4232,
      "gefährlich": 4233,
      "entwickelte": 4234,
      "verwandeln": 4235,
      "flex": 4236,
      "kauft": 4237,
      "tom": 4238,
      "äss": 4239,
      "inger": 4240,
      "zucker": 4241,
      "vertei": 4242,
      "vorhan": 4243,
      "agiert": 4244,
      "franz": 4245,
      "blät": 4246,
      "drän": 4247,
      "sterb": 4248,
      "heimat": 4249,
      "gegenseit": 4250,
      "element": 4251,
      "viren": 4252,
      "tue": 4253,
      "identif": 4254,
      "existieren": 4255,
      "überrascht": 4256,
      "praktisch": 4257,
      "bruder": 4258,
      "kreuz": 4259,
      "philosoph": 4260,
      "jungs": 4261,
      "chern": 4262,
      "gefä": 4263,
      "lekt": 4264,
      "genauer": 4265,
      "starke": 4266,
      "gründet": 4267,
      "lernt": 4268,
      "gold": 4269,
      "wesentlichen": 4270,
      "human": 4271,
      "pher": 4272,
      "schne": 4273,
      "verzwei": 4274,
      "weißen": 4275,
      "werten": 4276,
      "open": 4277,
      "laptop": 4278,
      "stufe": 4279,
      "organismen": 4280,
      "sorge": 4281,
      "tausenden": 4282,
      "morgens": 4283,
      "verantwortlich": 4284,
      "rätsel": 4285,
      "gig": 4286,
      "mund": 4287,
      "pfl": 4288,
      "verhindern": 4289,
      "unglück": 4290,
      "klus": 4291,
      "syn": 4292,
      "worüber": 4293,
      "norden": 4294,
      "interessieren": 4295,
      "buchstab": 4296,
      "eure": 4297,
      "winden": 4298,
      "deutsch": 4299,
      "streben": 4300,
      "persönlich": 4301,
      "leistungen": 4302,
      "mc": 4303,
      "wn": 4304,
      "teu": 4305,
      "zubringen": 4306,
      "zuschau": 4307,
      "brachten": 4308,
      "webs": 4309,
      "blatt": 4310,
      "gelesen": 4311,
      "ziell": 4312,
      "drückt": 4313,
      "kapit": 4314,
      "nütz": 4315,
      "bemerkt": 4316,
      "england": 4317,
      "verschwinden": 4318,
      "begeistert": 4319,
      "kürzlich": 4320,
      "irgendet": 4321,
      "35": 4322,
      "ote": 4323,
      "erzie": 4324,
      "aufbau": 4325,
      "flag": 4326,
      "fährt": 4327,
      "wunderbare": 4328,
      "verbracht": 4329,
      "ahme": 4330,
      "berühm": 4331,
      "gäbe": 4332,
      "irgendetwas": 4333,
      "sl": 4334,
      "top": 4335,
      "zauber": 4336,
      "erkrank": 4337,
      "ara": 4338,
      "rollen": 4339,
      "tzeit": 4340,
      "hof": 4341,
      "weißt": 4342,
      "erzähle": 4343,
      "winkel": 4344,
      "fordert": 4345,
      "sammlung": 4346,
      "erkannte": 4347,
      "doppelt": 4348,
      "satelliten": 4349,
      "99": 4350,
      "fung": 4351,
      "fischen": 4352,
      "iften": 4353,
      "phen": 4354,
      "zo": 4355,
      "erleb": 4356,
      "recher": 4357,
      "brill": 4358,
      "fordern": 4359,
      "versuchten": 4360,
      "normale": 4361,
      "normalen": 4362,
      "bekannten": 4363,
      "neuro": 4364,
      "total": 4365,
      "schlafen": 4366,
      "ingenieur": 4367,
      "september": 4368,
      "ufen": 4369,
      "intel": 4370,
      "eingesetzt": 4371,
      "gehabt": 4372,
      "witz": 4373,
      "sichten": 4374,
      "trend": 4375,
      "gebrochen": 4376,
      "strö": 4377,
      "führten": 4378,
      "ktiven": 4379,
      "milch": 4380,
      "batter": 4381,
      "wichtigen": 4382,
      "wild": 4383,
      "stil": 4384,
      "gericht": 4385,
      "tags": 4386,
      "seitdem": 4387,
      "berech": 4388,
      "nützlich": 4389,
      "geheimnis": 4390,
      "hyp": 4391,
      "singen": 4392,
      "erlebt": 4393,
      "inf": 4394,
      "verr": 4395,
      "hergestellt": 4396,
      "geschickt": 4397,
      "fingen": 4398,
      "gross": 4399,
      "grafik": 4400,
      "metapher": 4401,
      "75": 4402,
      "tik": 4403,
      "einiger": 4404,
      "atoren": 4405,
      "beweis": 4406,
      "wenigen": 4407,
      "ingu": 4408,
      "hoffen": 4409,
      "wegs": 4410,
      "qual": 4411,
      "willen": 4412,
      "ständen": 4413,
      "öffentlichkeit": 4414,
      "netzwerke": 4415,
      "stammt": 4416,
      "unterscheiden": 4417,
      "nit": 4418,
      "alisten": 4419,
      "aufbauen": 4420,
      "entworfen": 4421,
      "klapp": 4422,
      "geschlagen": 4423,
      "gton": 4424,
      "würdig": 4425,
      "reiche": 4426,
      "nutzt": 4427,
      "händen": 4428,
      "lustig": 4429,
      "forschungs": 4430,
      "sätz": 4431,
      "medikament": 4432,
      "potent": 4433,
      "mäßig": 4434,
      "müsste": 4435,
      "zweck": 4436,
      "twitter": 4437,
      "kaffee": 4438,
      "rö": 4439,
      "tab": 4440,
      "vit": 4441,
      "legte": 4442,
      "behin": 4443,
      "aufhören": 4444,
      "washin": 4445,
      "bereiche": 4446,
      "leistungs": 4447,
      "leuchten": 4448,
      "nötig": 4449,
      "gün": 4450,
      "anteil": 4451,
      "geber": 4452,
      "atmen": 4453,
      "verlangen": 4454,
      "beantworten": 4455,
      "tert": 4456,
      "welle": 4457,
      "ologische": 4458,
      "quanten": 4459,
      "fakten": 4460,
      "minute": 4461,
      "richtet": 4462,
      "kolle": 4463,
      "schneiden": 4464,
      "nannte": 4465,
      "astron": 4466,
      "zell": 4467,
      "erfinden": 4468,
      "station": 4469,
      "angenommen": 4470,
      "bekamen": 4471,
      "überprü": 4472,
      "dran": 4473,
      "schlü": 4474,
      "rief": 4475,
      "inneren": 4476,
      "elemente": 4477,
      "verbreiten": 4478,
      "studieren": 4479,
      "messer": 4480,
      "pret": 4481,
      "zweit": 4482,
      "entz": 4483,
      "ansicht": 4484,
      "aufnahmen": 4485,
      "wissenschaften": 4486,
      "brauchten": 4487,
      "wissenschaftlichen": 4488,
      "vögel": 4489,
      "politiker": 4490,
      "schüt": 4491,
      "symmetr": 4492,
      "radik": 4493,
      "agement": 4494,
      "gespiel": 4495,
      "spüren": 4496,
      "schimpansen": 4497,
      "college": 4498,
      "washington": 4499,
      "lat": 4500,
      "piel": 4501,
      "ym": 4502,
      "chip": 4503,
      "bedarf": 4504,
      "mitarbeiter": 4505,
      "programme": 4506,
      "allgemein": 4507,
      "wow": 4508,
      "blind": 4509,
      "platt": 4510,
      "bauten": 4511,
      "richard": 4512,
      "magnet": 4513,
      "träume": 4514,
      "wärt": 4515,
      "stärke": 4516,
      "moderne": 4517,
      "entdeckung": 4518,
      "schock": 4519,
      "christ": 4520,
      "isol": 4521,
      "our": 4522,
      "ök": 4523,
      "erscheinen": 4524,
      "stung": 4525,
      "angesehen": 4526,
      "bereitet": 4527,
      "spann": 4528,
      "isieren": 4529,
      "entspricht": 4530,
      "protot": 4531,
      "trieb": 4532,
      "musst": 4533,
      "nieman": 4534,
      "bibl": 4535,
      "ktivität": 4536,
      "riesen": 4537,
      "körpers": 4538,
      "sicherheits": 4539,
      "vention": 4540,
      "kompliziert": 4541,
      "reduzieren": 4542,
      "gehirne": 4543,
      "domin": 4544,
      "australien": 4545,
      "wetter": 4546,
      "gespielt": 4547,
      "nationen": 4548,
      "intu": 4549,
      "schwä": 4550,
      "schatten": 4551,
      "entstanden": 4552,
      "wobei": 4553,
      "utter": 4554,
      "kennung": 4555,
      "uchen": 4556,
      "heißen": 4557,
      "paten": 4558,
      "brauche": 4559,
      "größen": 4560,
      "schrän": 4561,
      "kümmer": 4562,
      "medizinische": 4563,
      "mikroben": 4564,
      "verschmu": 4565,
      "individuen": 4566,
      "erwachsenen": 4567,
      "website": 4568,
      "foss": 4569,
      "stur": 4570,
      "start": 4571,
      "istisch": 4572,
      "franc": 4573,
      "malen": 4574,
      "dutzen": 4575,
      "gegensatz": 4576,
      "nutzung": 4577,
      "zeichnungen": 4578,
      "schlechten": 4579,
      "unterschiedlich": 4580,
      "hallo": 4581,
      "fassung": 4582,
      "zugänglich": 4583,
      "echten": 4584,
      "klet": 4585,
      "nungs": 4586,
      "eindeut": 4587,
      "verw": 4588,
      "verfahren": 4589,
      "entschul": 4590,
      "demon": 4591,
      "eting": 4592,
      "weltraum": 4593,
      "spielte": 4594,
      "ktionen": 4595,
      "schlossen": 4596,
      "haar": 4597,
      "wahre": 4598,
      "beschrän": 4599,
      "starten": 4600,
      "kühl": 4601,
      "bereichen": 4602,
      "veröffentlich": 4603,
      "wolken": 4604,
      "lebewesen": 4605,
      "bezahlt": 4606,
      "brasilien": 4607,
      "wahrnehmung": 4608,
      "prototyp": 4609,
      "kog": 4610,
      "ennen": 4611,
      "ungewöhn": 4612,
      "verwir": 4613,
      "usion": 4614,
      "dram": 4615,
      "interpret": 4616,
      "gemeinden": 4617,
      "mord": 4618,
      "ica": 4619,
      "internationale": 4620,
      "diskut": 4621,
      "vorhanden": 4622,
      "sterblichkeit": 4623,
      "dungs": 4624,
      "ya": 4625,
      "itionen": 4626,
      "repar": 4627,
      "vieler": 4628,
      "interessen": 4629,
      "presse": 4630,
      "hai": 4631,
      "box": 4632,
      "meiste": 4633,
      "fernen": 4634,
      "folgende": 4635,
      "generationen": 4636,
      "gedicht": 4637,
      "geräusch": 4638,
      "ida": 4639,
      "ichte": 4640,
      "derung": 4641,
      "meist": 4642,
      "solch": 4643,
      "faktoren": 4644,
      "ruh": 4645,
      "install": 4646,
      "vertraut": 4647,
      "ahe": 4648,
      "jon": 4649,
      "anger": 4650,
      "angene": 4651,
      "aspekt": 4652,
      "umfeld": 4653,
      "spät": 4654,
      "isierung": 4655,
      "halbe": 4656,
      "tru": 4657,
      "phone": 4658,
      "konflik": 4659,
      "zuschauer": 4660,
      "demonstr": 4661,
      "bir": 4662,
      "dische": 4663,
      "kit": 4664,
      "misch": 4665,
      "angen": 4666,
      "aufregend": 4667,
      "bares": 4668,
      "hotel": 4669,
      "beschlossen": 4670,
      "auftauch": 4671,
      "beinahe": 4672,
      "gesundheitswesen": 4673,
      "signal": 4674,
      "chemie": 4675,
      "mittleren": 4676,
      "märkte": 4677,
      "schild": 4678,
      "teleskop": 4679,
      "dramat": 4680,
      "skop": 4681,
      "zir": 4682,
      "bericht": 4683,
      "amin": 4684,
      "überlegen": 4685,
      "hinsicht": 4686,
      "rennen": 4687,
      "fließen": 4688,
      "schuld": 4689,
      "schwarzen": 4690,
      "italien": 4691,
      "beinhal": 4692,
      "positiv": 4693,
      "fantastisch": 4694,
      "details": 4695,
      "blieb": 4696,
      "ube": 4697,
      "unfall": 4698,
      "ierer": 4699,
      "überzeug": 4700,
      "entsprechen": 4701,
      "que": 4702,
      "natürlichen": 4703,
      "regionen": 4704,
      "biot": 4705,
      "höre": 4706,
      "tiefer": 4707,
      "verbrachte": 4708,
      "griffe": 4709,
      "grippe": 4710,
      "komplexe": 4711,
      "elektrizität": 4712,
      "maßstab": 4713,
      "ereignis": 4714,
      "veranst": 4715,
      "aka": 4716,
      "itel": 4717,
      "nom": 4718,
      "arkt": 4719,
      "istische": 4720,
      "splan": 4721,
      "werbung": 4722,
      "entgegen": 4723,
      "schaden": 4724,
      "uliert": 4725,
      "ologischen": 4726,
      "süda": 4727,
      "rett": 4728,
      "situationen": 4729,
      "definition": 4730,
      "trennt": 4731,
      "beeindrucken": 4732,
      "ägyp": 4733,
      "francis": 4734,
      "wisst": 4735,
      "abstra": 4736,
      "achse": 4737,
      "ausmaß": 4738,
      "isse": 4739,
      "vorfahren": 4740,
      "wissens": 4741,
      "weiße": 4742,
      "wohlstand": 4743,
      "kulturen": 4744,
      "dunkle": 4745,
      "definieren": 4746,
      "beschäftigen": 4747,
      "bestät": 4748,
      "mächtig": 4749,
      "diskussion": 4750,
      "kampagne": 4751,
      "korruption": 4752,
      "air": 4753,
      "rhy": 4754,
      "sha": 4755,
      "geändert": 4756,
      "real": 4757,
      "relev": 4758,
      "rake": 4759,
      "änger": 4760,
      "langer": 4761,
      "konkur": 4762,
      "gige": 4763,
      "leichter": 4764,
      "faktor": 4765,
      "kurzen": 4766,
      "letten": 4767,
      "erklärung": 4768,
      "tonnen": 4769,
      "flügel": 4770,
      "erstaunliche": 4771,
      "architekten": 4772,
      "zitat": 4773,
      "molekül": 4774,
      "diagramm": 4775,
      "level": 4776,
      "nachbarn": 4777,
      "instrument": 4778,
      "brief": 4779,
      "3d": 4780,
      "big": 4781,
      "ilen": 4782,
      "sar": 4783,
      "va": 4784,
      "schaus": 4785,
      "gemü": 4786,
      "gewohn": 4787,
      "bemü": 4788,
      "spun": 4789,
      "igend": 4790,
      "finan": 4791,
      "phase": 4792,
      "arbeitsp": 4793,
      "kerl": 4794,
      "berechn": 4795,
      "existenz": 4796,
      "gedächt": 4797,
      "internationalen": 4798,
      "trinken": 4799,
      "dischen": 4800,
      "kabel": 4801,
      "pern": 4802,
      "steine": 4803,
      "beweise": 4804,
      "drüben": 4805,
      "komment": 4806,
      "pack": 4807,
      "leiter": 4808,
      "schriften": 4809,
      "ruhe": 4810,
      "komponen": 4811,
      "doktor": 4812,
      "zielle": 4813,
      "beobachtet": 4814,
      "persönliche": 4815,
      "signale": 4816,
      "doppel": 4817,
      "grundlegende": 4818,
      "deutschland": 4819,
      "live": 4820,
      "tische": 4821,
      "zon": 4822,
      "lehren": 4823,
      "bedenken": 4824,
      "überein": 4825,
      "grie": 4826,
      "darstellen": 4827,
      "gehend": 4828,
      "toten": 4829,
      "betrieben": 4830,
      "momentan": 4831,
      "bietet": 4832,
      "sauber": 4833,
      "schmerzen": 4834,
      "anwenden": 4835,
      "brücke": 4836,
      "600": 4837,
      "ye": 4838,
      "ermut": 4839,
      "unabhängig": 4840,
      "genü": 4841,
      "beweisen": 4842,
      "zep": 4843,
      "blauen": 4844,
      "grundsätzlich": 4845,
      "willst": 4846,
      "beschlos": 4847,
      "wirtschaftlichen": 4848,
      "kore": 4849,
      "schwierigkeiten": 4850,
      "stärken": 4851,
      "figur": 4852,
      "zerstören": 4853,
      "verbindet": 4854,
      "emotionen": 4855,
      "enorme": 4856,
      "mitglieder": 4857,
      "gedächtnis": 4858,
      "beschloss": 4859,
      "kei": 4860,
      "leit": 4861,
      "mic": 4862,
      "winter": 4863,
      "rote": 4864,
      "aussage": 4865,
      "gegenwärt": 4866,
      "beschrieben": 4867,
      "wirtschaftliche": 4868,
      "alters": 4869,
      "maga": 4870,
      "risiken": 4871,
      "berührt": 4872,
      "zerstört": 4873,
      "entwicklungsländern": 4874,
      "traditionellen": 4875,
      "wesentlich": 4876,
      "vorstellungen": 4877,
      "feind": 4878,
      "bibli": 4879,
      "dns": 4880,
      "ix": 4881,
      "klen": 4882,
      "vard": 4883,
      "ersetzen": 4884,
      "erscheint": 4885,
      "teen": 4886,
      "debat": 4887,
      "utt": 4888,
      "landen": 4889,
      "geschü": 4890,
      "malar": 4891,
      "heira": 4892,
      "plat": 4893,
      "beispielsweise": 4894,
      "tour": 4895,
      "freundin": 4896,
      "times": 4897,
      "übrig": 4898,
      "abhängigkeit": 4899,
      "besuchen": 4900,
      "verfügbar": 4901,
      "mexiko": 4902,
      "show": 4903,
      "analyse": 4904,
      "pakistan": 4905,
      "buchstaben": 4906,
      "schauspiel": 4907,
      "dä": 4908,
      "ewi": 4909,
      "gre": 4910,
      "jul": 4911,
      "erstellt": 4912,
      "einst": 4913,
      "anrei": 4914,
      "annehmen": 4915,
      "gefällt": 4916,
      "aufgebaut": 4917,
      "umgeben": 4918,
      "proben": 4919,
      "darunter": 4920,
      "world": 4921,
      "back": 4922,
      "jedenfalls": 4923,
      "geistes": 4924,
      "kameras": 4925,
      "schrecken": 4926,
      "erwähnt": 4927,
      "intellekt": 4928,
      "bund": 4929,
      "dh": 4930,
      "hind": 4931,
      "ky": 4932,
      "pingu": 4933,
      "inseln": 4934,
      "initi": 4935,
      "seele": 4936,
      "verab": 4937,
      "brach": 4938,
      "liefern": 4939,
      "äußer": 4940,
      "zeigten": 4941,
      "beschei": 4942,
      "aufzubauen": 4943,
      "inspiriert": 4944,
      "grüne": 4945,
      "tumor": 4946,
      "allgemeinen": 4947,
      "george": 4948,
      "bibliothe": 4949,
      "tischen": 4950,
      "ergibt": 4951,
      "ston": 4952,
      "ana": 4953,
      "esch": 4954,
      "verteilt": 4955,
      "vermitteln": 4956,
      "beziehen": 4957,
      "betroffen": 4958,
      "solange": 4959,
      "bereiten": 4960,
      "stehe": 4961,
      "oler": 4962,
      "blasen": 4963,
      "mehrheit": 4964,
      "großmutter": 4965,
      "pflege": 4966,
      "zahn": 4967,
      "führungs": 4968,
      "sätze": 4969,
      "harvard": 4970,
      "wachstums": 4971,
      "stammzellen": 4972,
      "wüste": 4973,
      "sequenzen": 4974,
      "tauchen": 4975,
      "chung": 4976,
      "iegen": 4977,
      "austau": 4978,
      "orfen": 4979,
      "versicher": 4980,
      "bern": 4981,
      "mangel": 4982,
      "herren": 4983,
      "kannte": 4984,
      "liefer": 4985,
      "vieles": 4986,
      "wahn": 4987,
      "quasi": 4988,
      "menschlicher": 4989,
      "bekannte": 4990,
      "müssten": 4991,
      "bomben": 4992,
      "ographie": 4993,
      "homo": 4994,
      "mr": 4995,
      "skla": 4996,
      "ergie": 4997,
      "erforsch": 4998,
      "erlaub": 4999,
      "verse": 5000,
      "ologe": 5001,
      "vorzu": 5002,
      "vorne": 5003,
      "trau": 5004,
      "saal": 5005,
      "zeitung": 5006,
      "geworfen": 5007,
      "gegend": 5008,
      "matik": 5009,
      "solcher": 5010,
      "kurve": 5011,
      "hunde": 5012,
      "schwieriger": 5013,
      "zwang": 5014,
      "speziell": 5015,
      "kugel": 5016,
      "dimensionen": 5017,
      "grünen": 5018,
      "schrecklich": 5019,
      "kontinent": 5020,
      "lächeln": 5021,
      "vermeiden": 5022,
      "erlebnis": 5023,
      "rick": 5024,
      "unken": 5025,
      "versagen": 5026,
      "auswahl": 5027,
      "darwin": 5028,
      "kongress": 5029,
      "wurf": 5030,
      "dul": 5031,
      "sonder": 5032,
      "anthr": 5033,
      "stren": 5034,
      "stahl": 5035,
      "haften": 5036,
      "grundlage": 5037,
      "kredit": 5038,
      "theater": 5039,
      "kriege": 5040,
      "hilfs": 5041,
      "süß": 5042,
      "verbessert": 5043,
      "stabil": 5044,
      "transpar": 5045,
      "züglich": 5046,
      "setzten": 5047,
      "entdeckte": 5048,
      "positive": 5049,
      "anwendung": 5050,
      "gebeten": 5051,
      "westlichen": 5052,
      "chron": 5053,
      "cam": 5054,
      "farb": 5055,
      "pum": 5056,
      "infe": 5057,
      "schm": 5058,
      "zusätzlich": 5059,
      "ledig": 5060,
      "brut": 5061,
      "gerichtet": 5062,
      "konfront": 5063,
      "heiß": 5064,
      "seid": 5065,
      "langweil": 5066,
      "gangs": 5067,
      "vorhersagen": 5068,
      "erkannt": 5069,
      "tätigkeit": 5070,
      "kochen": 5071,
      "bedürfnisse": 5072,
      "wettbewerb": 5073,
      "teufel": 5074,
      "bauch": 5075,
      "cal": 5076,
      "hell": 5077,
      "ses": 5078,
      "versteht": 5079,
      "verblü": 5080,
      "umge": 5081,
      "manip": 5082,
      "dahinter": 5083,
      "anderson": 5084,
      "ulpt": 5085,
      "fahrrad": 5086,
      "zähl": 5087,
      "langfrist": 5088,
      "schuhe": 5089,
      "skulpt": 5090,
      "untersucht": 5091,
      "prinzipien": 5092,
      "faszinierend": 5093,
      "erwachsene": 5094,
      "galaxie": 5095,
      "paul": 5096,
      "kognit": 5097,
      "65": 5098,
      "falten": 5099,
      "mig": 5100,
      "ost": 5101,
      "tlichen": 5102,
      "äger": 5103,
      "arz": 5104,
      "berichten": 5105,
      "ago": 5106,
      "merken": 5107,
      "sprü": 5108,
      "sprung": 5109,
      "teln": 5110,
      "quer": 5111,
      "frequ": 5112,
      "scheinbar": 5113,
      "fernseh": 5114,
      "welchem": 5115,
      "gebieten": 5116,
      "persönlichen": 5117,
      "widerstand": 5118,
      "männchen": 5119,
      "durchschnittliche": 5120,
      "untersuchung": 5121,
      "blaue": 5122,
      "digitalen": 5123,
      "literatur": 5124,
      "gerechtigkeit": 5125,
      "decken": 5126,
      "decke": 5127,
      "istischen": 5128,
      "atlan": 5129,
      "versprechen": 5130,
      "soviel": 5131,
      "weih": 5132,
      "entstand": 5133,
      "ussen": 5134,
      "herstellung": 5135,
      "welten": 5136,
      "fügt": 5137,
      "hinten": 5138,
      "flor": 5139,
      "phot": 5140,
      "worauf": 5141,
      "digital": 5142,
      "gemeinschaften": 5143,
      "sympt": 5144,
      "verstehe": 5145,
      "kombination": 5146,
      "chemikalien": 5147,
      "potential": 5148,
      "mau": 5149,
      "aspe": 5150,
      "able": 5151,
      "absicht": 5152,
      "aufnehmen": 5153,
      "probe": 5154,
      "lebenser": 5155,
      "blumen": 5156,
      "ischem": 5157,
      "ziellen": 5158,
      "binden": 5159,
      "hoben": 5160,
      "ärger": 5161,
      "folie": 5162,
      "pfund": 5163,
      "stimmung": 5164,
      "besseres": 5165,
      "wasserstoff": 5166,
      "löcher": 5167,
      "verbrechen": 5168,
      "reser": 5169,
      "physiker": 5170,
      "unterstützt": 5171,
      "ängst": 5172,
      "kilo": 5173,
      "kreislauf": 5174,
      "magazin": 5175,
      "einstellung": 5176,
      "anlage": 5177,
      "gelegt": 5178,
      "verteilung": 5179,
      "ausstellung": 5180,
      "kton": 5181,
      "wofür": 5182,
      "momente": 5183,
      "hafen": 5184,
      "linge": 5185,
      "197": 5186,
      "büchern": 5187,
      "feststellen": 5188,
      "korre": 5189,
      "liber": 5190,
      "maßnahmen": 5191,
      "berühr": 5192,
      "erinnerungen": 5193,
      "lokalen": 5194,
      "burg": 5195,
      "yout": 5196,
      "alternative": 5197,
      "breite": 5198,
      "eindeutig": 5199,
      "malaria": 5200,
      "lediglich": 5201,
      "kalt": 5202,
      "nel": 5203,
      "nive": 5204,
      "chic": 5205,
      "anda": 5206,
      "sektor": 5207,
      "ath": 5208,
      "vergewalt": 5209,
      "entfernen": 5210,
      "drauf": 5211,
      "trafen": 5212,
      "zusammenzu": 5213,
      "schrieben": 5214,
      "systemen": 5215,
      "emiss": 5216,
      "lou": 5217,
      "insbesondere": 5218,
      "lehrt": 5219,
      "züge": 5220,
      "besitzt": 5221,
      "molekul": 5222,
      "sprecher": 5223,
      "häusern": 5224,
      "dieselben": 5225,
      "mäuse": 5226,
      "blätter": 5227,
      "ahmen": 5228,
      "akte": 5229,
      "kund": 5230,
      "kette": 5231,
      "ole": 5232,
      "iein": 5233,
      "temp": 5234,
      "wiki": 5235,
      "begl": 5236,
      "rezept": 5237,
      "aufs": 5238,
      "bergen": 5239,
      "proz": 5240,
      "hierher": 5241,
      "besessen": 5242,
      "fehlt": 5243,
      "wirkliche": 5244,
      "nett": 5245,
      "hörten": 5246,
      "ungehe": 5247,
      "tiefen": 5248,
      "süden": 5249,
      "erfindung": 5250,
      "regierungs": 5251,
      "jahrzehnte": 5252,
      "echtzeit": 5253,
      "beinhaltet": 5254,
      "bor": 5255,
      "hese": 5256,
      "erhielt": 5257,
      "iebs": 5258,
      "einstein": 5259,
      "weist": 5260,
      "etc": 5261,
      "besagt": 5262,
      "meinte": 5263,
      "hnte": 5264,
      "zweifel": 5265,
      "olly": 5266,
      "teils": 5267,
      "mack": 5268,
      "zählt": 5269,
      "stoffen": 5270,
      "lust": 5271,
      "verknü": 5272,
      "mikroskop": 5273,
      "kehrt": 5274,
      "gemeinsame": 5275,
      "junger": 5276,
      "statistiken": 5277,
      "gemäl": 5278,
      "origin": 5279,
      "hypot": 5280,
      "camp": 5281,
      "nes": 5282,
      "eiter": 5283,
      "gelebt": 5284,
      "gegründet": 5285,
      "seht": 5286,
      "verd": 5287,
      "beute": 5288,
      "sowas": 5289,
      "umfassen": 5290,
      "enthält": 5291,
      "vorzustellen": 5292,
      "ollen": 5293,
      "barer": 5294,
      "freie": 5295,
      "informations": 5296,
      "hunger": 5297,
      "student": 5298,
      "imeter": 5299,
      "afrikanischen": 5300,
      "draht": 5301,
      "geräusche": 5302,
      "rechner": 5303,
      "budget": 5304,
      "james": 5305,
      "zivilisation": 5306,
      "französ": 5307,
      "23": 5308,
      "ael": 5309,
      "froh": 5310,
      "nob": 5311,
      "viert": 5312,
      "yl": 5313,
      "erin": 5314,
      "erreich": 5315,
      "stick": 5316,
      "itiv": 5317,
      "bezüglich": 5318,
      "gesamm": 5319,
      "übernehmen": 5320,
      "unterhaltung": 5321,
      "igem": 5322,
      "flogen": 5323,
      "wirklichen": 5324,
      "selbstverständlich": 5325,
      "stellungen": 5326,
      "menschliches": 5327,
      "betrachte": 5328,
      "veränderte": 5329,
      "2008": 5330,
      "aktivitäten": 5331,
      "kolon": 5332,
      "ozeane": 5333,
      "liebte": 5334,
      "ernsthaft": 5335,
      "webseite": 5336,
      "kreieren": 5337,
      "kleidung": 5338,
      "youtube": 5339,
      "cin": 5340,
      "hes": 5341,
      "hur": 5342,
      "alog": 5343,
      "bewohner": 5344,
      "tere": 5345,
      "oma": 5346,
      "jeweil": 5347,
      "vorteile": 5348,
      "frustr": 5349,
      "sammel": 5350,
      "last": 5351,
      "pfung": 5352,
      "gegenwart": 5353,
      "trocken": 5354,
      "status": 5355,
      "baute": 5356,
      "geregt": 5357,
      "schwestern": 5358,
      "charles": 5359,
      "spitzen": 5360,
      "enorm": 5361,
      "steuert": 5362,
      "erhöhen": 5363,
      "strahlung": 5364,
      "äußerst": 5365,
      "bundes": 5366,
      "dü": 5367,
      "eu": 5368,
      "futter": 5369,
      "put": 5370,
      "einiges": 5371,
      "zufall": 5372,
      "werken": 5373,
      "überwinden": 5374,
      "kenn": 5375,
      "kenia": 5376,
      "unterrichten": 5377,
      "glü": 5378,
      "heisst": 5379,
      "synt": 5380,
      "verlauf": 5381,
      "krieges": 5382,
      "schauten": 5383,
      "visu": 5384,
      "sprozess": 5385,
      "jahrzehnt": 5386,
      "rechnen": 5387,
      "digitale": 5388,
      "akzeptieren": 5389,
      "francisco": 5390,
      "hop": 5391,
      "stir": 5392,
      "anpass": 5393,
      "schalt": 5394,
      "getragen": 5395,
      "zugeben": 5396,
      "vergröß": 5397,
      "manchen": 5398,
      "spenden": 5399,
      "voran": 5400,
      "dipl": 5401,
      "fanten": 5402,
      "stoß": 5403,
      "blicken": 5404,
      "treib": 5405,
      "billionen": 5406,
      "lokale": 5407,
      "gespräche": 5408,
      "terrorismus": 5409,
      "gewählt": 5410,
      "ernährung": 5411,
      "kirche": 5412,
      "nasa": 5413,
      "aa": 5414,
      "beln": 5415,
      "nase": 5416,
      "ohren": 5417,
      "anstelle": 5418,
      "legend": 5419,
      "seel": 5420,
      "realen": 5421,
      "aufregen": 5422,
      "ausbr": 5423,
      "herein": 5424,
      "fressen": 5425,
      "einfaches": 5426,
      "teilweise": 5427,
      "haie": 5428,
      "arbeitung": 5429,
      "funktionen": 5430,
      "funktionierte": 5431,
      "irgendjemand": 5432,
      "schönes": 5433,
      "global": 5434,
      "schaue": 5435,
      "wärmung": 5436,
      "großartigen": 5437,
      "chancen": 5438,
      "zwungen": 5439,
      "innovationen": 5440,
      "fasziniert": 5441,
      "säuget": 5442,
      "verwandelt": 5443,
      "glaubte": 5444,
      "speicher": 5445,
      "bedürfnis": 5446,
      "multi": 5447,
      "lügen": 5448,
      "niveau": 5449,
      "ep": 5450,
      "göt": 5451,
      "hut": 5452,
      "räumen": 5453,
      "wüs": 5454,
      "legten": 5455,
      "abfall": 5456,
      "bekomme": 5457,
      "achter": 5458,
      "ame": 5459,
      "auslö": 5460,
      "steve": 5461,
      "enthalten": 5462,
      "ike": 5463,
      "utete": 5464,
      "trug": 5465,
      "konserv": 5466,
      "michael": 5467,
      "schlau": 5468,
      "bogen": 5469,
      "innere": 5470,
      "organisieren": 5471,
      "unglaublichen": 5472,
      "metall": 5473,
      "gottes": 5474,
      "erwart": 5475,
      "medizinischen": 5476,
      "knall": 5477,
      "jahrzehnten": 5478,
      "profession": 5479,
      "erweitern": 5480,
      "rüstung": 5481,
      "automatisch": 5482,
      "gegenseitig": 5483,
      "südafrika": 5484,
      "anhand": 5485,
      "derer": 5486,
      "gebrauch": 5487,
      "gebraucht": 5488,
      "zusätz": 5489,
      "refle": 5490,
      "damen": 5491,
      "lenken": 5492,
      "ray": 5493,
      "brid": 5494,
      "darstellung": 5495,
      "träumen": 5496,
      "artige": 5497,
      "blase": 5498,
      "sternen": 5499,
      "max": 5500,
      "weiterer": 5501,
      "schlug": 5502,
      "zipl": 5503,
      "elefanten": 5504,
      "zeichnung": 5505,
      "ähnlichen": 5506,
      "gesichter": 5507,
      "center": 5508,
      "erdbe": 5509,
      "biologische": 5510,
      "tanzen": 5511,
      "taschen": 5512,
      "tasche": 5513,
      "mitglied": 5514,
      "überraschend": 5515,
      "russland": 5516,
      "debatte": 5517,
      "chicago": 5518,
      "jener": 5519,
      "val": 5520,
      "zz": 5521,
      "eist": 5522,
      "eitete": 5523,
      "schung": 5524,
      "alex": 5525,
      "bezeichnen": 5526,
      "rock": 5527,
      "ckten": 5528,
      "annahme": 5529,
      "änge": 5530,
      "reihen": 5531,
      "liefert": 5532,
      "konsu": 5533,
      "lebendig": 5534,
      "feu": 5535,
      "autom": 5536,
      "spielzeug": 5537,
      "marken": 5538,
      "folgenden": 5539,
      "sorg": 5540,
      "musiker": 5541,
      "dauerte": 5542,
      "kapitel": 5543,
      "staats": 5544,
      "teams": 5545,
      "speziellen": 5546,
      "armee": 5547,
      "böse": 5548,
      "ursprünglich": 5549,
      "epidemie": 5550,
      "geschenk": 5551,
      "ii": 5552,
      "mischen": 5553,
      "tit": 5554,
      "ttern": 5555,
      "erneuer": 5556,
      "asie": 5557,
      "alp": 5558,
      "hre": 5559,
      "serie": 5560,
      "ney": 5561,
      "änderung": 5562,
      "hunderten": 5563,
      "losigkeit": 5564,
      "fortschritte": 5565,
      "felder": 5566,
      "wandeln": 5567,
      "wärme": 5568,
      "aturen": 5569,
      "programmieren": 5570,
      "moralische": 5571,
      "schläge": 5572,
      "katastrophen": 5573,
      "algorithmen": 5574,
      "cart": 5575,
      "dliche": 5576,
      "git": 5577,
      "kung": 5578,
      "lar": 5579,
      "ling": 5580,
      "stät": 5581,
      "anen": 5582,
      "ansieht": 5583,
      "soweit": 5584,
      "mittag": 5585,
      "igsten": 5586,
      "unterhalt": 5587,
      "muskeln": 5588,
      "zweimal": 5589,
      "fahrzeug": 5590,
      "garant": 5591,
      "2010": 5592,
      "startet": 5593,
      "zentrale": 5594,
      "läss": 5595,
      "falschen": 5596,
      "häuf": 5597,
      "antwortet": 5598,
      "institution": 5599,
      "präsentation": 5600,
      "störungen": 5601,
      "fremden": 5602,
      "geburtstag": 5603,
      "katastrophe": 5604,
      "behaupten": 5605,
      "bemerkenswert": 5606,
      "flasche": 5607,
      "nigeria": 5608,
      "anthrop": 5609,
      "22": 5610,
      "cm": 5611,
      "cra": 5612,
      "hob": 5613,
      "mme": 5614,
      "moch": 5615,
      "mio": 5616,
      "einhalb": 5617,
      "anon": 5618,
      "anlagen": 5619,
      "angriff": 5620,
      "anfing": 5621,
      "abet": 5622,
      "aufgewachsen": 5623,
      "tzten": 5624,
      "übertrag": 5625,
      "wem": 5626,
      "gering": 5627,
      "dargestellt": 5628,
      "durchführen": 5629,
      "antrei": 5630,
      "gewand": 5631,
      "pazi": 5632,
      "woran": 5633,
      "suchte": 5634,
      "belast": 5635,
      "ics": 5636,
      "afrikas": 5637,
      "magie": 5638,
      "berühmt": 5639,
      "interessantes": 5640,
      "spirit": 5641,
      "besitz": 5642,
      "verschwen": 5643,
      "perfekte": 5644,
      "explos": 5645,
      "angeles": 5646,
      "ack": 5647,
      "adam": 5648,
      "cle": 5649,
      "okt": 5650,
      "watt": 5651,
      "gehei": 5652,
      "bezogen": 5653,
      "ursache": 5654,
      "berück": 5655,
      "önt": 5656,
      "beibringen": 5657,
      "gerung": 5658,
      "unteren": 5659,
      "geschn": 5660,
      "hinunter": 5661,
      "durchzu": 5662,
      "änderungen": 5663,
      "studio": 5664,
      "fair": 5665,
      "starben": 5666,
      "glücklicherweise": 5667,
      "lehre": 5668,
      "diszipl": 5669,
      "antwortete": 5670,
      "kanada": 5671,
      "zwingen": 5672,
      "weshalb": 5673,
      "kontrolliert": 5674,
      "salz": 5675,
      "mails": 5676,
      "chinesische": 5677,
      "resultat": 5678,
      "batterie": 5679,
      "micro": 5680,
      "dör": 5681,
      "has": 5682,
      "kuchen": 5683,
      "mama": 5684,
      "zert": 5685,
      "erei": 5686,
      "erhe": 5687,
      "zuge": 5688,
      "verle": 5689,
      "verglichen": 5690,
      "umher": 5691,
      "amour": 5692,
      "wieviel": 5693,
      "warf": 5694,
      "isst": 5695,
      "geschmack": 5696,
      "muskel": 5697,
      "flo": 5698,
      "wahlen": 5699,
      "leib": 5700,
      "zähne": 5701,
      "gemeinsamen": 5702,
      "sichtbar": 5703,
      "mittels": 5704,
      "kostenlos": 5705,
      "beobachte": 5706,
      "psychologie": 5707,
      "verschwunden": 5708,
      "amazon": 5709,
      "talent": 5710,
      "wälder": 5711,
      "schnee": 5712,
      "flagge": 5713,
      "teenager": 5714,
      "fro": 5715,
      "knie": 5716,
      "rb": 5717,
      "überwach": 5718,
      "oly": 5719,
      "geschaut": 5720,
      "formt": 5721,
      "glamour": 5722,
      "treu": 5723,
      "planen": 5724,
      "verbreitung": 5725,
      "schicksal": 5726,
      "bemerkte": 5727,
      "entfernung": 5728,
      "konzentriert": 5729,
      "source": 5730,
      "reaktionen": 5731,
      "horiz": 5732,
      "physikal": 5733,
      "transform": 5734,
      "zivil": 5735,
      "stoppen": 5736,
      "sogenannte": 5737,
      "puls": 5738,
      "geholfen": 5739,
      "genügend": 5740,
      "zepte": 5741,
      "27": 5742,
      "dsch": 5743,
      "kungen": 5744,
      "ny": 5745,
      "pet": 5746,
      "pho": 5747,
      "unver": 5748,
      "anstieg": 5749,
      "schach": 5750,
      "wirft": 5751,
      "ores": 5752,
      "ordin": 5753,
      "ller": 5754,
      "wartet": 5755,
      "andert": 5756,
      "trat": 5757,
      "lebenden": 5758,
      "strahlen": 5759,
      "starken": 5760,
      "gestaltung": 5761,
      "offenen": 5762,
      "wenigstens": 5763,
      "gebäuden": 5764,
      "komplexen": 5765,
      "potenzi": 5766,
      "nachhaltigkeit": 5767,
      "mittlerweile": 5768,
      "erhöht": 5769,
      "instrumente": 5770,
      "plätze": 5771,
      "diagnost": 5772,
      "genießen": 5773,
      "besorgt": 5774,
      "verschmutzung": 5775,
      "clu": 5776,
      "vel": 5777,
      "erkennung": 5778,
      "unmittel": 5779,
      "einrichtungen": 5780,
      "einschrän": 5781,
      "anführer": 5782,
      "schar": 5783,
      "schienen": 5784,
      "tee": 5785,
      "tech": 5786,
      "lem": 5787,
      "ausser": 5788,
      "stechn": 5789,
      "provis": 5790,
      "half": 5791,
      "frö": 5792,
      "blö": 5793,
      "grosse": 5794,
      "dick": 5795,
      "paz": 5796,
      "zusammenarbeiten": 5797,
      "worum": 5798,
      "nukle": 5799,
      "pedia": 5800,
      "designs": 5801,
      "ständige": 5802,
      "street": 5803,
      "sexu": 5804,
      "schweden": 5805,
      "hyper": 5806,
      "entscheidend": 5807,
      "strategien": 5808,
      "ereignisse": 5809,
      "fokus": 5810,
      "dumm": 5811,
      "här": 5812,
      "use": 5813,
      "altern": 5814,
      "spuren": 5815,
      "omet": 5816,
      "brun": 5817,
      "brand": 5818,
      "wovon": 5819,
      "darstellt": 5820,
      "wählt": 5821,
      "diabet": 5822,
      "tatsäch": 5823,
      "studium": 5824,
      "insgesamt": 5825,
      "fuhren": 5826,
      "drücke": 5827,
      "langsamer": 5828,
      "zerstörung": 5829,
      "marketing": 5830,
      "versteckt": 5831,
      "klinik": 5832,
      "mechanismus": 5833,
      "vorstellungskraft": 5834,
      "wünschte": 5835,
      "protein": 5836,
      "interview": 5837,
      "ökosystem": 5838,
      "plattform": 5839,
      "aspekte": 5840,
      "dler": 5841,
      "fie": 5842,
      "hst": 5843,
      "ice": 5844,
      "kand": 5845,
      "wände": 5846,
      "ära": 5847,
      "erneut": 5848,
      "vertre": 5849,
      "beachten": 5850,
      "betreiben": 5851,
      "nest": 5852,
      "ions": 5853,
      "ettet": 5854,
      "zenz": 5855,
      "heilen": 5856,
      "wiederholen": 5857,
      "fahrzeuge": 5858,
      "boston": 5859,
      "marke": 5860,
      "koordin": 5861,
      "196": 5862,
      "2007": 5863,
      "unternehmens": 5864,
      "identen": 5865,
      "treibt": 5866,
      "veröffentlichen": 5867,
      "sonnenlicht": 5868,
      "empfind": 5869,
      "ingenieure": 5870,
      "nannten": 5871,
      "antibiot": 5872,
      "geschäfte": 5873,
      "klassenzimmer": 5874,
      "branche": 5875,
      "frankreich": 5876,
      "wahnsinn": 5877,
      "bell": 5878,
      "cel": 5879,
      "ehren": 5880,
      "fau": 5881,
      "iphone": 5882,
      "vierte": 5883,
      "int": 5884,
      "schichten": 5885,
      "leer": 5886,
      "itz": 5887,
      "versen": 5888,
      "verdient": 5889,
      "berge": 5890,
      "ausgesetzt": 5891,
      "fürs": 5892,
      "frucht": 5893,
      "gipfel": 5894,
      "bildet": 5895,
      "teilnehmer": 5896,
      "reicher": 5897,
      "letzter": 5898,
      "nervö": 5899,
      "beschü": 5900,
      "handys": 5901,
      "ruhig": 5902,
      "computern": 5903,
      "general": 5904,
      "partei": 5905,
      "täglichen": 5906,
      "bedeutend": 5907,
      "training": 5908,
      "proteine": 5909,
      "popul": 5910,
      "beteiligt": 5911,
      "spektrum": 5912,
      "rhyth": 5913,
      "emissionen": 5914,
      "gemälde": 5915,
      "1000": 5916,
      "ci": 5917,
      "kreise": 5918,
      "preise": 5919,
      "rieren": 5920,
      "chtern": 5921,
      "abgesehen": 5922,
      "voneinander": 5923,
      "vorbereitet": 5924,
      "ethn": 5925,
      "nachgedacht": 5926,
      "freit": 5927,
      "vielfält": 5928,
      "kapaz": 5929,
      "expon": 5930,
      "marsch": 5931,
      "uppe": 5932,
      "kindes": 5933,
      "basierend": 5934,
      "länge": 5935,
      "thom": 5936,
      "hühn": 5937,
      "letztlich": 5938,
      "hormon": 5939,
      "cyber": 5940,
      "drittens": 5941,
      "jüng": 5942,
      "chaos": 5943,
      "wältigen": 5944,
      "begegnen": 5945,
      "vergnü": 5946,
      "knapp": 5947,
      "akadem": 5948,
      "nommen": 5949,
      "wikipedia": 5950,
      "deiner": 5951,
      "nar": 5952,
      "tliche": 5953,
      "scham": 5954,
      "gekauft": 5955,
      "tenden": 5956,
      "seher": 5957,
      "abschließen": 5958,
      "verdam": 5959,
      "bewirken": 5960,
      "reagiert": 5961,
      "ward": 5962,
      "unterwegs": 5963,
      "artig": 5964,
      "artigen": 5965,
      "geleitet": 5966,
      "zeitraum": 5967,
      "auton": 5968,
      "schlacht": 5969,
      "phant": 5970,
      "leihen": 5971,
      "scheitern": 5972,
      "organe": 5973,
      "nähr": 5974,
      "schließt": 5975,
      "university": 5976,
      "hinterlassen": 5977,
      "öffentlich": 5978,
      "fliegt": 5979,
      "ähnliches": 5980,
      "persönlichkeit": 5981,
      "lese": 5982,
      "vergangenen": 5983,
      "hinzufügen": 5984,
      "reduziert": 5985,
      "therapie": 5986,
      "gült": 5987,
      "effizienz": 5988,
      "fokuss": 5989,
      "chirurg": 5990,
      "pflicht": 5991,
      "schlüsse": 5992,
      "ollywood": 5993,
      "potenzial": 5994,
      "gps": 5995,
      "jer": 5996,
      "kab": 5997,
      "vat": 5998,
      "inzwischen": 5999,
      "anscheinen": 6000,
      "eier": 6001,
      "derselben": 6002,
      "getrennt": 6003,
      "ativer": 6004,
      "verst": 6005,
      "ierungen": 6006,
      "wartung": 6007,
      "rag": 6008,
      "überqu": 6009,
      "meere": 6010,
      "vorgang": 6011,
      "vorsichtig": 6012,
      "macher": 6013,
      "vielmehr": 6014,
      "gelb": 6015,
      "finder": 6016,
      "chef": 6017,
      "mün": 6018,
      "strand": 6019,
      "grundlegend": 6020,
      "platten": 6021,
      "gegenden": 6022,
      "irgendeine": 6023,
      "belie": 6024,
      "projekten": 6025,
      "dame": 6026,
      "schwierige": 6027,
      "sexuelle": 6028,
      "bevölkerungs": 6029,
      "sensoren": 6030,
      "arabischen": 6031,
      "ieinhalb": 6032,
      "deinem": 6033,
      "diger": 6034,
      "ire": 6035,
      "osen": 6036,
      "sing": 6037,
      "ines": 6038,
      "anschaut": 6039,
      "schäd": 6040,
      "beenden": 6041,
      "bekämpfen": 6042,
      "aufgeregt": 6043,
      "island": 6044,
      "ience": 6045,
      "weltweiten": 6046,
      "hinauf": 6047,
      "opf": 6048,
      "schießen": 6049,
      "kasten": 6050,
      "waffe": 6051,
      "wissenschaftlern": 6052,
      "plant": 6053,
      "wertvoll": 6054,
      "organisiert": 6055,
      "offenbar": 6056,
      "schwere": 6057,
      "elektrische": 6058,
      "ordentlich": 6059,
      "versorgen": 6060,
      "glaubten": 6061,
      "feiern": 6062,
      "depression": 6063,
      "neutr": 6064,
      "intensiv": 6065,
      "traurig": 6066,
      "kapitalismus": 6067,
      "gemüse": 6068,
      "arznei": 6069,
      "bg": 6070,
      "gur": 6071,
      "hten": 6072,
      "hir": 6073,
      "ergeben": 6074,
      "unruh": 6075,
      "stich": 6076,
      "ante": 6077,
      "eise": 6078,
      "geteilt": 6079,
      "ierungs": 6080,
      "indischen": 6081,
      "vorder": 6082,
      "gru": 6083,
      "brä": 6084,
      "womit": 6085,
      "mehreren": 6086,
      "eigenschaft": 6087,
      "schloss": 6088,
      "beschä": 6089,
      "minen": 6090,
      "angelegen": 6091,
      "bay": 6092,
      "drucker": 6093,
      "2005": 6094,
      "misst": 6095,
      "party": 6096,
      "thun": 6097,
      "dunklen": 6098,
      "älteren": 6099,
      "zunehmend": 6100,
      "fantastische": 6101,
      "einkommens": 6102,
      "dynamik": 6103,
      "ritu": 6104,
      "niemanden": 6105,
      "ägypten": 6106,
      "verblüffen": 6107,
      "erdbeben": 6108,
      "geschnitten": 6109,
      "anscheinend": 6110,
      "250": 6111,
      "mern": 6112,
      "pin": 6113,
      "vag": 6114,
      "schwach": 6115,
      "spart": 6116,
      "beseit": 6117,
      "konsequenzen": 6118,
      "nahen": 6119,
      "hacker": 6120,
      "zentren": 6121,
      "wichtiges": 6122,
      "höhlen": 6123,
      "verliert": 6124,
      "zentral": 6125,
      "harte": 6126,
      "schätzung": 6127,
      "katze": 6128,
      "nimm": 6129,
      "andererseits": 6130,
      "inspirieren": 6131,
      "gänge": 6132,
      "humor": 6133,
      "prior": 6134,
      "horizont": 6135,
      "banken": 6136,
      "kum": 6137,
      "mie": 6138,
      "ohr": 6139,
      "uar": 6140,
      "zone": 6141,
      "ähren": 6142,
      "unend": 6143,
      "getr": 6144,
      "gelang": 6145,
      "gehalt": 6146,
      "wid": 6147,
      "attra": 6148,
      "begreifen": 6149,
      "recy": 6150,
      "ausgaben": 6151,
      "spinnen": 6152,
      "gesucht": 6153,
      "bricht": 6154,
      "heorie": 6155,
      "autob": 6156,
      "pflich": 6157,
      "techniken": 6158,
      "bedeutete": 6159,
      "punkten": 6160,
      "planung": 6161,
      "sichtweise": 6162,
      "amerikas": 6163,
      "schwanger": 6164,
      "besonderen": 6165,
      "schulter": 6166,
      "nebenbei": 6167,
      "erfassen": 6168,
      "friedens": 6169,
      "weisheit": 6170,
      "sproble": 6171,
      "definiert": 6172,
      "hieß": 6173,
      "theoret": 6174,
      "symptome": 6175,
      "gesammelt": 6176,
      "olymp": 6177,
      "bären": 6178,
      "can": 6179,
      "gat": 6180,
      "juni": 6181,
      "vas": 6182,
      "wu": 6183,
      "eingesch": 6184,
      "eingeladen": 6185,
      "angeht": 6186,
      "anpassen": 6187,
      "beherr": 6188,
      "urban": 6189,
      "ros": 6190,
      "robot": 6191,
      "wehr": 6192,
      "klop": 6193,
      "gerettet": 6194,
      "schlussen": 6195,
      "ppt": 6196,
      "biom": 6197,
      "spezielle": 6198,
      "höchst": 6199,
      "rufe": 6200,
      "haushalt": 6201,
      "filmen": 6202,
      "wunderbaren": 6203,
      "kulturelle": 6204,
      "now": 6205,
      "oberen": 6206,
      "oberflächen": 6207,
      "kanal": 6208,
      "investiert": 6209,
      "investitionen": 6210,
      "figuren": 6211,
      "billig": 6212,
      "entdeckungen": 6213,
      "verursachen": 6214,
      "inspiration": 6215,
      "besuchte": 6216,
      "höhere": 6217,
      "nutzer": 6218,
      "chemische": 6219,
      "kaufte": 6220,
      "diagnose": 6221,
      "astero": 6222,
      "komponenten": 6223,
      "nobel": 6224,
      "erwartungen": 6225,
      "schlussendlich": 6226,
      "dos": 6227,
      "ias": 6228,
      "nern": 6229,
      "pollen": 6230,
      "sms": 6231,
      "wale": 6232,
      "ätze": 6233,
      "einheiten": 6234,
      "anwesen": 6235,
      "bezeichnet": 6236,
      "auftreten": 6237,
      "robert": 6238,
      "ausrüstung": 6239,
      "spur": 6240,
      "späten": 6241,
      "metern": 6242,
      "vorhin": 6243,
      "machst": 6244,
      "gerufen": 6245,
      "same": 6246,
      "feed": 6247,
      "ladung": 6248,
      "stad": 6249,
      "boten": 6250,
      "stufen": 6251,
      "dreidimension": 6252,
      "problems": 6253,
      "paris": 6254,
      "ifiz": 6255,
      "drehte": 6256,
      "visuelle": 6257,
      "besitzer": 6258,
      "science": 6259,
      "verrückte": 6260,
      "genetische": 6261,
      "kommunikations": 6262,
      "terroristen": 6263,
      "klavier": 6264,
      "umzugehen": 6265,
      "bedrohung": 6266,
      "option": 6267,
      "stiftung": 6268,
      "eigentliche": 6269,
      "skelett": 6270,
      "latein": 6271,
      "konflikte": 6272,
      "frequenz": 6273,
      "exponent": 6274,
      "kro": 6275,
      "eingeführt": 6276,
      "leber": 6277,
      "atomen": 6278,
      "verfolgt": 6279,
      "kommer": 6280,
      "ernähren": 6281,
      "klingen": 6282,
      "reißen": 6283,
      "gigen": 6284,
      "grossen": 6285,
      "gebunden": 6286,
      "mahl": 6287,
      "wahrnehmen": 6288,
      "technischen": 6289,
      "minim": 6290,
      "chinesen": 6291,
      "verwendung": 6292,
      "pathie": 6293,
      "organismus": 6294,
      "druckt": 6295,
      "schöner": 6296,
      "2009": 6297,
      "instin": 6298,
      "pflanze": 6299,
      "wörtlich": 6300,
      "80ern": 6301,
      "überraschung": 6302,
      "gänger": 6303,
      "myth": 6304,
      "staub": 6305,
      "schlimmste": 6306,
      "grundlegenden": 6307,
      "weibchen": 6308,
      "streifen": 6309,
      "theorien": 6310,
      "muslim": 6311,
      "berechnen": 6312,
      "kümmert": 6313,
      "konsumenten": 6314,
      "thomas": 6315,
      "26": 6316,
      "bien": 6317,
      "kas": 6318,
      "rang": 6319,
      "rönt": 6320,
      "wat": 6321,
      "ones": 6322,
      "zurecht": 6323,
      "auftrag": 6324,
      "rob": 6325,
      "mitnehmen": 6326,
      "ausgeben": 6327,
      "werbe": 6328,
      "wohnen": 6329,
      "well": 6330,
      "obama": 6331,
      "pferd": 6332,
      "zurückkehren": 6333,
      "linke": 6334,
      "bia": 6335,
      "polar": 6336,
      "käfer": 6337,
      "schuldig": 6338,
      "nationale": 6339,
      "lernten": 6340,
      "hoffnungs": 6341,
      "life": 6342,
      "yorker": 6343,
      "mittelt": 6344,
      "higgs": 6345,
      "studiert": 6346,
      "nachbarschaft": 6347,
      "lächer": 6348,
      "szene": 6349,
      "dunkelheit": 6350,
      "bibliothek": 6351,
      "800": 6352,
      "act": 6353,
      "bier": 6354,
      "keines": 6355,
      "lasse": 6356,
      "nick": 6357,
      "anhalten": 6358,
      "anruf": 6359,
      "schok": 6360,
      "sender": 6361,
      "umständen": 6362,
      "dazwischen": 6363,
      "enttäu": 6364,
      "vorgehen": 6365,
      "beides": 6366,
      "grab": 6367,
      "merkt": 6368,
      "besp": 6369,
      "weltkrieg": 6370,
      "hindert": 6371,
      "viet": 6372,
      "privi": 6373,
      "bstoff": 6374,
      "bip": 6375,
      "bibel": 6376,
      "betracht": 6377,
      "angemessen": 6378,
      "filter": 6379,
      "subst": 6380,
      "fliege": 6381,
      "anzusehen": 6382,
      "interessanten": 6383,
      "kreativen": 6384,
      "ografie": 6385,
      "denkweise": 6386,
      "präsidenten": 6387,
      "brustkrebs": 6388,
      "negativ": 6389,
      "behinder": 6390,
      "korea": 6391,
      "austausch": 6392,
      "prozesse": 6393,
      "diabetes": 6394,
      "privileg": 6395,
      "brech": 6396,
      "glet": 6397,
      "kg": 6398,
      "ender": 6399,
      "schuss": 6400,
      "denselben": 6401,
      "verz": 6402,
      "beunruh": 6403,
      "rekor": 6404,
      "waschen": 6405,
      "cks": 6406,
      "bron": 6407,
      "wozu": 6408,
      "klim": 6409,
      "flut": 6410,
      "frag": 6411,
      "chester": 6412,
      "packen": 6413,
      "hoher": 6414,
      "gleichgewicht": 6415,
      "zeilen": 6416,
      "biologen": 6417,
      "küche": 6418,
      "karik": 6419,
      "fließt": 6420,
      "aktive": 6421,
      "archie": 6422,
      "physische": 6423,
      "katzen": 6424,
      "berühren": 6425,
      "transplan": 6426,
      "kuh": 6427,
      "summen": 6428,
      "abenteuer": 6429,
      "ursprung": 6430,
      "wünsche": 6431,
      "jünger": 6432,
      "hitze": 6433,
      "lebenserwartung": 6434,
      "antibiotika": 6435,
      "vergnügen": 6436,
      "bord": 6437,
      "falle": 6438,
      "hlich": 6439,
      "imit": 6440,
      "knoten": 6441,
      "neigen": 6442,
      "pä": 6443,
      "xid": 6444,
      "enkel": 6445,
      "gezwungen": 6446,
      "romo": 6447,
      "improvis": 6448,
      "tzte": 6449,
      "vorschlag": 6450,
      "herapie": 6451,
      "geruch": 6452,
      "alley": 6453,
      "jack": 6454,
      "verläss": 6455,
      "dankbar": 6456,
      "glücklicher": 6457,
      "fels": 6458,
      "gründete": 6459,
      "universitäten": 6460,
      "frühe": 6461,
      "ifik": 6462,
      "erklärte": 6463,
      "holte": 6464,
      "ländlichen": 6465,
      "reichtum": 6466,
      "mathematiker": 6467,
      "kreative": 6468,
      "wütend": 6469,
      "ghana": 6470,
      "biologischen": 6471,
      "winzig": 6472,
      "empfinden": 6473,
      "bombe": 6474,
      "seltsame": 6475,
      "außergewöhnlich": 6476,
      "interessanterweise": 6477,
      "sogenannten": 6478,
      "ungleichheit": 6479,
      "günst": 6480,
      "32": 6481,
      "fon": 6482,
      "mam": 6483,
      "okl": 6484,
      "xis": 6485,
      "erfinder": 6486,
      "indet": 6487,
      "une": 6488,
      "ichen": 6489,
      "annen": 6490,
      "gemessen": 6491,
      "gestartet": 6492,
      "beigebracht": 6493,
      "iertes": 6494,
      "besucht": 6495,
      "weltbevölkerung": 6496,
      "hinblick": 6497,
      "heiraten": 6498,
      "ünft": 6499,
      "tain": 6500,
      "gleichung": 6501,
      "matisch": 6502,
      "delfin": 6503,
      "jenen": 6504,
      "medium": 6505,
      "schickte": 6506,
      "ianer": 6507,
      "fantasie": 6508,
      "genetischen": 6509,
      "niedrig": 6510,
      "pläne": 6511,
      "privatsphäre": 6512,
      "szenar": 6513,
      "januar": 6514,
      "vernünft": 6515,
      "identifizieren": 6516,
      "erkrankungen": 6517,
      "erforscht": 6518,
      "langweilig": 6519,
      "röntgen": 6520,
      "öfter": 6521,
      "iness": 6522,
      "auten": 6523,
      "genen": 6524,
      "bezir": 6525,
      "aufstieg": 6526,
      "ausmachen": 6527,
      "gesunden": 6528,
      "mem": 6529,
      "olit": 6530,
      "vorwärts": 6531,
      "breit": 6532,
      "kongo": 6533,
      "opa": 6534,
      "teilten": 6535,
      "packt": 6536,
      "seil": 6537,
      "exakt": 6538,
      "funk": 6539,
      "häss": 6540,
      "ffekt": 6541,
      "polio": 6542,
      "peter": 6543,
      "ischerweise": 6544,
      "schwing": 6545,
      "nationalen": 6546,
      "risk": 6547,
      "regelmäßig": 6548,
      "ältere": 6549,
      "beschreibt": 6550,
      "wünschen": 6551,
      "schlägt": 6552,
      "ökonomen": 6553,
      "stammen": 6554,
      "verletzungen": 6555,
      "bewahren": 6556,
      "analysieren": 6557,
      "raketen": 6558,
      "heiratet": 6559,
      "konfrontiert": 6560,
      "stirbt": 6561,
      "cir": 6562,
      "est": 6563,
      "iam": 6564,
      "jur": 6565,
      "walt": 6566,
      "stille": 6567,
      "tepp": 6568,
      "wasch": 6569,
      "fürchte": 6570,
      "klat": 6571,
      "saßen": 6572,
      "währ": 6573,
      "geblieben": 6574,
      "neuigkeiten": 6575,
      "gewann": 6576,
      "probiert": 6577,
      "altes": 6578,
      "beträ": 6579,
      "1960": 6580,
      "1990": 6581,
      "lux": 6582,
      "wundervolle": 6583,
      "wunderschöne": 6584,
      "politisch": 6585,
      "jenseits": 6586,
      "verschiedener": 6587,
      "flugzeuge": 6588,
      "ratten": 6589,
      "förm": 6590,
      "medikamenten": 6591,
      "eignet": 6592,
      "handels": 6593,
      "mix": 6594,
      "afrikaner": 6595,
      "pause": 6596,
      "schaffung": 6597,
      "flaschen": 6598,
      "nano": 6599,
      "höchsten": 6600,
      "wurzeln": 6601,
      "prototypen": 6602,
      "ungeheuer": 6603,
      "glüh": 6604,
      "beliebt": 6605,
      "schokol": 6606,
      "120": 6607,
      "29": 6608,
      "bungen": 6609,
      "ftet": 6610,
      "hals": 6611,
      "hassen": 6612,
      "jag": 6613,
      "mist": 6614,
      "mauer": 6615,
      "ron": 6616,
      "übung": 6617,
      "angehen": 6618,
      "andelt": 6619,
      "angesichts": 6620,
      "zukommen": 6621,
      "leucht": 6622,
      "deck": 6623,
      "bewert": 6624,
      "reform": 6625,
      "umso": 6626,
      "annte": 6627,
      "entschlossen": 6628,
      "könne": 6629,
      "darm": 6630,
      "einfachheit": 6631,
      "autismus": 6632,
      "haiti": 6633,
      "zurückgehen": 6634,
      "uppen": 6635,
      "tauschen": 6636,
      "alisierte": 6637,
      "galer": 6638,
      "melzen": 6639,
      "sücht": 6640,
      "jähriger": 6641,
      "verbesserung": 6642,
      "aktuelle": 6643,
      "spanne": 6644,
      "knopf": 6645,
      "dienstleistungen": 6646,
      "köpfe": 6647,
      "echtes": 6648,
      "chinesischen": 6649,
      "population": 6650,
      "yram": 6651,
      "weibliche": 6652,
      "kollab": 6653,
      "belohnung": 6654,
      "infiziert": 6655,
      "reflekt": 6656,
      "gewandt": 6657,
      "microsoft": 6658,
      "nervös": 6659,
      "700": 6660,
      "95": 6661,
      "feln": 6662,
      "kie": 6663,
      "mur": 6664,
      "weinen": 6665,
      "wut": 6666,
      "inder": 6667,
      "unabhän": 6668,
      "ance": 6669,
      "gelen": 6670,
      "testet": 6671,
      "ory": 6672,
      "verarbeiten": 6673,
      "umm": 6674,
      "ausnahme": 6675,
      "management": 6676,
      "omie": 6677,
      "übersetzen": 6678,
      "graus": 6679,
      "nachfrage": 6680,
      "diesmal": 6681,
      "flog": 6682,
      "gebü": 6683,
      "teilte": 6684,
      "wahrhaft": 6685,
      "quar": 6686,
      "fakt": 6687,
      "willkommen": 6688,
      "regul": 6689,
      "pest": 6690,
      "zeichnete": 6691,
      "paralle": 6692,
      "ebenen": 6693,
      "schweine": 6694,
      "schwanz": 6695,
      "offene": 6696,
      "musikal": 6697,
      "base": 6698,
      "erfolgs": 6699,
      "ordnet": 6700,
      "greift": 6701,
      "strecken": 6702,
      "ehre": 6703,
      "analog": 6704,
      "schlechtes": 6705,
      "verstecken": 6706,
      "myster": 6707,
      "trennen": 6708,
      "winzigen": 6709,
      "angebot": 6710,
      "philosophie": 6711,
      "diplomat": 6712,
      "28": 6713,
      "dist": 6714,
      "ring": 6715,
      "ugen": 6716,
      "üt": 6717,
      "ens": 6718,
      "eingehen": 6719,
      "anhän": 6720,
      "alkoh": 6721,
      "zuzu": 6722,
      "umstände": 6723,
      "aussterben": 6724,
      "ausdrücken": 6725,
      "raft": 6726,
      "hem": 6727,
      "landet": 6728,
      "konzepte": 6729,
      "lebende": 6730,
      "ota": 6731,
      "kooper": 6732,
      "dienste": 6733,
      "angetrieben": 6734,
      "benutze": 6735,
      "schreiten": 6736,
      "wundervoll": 6737,
      "tragö": 6738,
      "kolonie": 6739,
      "schädel": 6740,
      "pflanz": 6741,
      "kaputt": 6742,
      "räum": 6743,
      "englischen": 6744,
      "hiop": 6745,
      "anwendungen": 6746,
      "moralischen": 6747,
      "höheren": 6748,
      "traditionelle": 6749,
      "erwähnen": 6750,
      "statistik": 6751,
      "wandern": 6752,
      "ignorieren": 6753,
      "dichter": 6754,
      "oxy": 6755,
      "zufriedenheit": 6756,
      "flüssigkeit": 6757,
      "geschlechts": 6758,
      "ärmsten": 6759,
      "toiletten": 6760,
      "hindurch": 6761,
      "33": 6762,
      "bob": 6763,
      "ego": 6764,
      "ulen": 6765,
      "erfüll": 6766,
      "anfän": 6767,
      "anstren": 6768,
      "gemäß": 6769,
      "bestra": 6770,
      "sensor": 6771,
      "ight": 6772,
      "indungen": 6773,
      "wende": 6774,
      "sichern": 6775,
      "entwurf": 6776,
      "flach": 6777,
      "illen": 6778,
      "heimlich": 6779,
      "ungssystem": 6780,
      "gemeinnütz": 6781,
      "irgendeinem": 6782,
      "betrü": 6783,
      "schwerer": 6784,
      "jenem": 6785,
      "tränen": 6786,
      "riesiges": 6787,
      "elektrischen": 6788,
      "kleinere": 6789,
      "positiven": 6790,
      "privaten": 6791,
      "bush": 6792,
      "brochen": 6793,
      "abends": 6794,
      "ministerium": 6795,
      "explod": 6796,
      "behörden": 6797,
      "flexi": 6798,
      "reparieren": 6799,
      "arktis": 6800,
      "ewig": 6801,
      "pinguine": 6802,
      "bridge": 6803,
      "teppich": 6804,
      "alkohol": 6805,
      "ahn": 6806,
      "event": 6807,
      "kau": 6808,
      "leitung": 6809,
      "out": 6810,
      "phin": 6811,
      "tü": 6812,
      "tja": 6813,
      "vul": 6814,
      "erlangen": 6815,
      "erwärmung": 6816,
      "inklus": 6817,
      "anweis": 6818,
      "schna": 6819,
      "geomet": 6820,
      "mitzu": 6821,
      "grau": 6822,
      "hersteller": 6823,
      "füße": 6824,
      "geraten": 6825,
      "geschr": 6826,
      "flucht": 6827,
      "dinger": 6828,
      "großvater": 6829,
      "autoren": 6830,
      "änderte": 6831,
      "technische": 6832,
      "alem": 6833,
      "strafe": 6834,
      "höhle": 6835,
      "peten": 6836,
      "hilfre": 6837,
      "stanford": 6838,
      "alisierten": 6839,
      "daumen": 6840,
      "joe": 6841,
      "apple": 6842,
      "zwanz": 6843,
      "gewiss": 6844,
      "logik": 6845,
      "wolke": 6846,
      "paläst": 6847,
      "höhepunkt": 6848,
      "schlimmsten": 6849,
      "verkehrs": 6850,
      "cola": 6851,
      "motivation": 6852,
      "höchste": 6853,
      "spannend": 6854,
      "neugierig": 6855,
      "dutzend": 6856,
      "transparenz": 6857,
      "brett": 6858,
      "cd": 6859,
      "dacht": 6860,
      "pc": 6861,
      "tv": 6862,
      "wall": 6863,
      "zet": 6864,
      "äher": 6865,
      "erfüllen": 6866,
      "invol": 6867,
      "iell": 6868,
      "einwohner": 6869,
      "anschließen": 6870,
      "schme": 6871,
      "zugleich": 6872,
      "deckt": 6873,
      "befreien": 6874,
      "umfang": 6875,
      "warte": 6876,
      "enthü": 6877,
      "drü": 6878,
      "fache": 6879,
      "wahren": 6880,
      "kod": 6881,
      "suchten": 6882,
      "195": 6883,
      "aku": 6884,
      "sinnvoll": 6885,
      "fällig": 6886,
      "sky": 6887,
      "künstliche": 6888,
      "greif": 6889,
      "gewöhnt": 6890,
      "erzähler": 6891,
      "ballon": 6892,
      "nahezu": 6893,
      "kreisen": 6894,
      "effizient": 6895,
      "ystem": 6896,
      "emotionale": 6897,
      "durfte": 6898,
      "unsichtbar": 6899,
      "behörde": 6900,
      "disziplin": 6901,
      "gase": 6902,
      "latz": 6903,
      "ugan": 6904,
      "assozi": 6905,
      "schten": 6906,
      "atome": 6907,
      "verteilen": 6908,
      "verarbeitung": 6909,
      "beam": 6910,
      "aufrecht": 6911,
      "sendung": 6912,
      "ktar": 6913,
      "hingehen": 6914,
      "sonn": 6915,
      "nadel": 6916,
      "dialog": 6917,
      "illusion": 6918,
      "authen": 6919,
      "teilnehmen": 6920,
      "maße": 6921,
      "way": 6922,
      "jagen": 6923,
      "folgte": 6924,
      "bohr": 6925,
      "handlungs": 6926,
      "minder": 6927,
      "betriebs": 6928,
      "volks": 6929,
      "mannes": 6930,
      "personal": 6931,
      "ikaner": 6932,
      "stande": 6933,
      "hard": 6934,
      "direktor": 6935,
      "hügel": 6936,
      "jährlich": 6937,
      "appar": 6938,
      "zwöl": 6939,
      "investition": 6940,
      "entscheidende": 6941,
      "telefone": 6942,
      "ärzten": 6943,
      "lokal": 6944,
      "resultate": 6945,
      "fischerei": 6946,
      "symmetrie": 6947,
      "diskutieren": 6948,
      "angenehm": 6949,
      "relevant": 6950,
      "carto": 6951,
      "pazifik": 6952,
      "ades": 6953,
      "bre": 6954,
      "cre": 6955,
      "ever": 6956,
      "iat": 6957,
      "pre": 6958,
      "ino": 6959,
      "iet": 6960,
      "wirbel": 6961,
      "orchester": 6962,
      "verkün": 6963,
      "verließ": 6964,
      "verpflich": 6965,
      "aussen": 6966,
      "ausgehen": 6967,
      "stete": 6968,
      "kompeten": 6969,
      "dikt": 6970,
      "trage": 6971,
      "gleichheit": 6972,
      "wiederholt": 6973,
      "haare": 6974,
      "tropfen": 6975,
      "sicherer": 6976,
      "kreb": 6977,
      "1950": 6978,
      "gestaltet": 6979,
      "sozialer": 6980,
      "schreibe": 6981,
      "offensicht": 6982,
      "ordnen": 6983,
      "physischen": 6984,
      "texas": 6985,
      "hüb": 6986,
      "praxis": 6987,
      "fleder": 6988,
      "beitragen": 6989,
      "benutzten": 6990,
      "journalisten": 6991,
      "komplizierter": 6992,
      "klicken": 6993,
      "begrenzt": 6994,
      "erziehung": 6995,
      "sturm": 6996,
      "beeindruckend": 6997,
      "berechnungen": 6998,
      "weihnachts": 6999,
      "jeweils": 7000,
      "treibhaus": 7001,
      "maxim": 7002,
      "anony": 7003,
      "85": 7004,
      "bos": 7005,
      "jh": 7006,
      "mmt": 7007,
      "valley": 7008,
      "eröffnet": 7009,
      "unehmen": 7010,
      "stisch": 7011,
      "schel": 7012,
      "schall": 7013,
      "schmu": 7014,
      "arma": 7015,
      "verzer": 7016,
      "becken": 7017,
      "ison": 7018,
      "vorträge": 7019,
      "grat": 7020,
      "nachdenkt": 7021,
      "unterwasser": 7022,
      "format": 7023,
      "ücken": 7024,
      "hinsichtlich": 7025,
      "lament": 7026,
      "sprich": 7027,
      "sprit": 7028,
      "gegenstände": 7029,
      "löst": 7030,
      "elegan": 7031,
      "endete": 7032,
      "lichter": 7033,
      "bauer": 7034,
      "gesunde": 7035,
      "besonderes": 7036,
      "visuellen": 7037,
      "heutige": 7038,
      "symbo": 7039,
      "effekte": 7040,
      "enormen": 7041,
      "störung": 7042,
      "bösen": 7043,
      "ditionen": 7044,
      "shir": 7045,
      "infektion": 7046,
      "vietnam": 7047,
      "aß": 7048,
      "affe": 7049,
      "gin": 7050,
      "kes": 7051,
      "keinem": 7052,
      "lk": 7053,
      "lot": 7054,
      "si": 7055,
      "sw": 7056,
      "tte": 7057,
      "uver": 7058,
      "erb": 7059,
      "erschein": 7060,
      "ichert": 7061,
      "gedichte": 7062,
      "getestet": 7063,
      "teur": 7064,
      "abl": 7065,
      "verliebt": 7066,
      "befest": 7067,
      "aufeinander": 7068,
      "manager": 7069,
      "wendet": 7070,
      "fürchten": 7071,
      "stets": 7072,
      "entste": 7073,
      "vorn": 7074,
      "vorkommen": 7075,
      "vorgestellt": 7076,
      "konvention": 7077,
      "ots": 7078,
      "äthiop": 7079,
      "gelaufen": 7080,
      "kram": 7081,
      "zens": 7082,
      "gegenstand": 7083,
      "reichend": 7084,
      "löwen": 7085,
      "tote": 7086,
      "lebensraum": 7087,
      "verlor": 7088,
      "zahlt": 7089,
      "parks": 7090,
      "festgestellt": 7091,
      "2004": 7092,
      "dox": 7093,
      "anzugehen": 7094,
      "gebäudes": 7095,
      "erwartete": 7096,
      "elektronen": 7097,
      "wörtern": 7098,
      "riff": 7099,
      "dioxid": 7100,
      "kräften": 7101,
      "früheren": 7102,
      "entwicklungsländer": 7103,
      "mechanik": 7104,
      "schreckliche": 7105,
      "varian": 7106,
      "kontinu": 7107,
      "brücken": 7108,
      "journalist": 7109,
      "europäischen": 7110,
      "repräsentiert": 7111,
      "spannung": 7112,
      "konkurren": 7113,
      "spunkt": 7114,
      "sorgfält": 7115,
      "verdammt": 7116,
      "hilfreich": 7117,
      "cur": 7118,
      "felt": 7119,
      "hmus": 7120,
      "kiste": 7121,
      "ple": 7122,
      "ram": 7123,
      "wacht": 7124,
      "erhielten": 7125,
      "anbieten": 7126,
      "eil": 7127,
      "schiz": 7128,
      "getrieben": 7129,
      "onkel": 7130,
      "vertrag": 7131,
      "verletzt": 7132,
      "beur": 7133,
      "achel": 7134,
      "sow": 7135,
      "ausland": 7136,
      "manhat": 7137,
      "spü": 7138,
      "werdet": 7139,
      "gerissen": 7140,
      "lieder": 7141,
      "bese": 7142,
      "weltall": 7143,
      "hinweis": 7144,
      "gelä": 7145,
      "großzü": 7146,
      "zenten": 7147,
      "neulich": 7148,
      "heimer": 7149,
      "ologisch": 7150,
      "board": 7151,
      "pharma": 7152,
      "bedeckt": 7153,
      "irgendwelche": 7154,
      "poly": 7155,
      "produkten": 7156,
      "power": 7157,
      "einziges": 7158,
      "2001": 7159,
      "2006": 7160,
      "kulturellen": 7161,
      "aktiven": 7162,
      "ständigen": 7163,
      "bürgermeister": 7164,
      "intelligente": 7165,
      "britischen": 7166,
      "köpfen": 7167,
      "güter": 7168,
      "beitrag": 7169,
      "fabriken": 7170,
      "nahrungsmittel": 7171,
      "komplizierte": 7172,
      "schauspieler": 7173,
      "mochte": 7174,
      "feedback": 7175,
      "47": 7176,
      "bör": 7177,
      "gast": 7178,
      "kalten": 7179,
      "lärm": 7180,
      "rut": 7181,
      "rio": 7182,
      "väter": 7183,
      "äqu": 7184,
      "erzeug": 7185,
      "anfängt": 7186,
      "auben": 7187,
      "geöffnet": 7188,
      "gelangt": 7189,
      "zuletzt": 7190,
      "leeren": 7191,
      "orien": 7192,
      "vermehr": 7193,
      "vernetz": 7194,
      "befassen": 7195,
      "begriffen": 7196,
      "realist": 7197,
      "umfrage": 7198,
      "sph": 7199,
      "gesün": 7200,
      "überlebt": 7201,
      "ismen": 7202,
      "weh": 7203,
      "klug": 7204,
      "liebes": 7205,
      "gib": 7206,
      "ives": 7207,
      "hinweise": 7208,
      "durcheinander": 7209,
      "krü": 7210,
      "krab": 7211,
      "papa": 7212,
      "ingern": 7213,
      "schritten": 7214,
      "william": 7215,
      "hörer": 7216,
      "betrieb": 7217,
      "fernseher": 7218,
      "gefasst": 7219,
      "sitze": 7220,
      "paras": 7221,
      "felsen": 7222,
      "energieverbrauch": 7223,
      "frühl": 7224,
      "schülern": 7225,
      "bewegungs": 7226,
      "anzug": 7227,
      "internets": 7228,
      "strecke": 7229,
      "industrielle": 7230,
      "stärk": 7231,
      "appl": 7232,
      "operationen": 7233,
      "fußball": 7234,
      "business": 7235,
      "70ern": 7236,
      "ehemann": 7237,
      "simul": 7238,
      "afrikanische": 7239,
      "wirtschaftswachstum": 7240,
      "lücke": 7241,
      "vice": 7242,
      "leuchtet": 7243,
      "liebling": 7244,
      "ästhet": 7245,
      "benutzte": 7246,
      "schweigen": 7247,
      "kategor": 7248,
      "toilette": 7249,
      "muslime": 7250,
      "trends": 7251,
      "griechen": 7252,
      "yeah": 7253,
      "green": 7254,
      "korrekt": 7255,
      "oxyto": 7256,
      "sowje": 7257,
      "ape": 7258,
      "bäumen": 7259,
      "ketten": 7260,
      "oo": 7261,
      "oel": 7262,
      "sir": 7263,
      "ansichten": 7264,
      "geograph": 7265,
      "lehnen": 7266,
      "istenz": 7267,
      "repl": 7268,
      "ausmacht": 7269,
      "auswirkung": 7270,
      "änden": 7271,
      "bracht": 7272,
      "wecken": 7273,
      "gelände": 7274,
      "schnelle": 7275,
      "wissenschaftlich": 7276,
      "ruft": 7277,
      "parlament": 7278,
      "poster": 7279,
      "globalisierung": 7280,
      "ausgegeben": 7281,
      "fried": 7282,
      "ski": 7283,
      "skal": 7284,
      "ianischen": 7285,
      "setzungen": 7286,
      "verschwindet": 7287,
      "untersuchungen": 7288,
      "bewusstseins": 7289,
      "kosm": 7290,
      "kreiert": 7291,
      "nachhaltig": 7292,
      "nachhaltige": 7293,
      "konstruktion": 7294,
      "allgemeine": 7295,
      "außergewöhnliche": 7296,
      "sperson": 7297,
      "martin": 7298,
      "alternativen": 7299,
      "tricks": 7300,
      "algorithmus": 7301,
      "verringern": 7302,
      "bescheid": 7303,
      "beträgt": 7304,
      "uganda": 7305,
      "apfel": 7306,
      "jü": 7307,
      "mun": 7308,
      "pm": 7309,
      "pyram": 7310,
      "rüber": 7311,
      "smit": 7312,
      "wich": 7313,
      "wuch": 7314,
      "wolle": 7315,
      "ente": 7316,
      "gelehrt": 7317,
      "ablen": 7318,
      "verdien": 7319,
      "termin": 7320,
      "ausschließlich": 7321,
      "spont": 7322,
      "übergang": 7323,
      "beizu": 7324,
      "lande": 7325,
      "kompro": 7326,
      "klü": 7327,
      "unterhalb": 7328,
      "weltweite": 7329,
      "durchs": 7330,
      "krist": 7331,
      "mai": 7332,
      "exp": 7333,
      "plus": 7334,
      "hölle": 7335,
      "vierten": 7336,
      "pocken": 7337,
      "berecht": 7338,
      "rettung": 7339,
      "videospiele": 7340,
      "auszudrücken": 7341,
      "gewöhnlich": 7342,
      "engagement": 7343,
      "aktuellen": 7344,
      "immern": 7345,
      "sinken": 7346,
      "räder": 7347,
      "entdeckten": 7348,
      "private": 7349,
      "wüsten": 7350,
      "stämme": 7351,
      "niedriger": 7352,
      "brüder": 7353,
      "oxford": 7354,
      "skulptur": 7355,
      "gletscher": 7356,
      "romoso": 7357,
      "zwanzig": 7358,
      "schizop": 7359,
      "oxytocin": 7360,
      "smith": 7361,
      "bf": 7362,
      "beinen": 7363,
      "fell": 7364,
      "gon": 7365,
      "hus": 7366,
      "hollywood": 7367,
      "pie": 7368,
      "erkunden": 7369,
      "ersetzt": 7370,
      "chromoso": 7371,
      "alz": 7372,
      "set": 7373,
      "abteilung": 7374,
      "verne": 7375,
      "umgang": 7376,
      "benzin": 7377,
      "wiegen": 7378,
      "ausführen": 7379,
      "rap": 7380,
      "vorles": 7381,
      "proth": 7382,
      "gert": 7383,
      "geringer": 7384,
      "unterhalten": 7385,
      "kontra": 7386,
      "ival": 7387,
      "zurückkommen": 7388,
      "wohlbefinden": 7389,
      "produktivität": 7390,
      "wunderschön": 7391,
      "lehrern": 7392,
      "bewegte": 7393,
      "generieren": 7394,
      "zielt": 7395,
      "basierte": 7396,
      "tempo": 7397,
      "komplexer": 7398,
      "anfangs": 7399,
      "institute": 7400,
      "summe": 7401,
      "handelte": 7402,
      "schriftsteller": 7403,
      "carol": 7404,
      "ehemal": 7405,
      "fremde": 7406,
      "verbraucher": 7407,
      "umzusetzen": 7408,
      "trink": 7409,
      "blogs": 7410,
      "behaupte": 7411,
      "bemerkenswerte": 7412,
      "moskit": 7413,
      "kämpf": 7414,
      "religiösen": 7415,
      "erledigen": 7416,
      "kluft": 7417,
      "überprüfen": 7418,
      "titan": 7419,
      "inklusive": 7420,
      "aßen": 7421,
      "dop": 7422,
      "gam": 7423,
      "iff": 7424,
      "lob": 7425,
      "pein": 7426,
      "rab": 7427,
      "sat": 7428,
      "inhalte": 7429,
      "einblick": 7430,
      "anspruch": 7431,
      "gefr": 7432,
      "gegessen": 7433,
      "dene": 7434,
      "verfolg": 7435,
      "verstär": 7436,
      "betreffen": 7437,
      "betreten": 7438,
      "bedauern": 7439,
      "rea": 7440,
      "aufklär": 7441,
      "übersetzt": 7442,
      "iron": 7443,
      "ffin": 7444,
      "glades": 7445,
      "perio": 7446,
      "schieben": 7447,
      "standpunkt": 7448,
      "richter": 7449,
      "irgendwas": 7450,
      "fühlten": 7451,
      "kopie": 7452,
      "körpern": 7453,
      "küsten": 7454,
      "präzi": 7455,
      "käl": 7456,
      "schulden": 7457,
      "blickwinkel": 7458,
      "dreie": 7459,
      "euro": 7460,
      "motoren": 7461,
      "fertigen": 7462,
      "vereinten": 7463,
      "billiger": 7464,
      "tolles": 7465,
      "aufmerksam": 7466,
      "nutzten": 7467,
      "chemischen": 7468,
      "standards": 7469,
      "benutzer": 7470,
      "schaffte": 7471,
      "einzigartig": 7472,
      "virtuellen": 7473,
      "zukünftige": 7474,
      "zukünftigen": 7475,
      "patent": 7476,
      "entschuldigung": 7477,
      "geschützt": 7478,
      "campus": 7479,
      "clever": 7480,
      "rhythmus": 7481,
      "kapazität": 7482,
      "circa": 7483,
      "baseball": 7484,
      "schmutz": 7485,
      "entstehung": 7486,
      "bart": 7487,
      "gär": 7488,
      "just": 7489,
      "lein": 7490,
      "oc": 7491,
      "smart": 7492,
      "tän": 7493,
      "toler": 7494,
      "eröff": 7495,
      "einrichtung": 7496,
      "schwerk": 7497,
      "zulassen": 7498,
      "verlang": 7499,
      "urknall": 7500,
      "amy": 7501,
      "bene": 7502,
      "tzer": 7503,
      "ischt": 7504,
      "irr": 7505,
      "prop": 7506,
      "reiste": 7507,
      "liest": 7508,
      "besie": 7509,
      "sack": 7510,
      "feucht": 7511,
      "stere": 7512,
      "heiße": 7513,
      "tafel": 7514,
      "spiels": 7515,
      "schief": 7516,
      "tode": 7517,
      "soziales": 7518,
      "ogenese": 7519,
      "verbrennen": 7520,
      "graph": 7521,
      "fasern": 7522,
      "träger": 7523,
      "sammelt": 7524,
      "einzusetzen": 7525,
      "berufs": 7526,
      "kämpft": 7527,
      "westliche": 7528,
      "laser": 7529,
      "winzige": 7530,
      "nervenzellen": 7531,
      "fettleib": 7532,
      "gewissermaßen": 7533,
      "gigant": 7534,
      "entzün": 7535,
      "dramatisch": 7536,
      "oktober": 7537,
      "überwachung": 7538,
      "zwölf": 7539,
      "schizophren": 7540,
      "schwerkraft": 7541,
      "48": 7542,
      "euer": 7543,
      "non": 7544,
      "satur": 7545,
      "ufer": 7546,
      "endes": 7547,
      "errichten": 7548,
      "antrieb": 7549,
      "algen": 7550,
      "ora": 7551,
      "verbrauchen": 7552,
      "vermittelt": 7553,
      "soc": 7554,
      "urhe": 7555,
      "aufzeichnungen": 7556,
      "ausgebildet": 7557,
      "service": 7558,
      "annäher": 7559,
      "prog": 7560,
      "alltag": 7561,
      "wodurch": 7562,
      "konkre": 7563,
      "konzer": 7564,
      "blin": 7565,
      "zeitungen": 7566,
      "gewinner": 7567,
      "wollt": 7568,
      "spielten": 7569,
      "grösser": 7570,
      "zelt": 7571,
      "schrank": 7572,
      "kooperation": 7573,
      "wohlhaben": 7574,
      "kurse": 7575,
      "datenbank": 7576,
      "count": 7577,
      "locken": 7578,
      "angekommen": 7579,
      "schreib": 7580,
      "physi": 7581,
      "flughafen": 7582,
      "skala": 7583,
      "merkmale": 7584,
      "gewöhnliche": 7585,
      "prozesses": 7586,
      "lehrerin": 7587,
      "juden": 7588,
      "gesundheitssystem": 7589,
      "durchschnitts": 7590,
      "freuen": 7591,
      "bestäu": 7592,
      "bewerten": 7593,
      "lampe": 7594,
      "beschreibung": 7595,
      "kohlendioxid": 7596,
      "gewinnt": 7597,
      "vermute": 7598,
      "bedroht": 7599,
      "speichern": 7600,
      "brüche": 7601,
      "rechnung": 7602,
      "schafften": 7603,
      "impfstoff": 7604,
      "profitieren": 7605,
      "rauchen": 7606,
      "animation": 7607,
      "günstig": 7608,
      "mischung": 7609,
      "florida": 7610,
      "original": 7611,
      "beutel": 7612,
      "übertragung": 7613,
      "beschützen": 7614,
      "vagina": 7615,
      "geschritten": 7616,
      "manhattan": 7617,
      "alzheimer": 7618,
      "42": 7619,
      "jim": 7620,
      "ly": 7621,
      "nör": 7622,
      "äser": 7623,
      "erschrecken": 7624,
      "unfälle": 7625,
      "abgeschlossen": 7626,
      "verbraucht": 7627,
      "vertik": 7628,
      "isierte": 7629,
      "aggress": 7630,
      "zem": 7631,
      "frisch": 7632,
      "obdach": 7633,
      "differ": 7634,
      "äuft": 7635,
      "selbstmord": 7636,
      "weitermachen": 7637,
      "quant": 7638,
      "würdest": 7639,
      "menschlichkeit": 7640,
      "höhen": 7641,
      "lebensqualität": 7642,
      "ruanda": 7643,
      "wundern": 7644,
      "forschungen": 7645,
      "folgender": 7646,
      "schweren": 7647,
      "schwierigen": 7648,
      "kommst": 7649,
      "läng": 7650,
      "harmon": 7651,
      "erinnerte": 7652,
      "blutgefä": 7653,
      "beruh": 7654,
      "industriellen": 7655,
      "wörterbuch": 7656,
      "strateg": 7657,
      "geheimnisse": 7658,
      "brennen": 7659,
      "gewässer": 7660,
      "konstruieren": 7661,
      "unterscheidet": 7662,
      "märkten": 7663,
      "herangehen": 7664,
      "elektronik": 7665,
      "primit": 7666,
      "gerüst": 7667,
      "drängen": 7668,
      "ungewöhnlich": 7669,
      "arbeitsplatz": 7670,
      "juli": 7671,
      "kolonien": 7672,
      "zusätzliche": 7673,
      "glühbir": 7674,
      "vulkan": 7675,
      "progno": 7676,
      "biz": 7677,
      "cro": 7678,
      "cop": 7679,
      "gorie": 7680,
      "hh": 7681,
      "lim": 7682,
      "litt": 7683,
      "prem": 7684,
      "shar": 7685,
      "tank": 7686,
      "vem": 7687,
      "won": 7688,
      "enten": 7689,
      "ersatz": 7690,
      "erfordert": 7691,
      "inmitten": 7692,
      "anwäl": 7693,
      "schalter": 7694,
      "orn": 7695,
      "republ": 7696,
      "amt": 7697,
      "ish": 7698,
      "herab": 7699,
      "protest": 7700,
      "komisch": 7701,
      "jahrel": 7702,
      "zielen": 7703,
      "sträger": 7704,
      "syr": 7705,
      "mais": 7706,
      "state": 7707,
      "matri": 7708,
      "zentimeter": 7709,
      "schnitte": 7710,
      "dreimal": 7711,
      "mary": 7712,
      "empathie": 7713,
      "schuf": 7714,
      "schufen": 7715,
      "ultim": 7716,
      "händler": 7717,
      "angestellten": 7718,
      "hauses": 7719,
      "prägt": 7720,
      "wohnung": 7721,
      "schätze": 7722,
      "sexuell": 7723,
      "treibstoff": 7724,
      "schickt": 7725,
      "erzählten": 7726,
      "fördert": 7727,
      "gänz": 7728,
      "tätig": 7729,
      "hub": 7730,
      "kombinieren": 7731,
      "königin": 7732,
      "spektak": 7733,
      "zyklus": 7734,
      "effizienter": 7735,
      "depressionen": 7736,
      "skept": 7737,
      "origami": 7738,
      "zweites": 7739,
      "intuition": 7740,
      "synthet": 7741,
      "asteroiden": 7742,
      "urheber": 7743,
      "vember": 7744,
      "bam": 7745,
      "cat": 7746,
      "ipp": 7747,
      "idaten": 7748,
      "ng": 7749,
      "sach": 7750,
      "tiger": 7751,
      "ville": 7752,
      "einkauf": 7753,
      "anerkennung": 7754,
      "schlange": 7755,
      "zucht": 7756,
      "selektion": 7757,
      "abstand": 7758,
      "bedienen": 7759,
      "beendet": 7760,
      "senken": 7761,
      "habet": 7762,
      "grauen": 7763,
      "program": 7764,
      "allzu": 7765,
      "gerin": 7766,
      "geräten": 7767,
      "andau": 7768,
      "heilung": 7769,
      "stadium": 7770,
      "elles": 7771,
      "seide": 7772,
      "icken": 7773,
      "sicherstellen": 7774,
      "regist": 7775,
      "irgendein": 7776,
      "bahnen": 7777,
      "energien": 7778,
      "einziger": 7779,
      "gestalt": 7780,
      "2003": 7781,
      "sorgt": 7782,
      "jenige": 7783,
      "media": 7784,
      "bevorzu": 7785,
      "träum": 7786,
      "medit": 7787,
      "regenwald": 7788,
      "tollen": 7789,
      "tägliche": 7790,
      "illeg": 7791,
      "vortrags": 7792,
      "international": 7793,
      "spezifische": 7794,
      "mechanismen": 7795,
      "genetisch": 7796,
      "conne": 7797,
      "güte": 7798,
      "sichtigt": 7799,
      "feier": 7800,
      "rollstuhl": 7801,
      "virtuelle": 7802,
      "brennstoff": 7803,
      "erzielen": 7804,
      "arbeitsplä": 7805,
      "widerstands": 7806,
      "vertreter": 7807,
      "55": 7808,
      "bindung": 7809,
      "clou": 7810,
      "pit": 7811,
      "yon": 7812,
      "ermöglich": 7813,
      "erfüllt": 7814,
      "anson": 7815,
      "ansprechen": 7816,
      "anzeichen": 7817,
      "verei": 7818,
      "verwund": 7819,
      "befrie": 7820,
      "behäl": 7821,
      "bewältigen": 7822,
      "reag": 7823,
      "mittages": 7824,
      "ausgabe": 7825,
      "warfen": 7826,
      "isa": 7827,
      "kannten": 7828,
      "trächt": 7829,
      "kons": 7830,
      "möbel": 7831,
      "nochmals": 7832,
      "äufer": 7833,
      "hosen": 7834,
      "tax": 7835,
      "freut": 7836,
      "beginne": 7837,
      "kindersterblichkeit": 7838,
      "schuh": 7839,
      "regung": 7840,
      "come": 7841,
      "held": 7842,
      "startete": 7843,
      "glücks": 7844,
      "offenheit": 7845,
      "note": 7846,
      "gravit": 7847,
      "drohnen": 7848,
      "stoffwechsel": 7849,
      "schätz": 7850,
      "beobachtung": 7851,
      "programmiert": 7852,
      "psychop": 7853,
      "psychologen": 7854,
      "kehrte": 7855,
      "steigern": 7856,
      "stiegen": 7857,
      "definitiv": 7858,
      "umgebungen": 7859,
      "finanzieren": 7860,
      "verrückten": 7861,
      "simulation": 7862,
      "nordamerika": 7863,
      "trainieren": 7864,
      "detaill": 7865,
      "fix": 7866,
      "ursprüngliche": 7867,
      "autorität": 7868,
      "weichen": 7869,
      "täuschung": 7870,
      "schreibtisch": 7871,
      "verwandten": 7872,
      "paradig": 7873,
      "zwangs": 7874,
      "häufiger": 7875,
      "gates": 7876,
      "tragödie": 7877,
      "bun": 7878,
      "cla": 7879,
      "ey": 7880,
      "echter": 7881,
      "rassen": 7882,
      "vig": 7883,
      "wette": 7884,
      "öten": 7885,
      "erfuhr": 7886,
      "erschien": 7887,
      "unwahrscheinlich": 7888,
      "einstellen": 7889,
      "ankommen": 7890,
      "dere": 7891,
      "zusehen": 7892,
      "begrü": 7893,
      "ursachen": 7894,
      "aufgeben": 7895,
      "netze": 7896,
      "herkunft": 7897,
      "etabl": 7898,
      "landete": 7899,
      "schad": 7900,
      "liefen": 7901,
      "maler": 7902,
      "iller": 7903,
      "nunft": 7904,
      "syl": 7905,
      "genaue": 7906,
      "gesetzen": 7907,
      "kurzer": 7908,
      "norwegen": 7909,
      "cock": 7910,
      "angepasst": 7911,
      "bellen": 7912,
      "fortgeschritten": 7913,
      "gestiegen": 7914,
      "stattfinden": 7915,
      "sahara": 7916,
      "anzuschauen": 7917,
      "ahnen": 7918,
      "ipen": 7919,
      "ausgewählt": 7920,
      "panik": 7921,
      "beobacht": 7922,
      "architekt": 7923,
      "supermarkt": 7924,
      "perfekten": 7925,
      "prüfen": 7926,
      "glied": 7927,
      "abendessen": 7928,
      "kleider": 7929,
      "zweieinhalb": 7930,
      "raub": 7931,
      "pilot": 7932,
      "streiten": 7933,
      "religiöse": 7934,
      "verringer": 7935,
      "klettern": 7936,
      "kommentar": 7937,
      "verabschie": 7938,
      "explosion": 7939,
      "amazonas": 7940,
      "bräuch": 7941,
      "distanz": 7942,
      "anhänger": 7943,
      "frühling": 7944,
      "bün": 7945,
      "dbar": 7946,
      "fes": 7947,
      "gum": 7948,
      "kb": 7949,
      "mör": 7950,
      "ral": 7951,
      "uste": 7952,
      "eric": 7953,
      "erober": 7954,
      "erforschung": 7955,
      "unsicher": 7956,
      "unendlich": 7957,
      "einnehmen": 7958,
      "anspr": 7959,
      "angeschaut": 7960,
      "anwalt": 7961,
      "gefüllt": 7962,
      "leere": 7963,
      "dezem": 7964,
      "siehst": 7965,
      "isto": 7966,
      "vertreten": 7967,
      "vernunft": 7968,
      "bedien": 7969,
      "auflösung": 7970,
      "berat": 7971,
      "wendig": 7972,
      "überlebens": 7973,
      "überwält": 7974,
      "hebt": 7975,
      "füßen": 7976,
      "halben": 7977,
      "konzert": 7978,
      "vielzahl": 7979,
      "weltbank": 7980,
      "blinden": 7981,
      "meinungen": 7982,
      "kran": 7983,
      "streng": 7984,
      "gleicher": 7985,
      "grundlagen": 7986,
      "izit": 7987,
      "boote": 7988,
      "fange": 7989,
      "reichweite": 7990,
      "menschlich": 7991,
      "wissenschafts": 7992,
      "kompon": 7993,
      "icon": 7994,
      "wunderschönen": 7995,
      "dose": 7996,
      "dreh": 7997,
      "aktivieren": 7998,
      "farm": 7999,
      "archiv": 8000,
      "rasse": 8001,
      "bezieht": 8002,
      "neuron": 8003,
      "geredet": 8004,
      "vereinbar": 8005,
      "schickten": 8006,
      "offi": 8007,
      "züchten": 8008,
      "förderung": 8009,
      "religionen": 8010,
      "finanziert": 8011,
      "durchschnittlich": 8012,
      "liebten": 8013,
      "kritik": 8014,
      "vertrauens": 8015,
      "nullsummen": 8016,
      "honig": 8017,
      "chirurgen": 8018,
      "zigar": 8019,
      "rational": 8020,
      "restaurants": 8021,
      "freiwilligen": 8022,
      "berühmte": 8023,
      "chips": 8024,
      "vielerlei": 8025,
      "anreize": 8026,
      "initiative": 8027,
      "sklaven": 8028,
      "cambridge": 8029,
      "durchzuführen": 8030,
      "phosp": 8031,
      "überqueren": 8032,
      "schokolade": 8033,
      "hardware": 8034,
      "symbole": 8035,
      "spontan": 8036,
      "matrix": 8037,
      "ansonsten": 8038,
      "dezember": 8039,
      "ay": 8040,
      "iban": 8041,
      "jes": 8042,
      "ket": 8043,
      "nik": 8044,
      "nirgendwo": 8045,
      "sun": 8046,
      "vaku": 8047,
      "übt": 8048,
      "stipen": 8049,
      "anstellen": 8050,
      "esser": 8051,
      "schatz": 8052,
      "gesteuert": 8053,
      "sieb": 8054,
      "verlangt": 8055,
      "verdoppelt": 8056,
      "verboten": 8057,
      "verhindert": 8058,
      "behandlungen": 8059,
      "mitteilen": 8060,
      "wieviele": 8061,
      "mani": 8062,
      "annahmen": 8063,
      "steur": 8064,
      "breiten": 8065,
      "nachmittag": 8066,
      "trü": 8067,
      "gelder": 8068,
      "febru": 8069,
      "strich": 8070,
      "arbeitern": 8071,
      "waff": 8072,
      "wiederhol": 8073,
      "quad": 8074,
      "technisch": 8075,
      "digte": 8076,
      "kost": 8077,
      "paare": 8078,
      "kreaturen": 8079,
      "irgendeiner": 8080,
      "kopieren": 8081,
      "uckt": 8082,
      "freundlich": 8083,
      "akust": 8084,
      "käse": 8085,
      "basieren": 8086,
      "parteien": 8087,
      "städtischen": 8088,
      "schätzt": 8089,
      "ältesten": 8090,
      "aktuell": 8091,
      "herrscht": 8092,
      "missbrauch": 8093,
      "intelligent": 8094,
      "liebsten": 8095,
      "individuelle": 8096,
      "sonnensystem": 8097,
      "erkannten": 8098,
      "bandbreite": 8099,
      "optimistisch": 8100,
      "balance": 8101,
      "clip": 8102,
      "erledigt": 8103,
      "kategorie": 8104,
      "geholt": 8105,
      "schütteln": 8106,
      "radikal": 8107,
      "verwaltung": 8108,
      "auftauchen": 8109,
      "überzeugung": 8110,
      "griech": 8111,
      "versicherung": 8112,
      "umgekehrt": 8113,
      "vergrößern": 8114,
      "arzneimittel": 8115,
      "rekord": 8116,
      "involviert": 8117,
      "mittagessen": 8118,
      "februar": 8119,
      "brem": 8120,
      "lunge": 8121,
      "nieren": 8122,
      "pur": 8123,
      "rungen": 8124,
      "twe": 8125,
      "wh": 8126,
      "ßig": 8127,
      "story": 8128,
      "einschließlich": 8129,
      "anliegen": 8130,
      "esie": 8131,
      "arr": 8132,
      "leder": 8133,
      "deuten": 8134,
      "abil": 8135,
      "abdruck": 8136,
      "redet": 8137,
      "reale": 8138,
      "berichte": 8139,
      "ameise": 8140,
      "ausgang": 8141,
      "aussah": 8142,
      "radi": 8143,
      "profil": 8144,
      "schenken": 8145,
      "iens": 8146,
      "malt": 8147,
      "black": 8148,
      "flung": 8149,
      "samer": 8150,
      "song": 8151,
      "großeltern": 8152,
      "zieh": 8153,
      "master": 8154,
      "mod": 8155,
      "ideal": 8156,
      "ular": 8157,
      "expe": 8158,
      "beschaffen": 8159,
      "lauter": 8160,
      "mittelpunkt": 8161,
      "außerir": 8162,
      "korn": 8163,
      "wundervollen": 8164,
      "hunderttausende": 8165,
      "käme": 8166,
      "gesellschaftlichen": 8167,
      "großartiges": 8168,
      "vorherseh": 8169,
      "robotern": 8170,
      "programmierer": 8171,
      "kanä": 8172,
      "schwefel": 8173,
      "objekten": 8174,
      "staatlichen": 8175,
      "tiefst": 8176,
      "immuns": 8177,
      "leser": 8178,
      "männliche": 8179,
      "konzentration": 8180,
      "sproje": 8181,
      "sprogramm": 8182,
      "studierenden": 8183,
      "experimentieren": 8184,
      "mächtige": 8185,
      "klagen": 8186,
      "fotografie": 8187,
      "ursprünglichen": 8188,
      "pilz": 8189,
      "schwarzes": 8190,
      "budd": 8191,
      "passte": 8192,
      "beschleunigen": 8193,
      "verzweifelt": 8194,
      "verzweiflung": 8195,
      "synchron": 8196,
      "berühmten": 8197,
      "dutzende": 8198,
      "hypothese": 8199,
      "beobachtete": 8200,
      "lächerlich": 8201,
      "zettel": 8202,
      "konkurrenz": 8203,
      "ahl": 8204,
      "crick": 8205,
      "hill": 8206,
      "ipo": 8207,
      "uter": 8208,
      "erfasst": 8209,
      "unvermei": 8210,
      "anzeige": 8211,
      "augu": 8212,
      "derek": 8213,
      "schwellen": 8214,
      "gedreht": 8215,
      "geeignet": 8216,
      "tedt": 8217,
      "leon": 8218,
      "vereinfach": 8219,
      "bewohn": 8220,
      "bewirkt": 8221,
      "auftritt": 8222,
      "auffassung": 8223,
      "rom": 8224,
      "mithilfe": 8225,
      "berichtet": 8226,
      "impuls": 8227,
      "wies": 8228,
      "auswählen": 8229,
      "mande": 8230,
      "warm": 8231,
      "haber": 8232,
      "spender": 8233,
      "übers": 8234,
      "überlassen": 8235,
      "überwachen": 8236,
      "zehen": 8237,
      "hierfür": 8238,
      "forman": 8239,
      "blitz": 8240,
      "dring": 8241,
      "kräft": 8242,
      "illa": 8243,
      "hole": 8244,
      "schlicht": 8245,
      "hagen": 8246,
      "matische": 8247,
      "straf": 8248,
      "scheibe": 8249,
      "coole": 8250,
      "bai": 8251,
      "stattfindet": 8252,
      "koran": 8253,
      "unglaubliches": 8254,
      "gewaltige": 8255,
      "großartiger": 8256,
      "schöpfung": 8257,
      "lagern": 8258,
      "stabilis": 8259,
      "verfügen": 8260,
      "kalorien": 8261,
      "riffe": 8262,
      "hipp": 8263,
      "70er": 8264,
      "illegal": 8265,
      "türkei": 8266,
      "kritiker": 8267,
      "ropie": 8268,
      "hindernisse": 8269,
      "optimismus": 8270,
      "effektiver": 8271,
      "verletzung": 8272,
      "ignoranz": 8273,
      "verwandt": 8274,
      "finanziellen": 8275,
      "kommentare": 8276,
      "eschön": 8277,
      "säugetiere": 8278,
      "eingeschrän": 8279,
      "wuchsen": 8280,
      "andauern": 8281,
      "behälter": 8282,
      "tedtal": 8283,
      "blen": 8284,
      "blieben": 8285,
      "däch": 8286,
      "hll": 8287,
      "hass": 8288,
      "swert": 8289,
      "zier": 8290,
      "erbe": 8291,
      "invas": 8292,
      "unklar": 8293,
      "eingenommen": 8294,
      "eingeschlossen": 8295,
      "angi": 8296,
      "ankommt": 8297,
      "gesto": 8298,
      "zudem": 8299,
      "orbit": 8300,
      "athei": 8301,
      "versehen": 8302,
      "behaupt": 8303,
      "befehl": 8304,
      "aufstehen": 8305,
      "aufwand": 8306,
      "sende": 8307,
      "berater": 8308,
      "wiegt": 8309,
      "annten": 8310,
      "werben": 8311,
      "grand": 8312,
      "ikeln": 8313,
      "uth": 8314,
      "kler": 8315,
      "jahrhunderte": 8316,
      "unterrichtet": 8317,
      "vielmals": 8318,
      "hing": 8319,
      "flossen": 8320,
      "vieh": 8321,
      "opfern": 8322,
      "stapel": 8323,
      "kai": 8324,
      "trock": 8325,
      "stattet": 8326,
      "chinas": 8327,
      "betrug": 8328,
      "loser": 8329,
      "poesie": 8330,
      "gründer": 8331,
      "getrei": 8332,
      "schwamm": 8333,
      "rückwärts": 8334,
      "führenden": 8335,
      "verbren": 8336,
      "zehntausende": 8337,
      "merkwürdig": 8338,
      "kenntnis": 8339,
      "investoren": 8340,
      "erstaunlichen": 8341,
      "tiefgreifen": 8342,
      "widerspruch": 8343,
      "ttert": 8344,
      "gefährliche": 8345,
      "verurteilt": 8346,
      "englische": 8347,
      "präsentieren": 8348,
      "individuellen": 8349,
      "klinische": 8350,
      "taliban": 8351,
      "königreich": 8352,
      "nehmern": 8353,
      "heiligen": 8354,
      "bestandteil": 8355,
      "balken": 8356,
      "verkaufte": 8357,
      "chaot": 8358,
      "diskussionen": 8359,
      "betonen": 8360,
      "europäische": 8361,
      "syndro": 8362,
      "automob": 8363,
      "club": 8364,
      "kandidaten": 8365,
      "widmen": 8366,
      "anweisungen": 8367,
      "trinkwasser": 8368,
      "fettleibigkeit": 8369,
      "spektakul": 8370,
      "lach": 8371,
      "ow": 8372,
      "panz": 8373,
      "tion": 8374,
      "uel": 8375,
      "uzin": 8376,
      "yer": 8377,
      "zwill": 8378,
      "unabhängigkeit": 8379,
      "stin": 8380,
      "gestr": 8381,
      "ardo": 8382,
      "seg": 8383,
      "sey": 8384,
      "istent": 8385,
      "beängst": 8386,
      "ausger": 8387,
      "indische": 8388,
      "rait": 8389,
      "wäsche": 8390,
      "dritt": 8391,
      "drinnen": 8392,
      "großem": 8393,
      "kommenden": 8394,
      "dilem": 8395,
      "fäl": 8396,
      "fär": 8397,
      "gewandelt": 8398,
      "daneben": 8399,
      "prie": 8400,
      "ünde": 8401,
      "meile": 8402,
      "sicherzustellen": 8403,
      "2011": 8404,
      "verbor": 8405,
      "komplette": 8406,
      "pool": 8407,
      "hochzeit": 8408,
      "melo": 8409,
      "normales": 8410,
      "projekts": 8411,
      "aktiviert": 8412,
      "herumzu": 8413,
      "kolum": 8414,
      "kollege": 8415,
      "fasste": 8416,
      "vene": 8417,
      "herzlichen": 8418,
      "erfindungen": 8419,
      "finanzielle": 8420,
      "erkenntnisse": 8421,
      "voraussagen": 8422,
      "logisch": 8423,
      "fotografiert": 8424,
      "transportieren": 8425,
      "klassische": 8426,
      "fluores": 8427,
      "einzigartige": 8428,
      "interaktionen": 8429,
      "paradox": 8430,
      "laptops": 8431,
      "berechnet": 8432,
      "anreiz": 8433,
      "wüsste": 8434,
      "reihenfolge": 8435,
      "verletzen": 8436,
      "bronx": 8437,
      "luxus": 8438,
      "kategorien": 8439,
      "saturn": 8440,
      "connect": 8441,
      "jäger": 8442,
      "nort": 8443,
      "täter": 8444,
      "erfand": 8445,
      "eröffnen": 8446,
      "derart": 8447,
      "teure": 8448,
      "zuverläss": 8449,
      "zutiefst": 8450,
      "bege": 8451,
      "begab": 8452,
      "reflex": 8453,
      "umsetzen": 8454,
      "igungen": 8455,
      "auslän": 8456,
      "anner": 8457,
      "raffin": 8458,
      "vorbild": 8459,
      "merkte": 8460,
      "halle": 8461,
      "saison": 8462,
      "menschenrechte": 8463,
      "gelbe": 8464,
      "gelben": 8465,
      "opar": 8466,
      "drüber": 8467,
      "mühe": 8468,
      "magen": 8469,
      "landschaften": 8470,
      "zusammenfassen": 8471,
      "erstre": 8472,
      "wohltätigkeit": 8473,
      "buches": 8474,
      "gründung": 8475,
      "werkzeugen": 8476,
      "wahrscheinlicher": 8477,
      "enzy": 8478,
      "glaubens": 8479,
      "down": 8480,
      "materi": 8481,
      "netzwerken": 8482,
      "wohnungen": 8483,
      "skiz": 8484,
      "babies": 8485,
      "tötet": 8486,
      "erstaunt": 8487,
      "modern": 8488,
      "größeres": 8489,
      "studierte": 8490,
      "bestes": 8491,
      "lampen": 8492,
      "spezifischen": 8493,
      "trenn": 8494,
      "burger": 8495,
      "food": 8496,
      "biologisch": 8497,
      "vibr": 8498,
      "ueber": 8499,
      "steuerung": 8500,
      "islamischen": 8501,
      "angeboten": 8502,
      "braun": 8503,
      "freiwillige": 8504,
      "unglücklicherweise": 8505,
      "erkrankung": 8506,
      "trugen": 8507,
      "berechnung": 8508,
      "ermutigen": 8509,
      "platte": 8510,
      "stabilität": 8511,
      "atlantik": 8512,
      "stickstoff": 8513,
      "anpassung": 8514,
      "aufregende": 8515,
      "gitter": 8516,
      "antreiben": 8517,
      "tendenz": 8518,
      "phantom": 8519,
      "cloud": 8520,
      "phosphor": 8521,
      "36": 8522,
      "cas": 8523,
      "fit": 8524,
      "ider": 8525,
      "jos": 8526,
      "listen": 8527,
      "mol": 8528,
      "mmel": 8529,
      "piz": 8530,
      "sus": 8531,
      "snow": 8532,
      "wom": 8533,
      "wachte": 8534,
      "unsicherheit": 8535,
      "anfall": 8536,
      "anziehen": 8537,
      "geflogen": 8538,
      "zugehör": 8539,
      "lego": 8540,
      "absor": 8541,
      "abschnitt": 8542,
      "verpflicht": 8543,
      "beten": 8544,
      "befrei": 8545,
      "urlaub": 8546,
      "aufzunehmen": 8547,
      "mität": 8548,
      "ausde": 8549,
      "ausprobieren": 8550,
      "weizen": 8551,
      "day": 8552,
      "entropie": 8553,
      "beizubringen": 8554,
      "bringe": 8555,
      "uther": 8556,
      "heft": 8557,
      "reifen": 8558,
      "unterdrück": 8559,
      "darzustellen": 8560,
      "truppen": 8561,
      "andre": 8562,
      "glo": 8563,
      "seins": 8564,
      "blu": 8565,
      "meint": 8566,
      "schafts": 8567,
      "zurzeit": 8568,
      "würfel": 8569,
      "fachen": 8570,
      "mac": 8571,
      "hafter": 8572,
      "seiden": 8573,
      "pfle": 8574,
      "kins": 8575,
      "ohnen": 8576,
      "passwörter": 8577,
      "mutig": 8578,
      "mont": 8579,
      "2012": 8580,
      "raumes": 8581,
      "universe": 8582,
      "anzunehmen": 8583,
      "dankeschön": 8584,
      "bereitung": 8585,
      "schreien": 8586,
      "kortex": 8587,
      "zerbrech": 8588,
      "verbreitete": 8589,
      "klaren": 8590,
      "methan": 8591,
      "aktivisten": 8592,
      "newton": 8593,
      "schäden": 8594,
      "motto": 8595,
      "erzählung": 8596,
      "schlagzeilen": 8597,
      "apien": 8598,
      "wechselt": 8599,
      "extreme": 8600,
      "donald": 8601,
      "individuum": 8602,
      "türen": 8603,
      "moralisch": 8604,
      "faszinieren": 8605,
      "gore": 8606,
      "portrait": 8607,
      "feuerwehr": 8608,
      "produktions": 8609,
      "kombiniert": 8610,
      "halluzin": 8611,
      "beiträ": 8612,
      "primaten": 8613,
      "solarenergie": 8614,
      "beteiligen": 8615,
      "gefangenen": 8616,
      "briefe": 8617,
      "interviews": 8618,
      "kriminalität": 8619,
      "konsumieren": 8620,
      "dringend": 8621,
      "wähler": 8622,
      "röhren": 8623,
      "niemandem": 8624,
      "erlaubnis": 8625,
      "hilfsmittel": 8626,
      "berührung": 8627,
      "tempor": 8628,
      "sammelten": 8629,
      "wüssten": 8630,
      "belastung": 8631,
      "fokussieren": 8632,
      "sorgfältig": 8633,
      "dopamin": 8634,
      "jahrelang": 8635,
      "37": 8636,
      "bzw": 8637,
      "gäng": 8638,
      "harten": 8639,
      "ise": 8640,
      "pion": 8641,
      "squ": 8642,
      "vio": 8643,
      "yle": 8644,
      "öst": 8645,
      "chtet": 8646,
      "eingestellt": 8647,
      "einführung": 8648,
      "led": 8649,
      "abkommen": 8650,
      "elte": 8651,
      "bewiesen": 8652,
      "beleucht": 8653,
      "urteile": 8654,
      "rohr": 8655,
      "warst": 8656,
      "agte": 8657,
      "hero": 8658,
      "ikationen": 8659,
      "proto": 8660,
      "hierbei": 8661,
      "unterbrochen": 8662,
      "hinweisen": 8663,
      "durchmesser": 8664,
      "gelingt": 8665,
      "draussen": 8666,
      "law": 8667,
      "ünden": 8668,
      "bislang": 8669,
      "pad": 8670,
      "schlim": 8671,
      "izierten": 8672,
      "phasen": 8673,
      "techniker": 8674,
      "faden": 8675,
      "kose": 8676,
      "jedermann": 8677,
      "cous": 8678,
      "hänge": 8679,
      "low": 8680,
      "baten": 8681,
      "gefil": 8682,
      "glückliche": 8683,
      "außerordentlich": 8684,
      "allererst": 8685,
      "tsun": 8686,
      "anzuwenden": 8687,
      "wachsenden": 8688,
      "wachsende": 8689,
      "globaler": 8690,
      "virgin": 8691,
      "läufe": 8692,
      "technologische": 8693,
      "schweben": 8694,
      "mathematische": 8695,
      "immun": 8696,
      "demokratischen": 8697,
      "krankheits": 8698,
      "freue": 8699,
      "kürze": 8700,
      "britische": 8701,
      "kliniken": 8702,
      "schiffe": 8703,
      "frühstück": 8704,
      "geburts": 8705,
      "keinerlei": 8706,
      "genetik": 8707,
      "himmels": 8708,
      "denkst": 8709,
      "schlägen": 8710,
      "chinesisch": 8711,
      "klimawandels": 8712,
      "massive": 8713,
      "dünn": 8714,
      "jugendlichen": 8715,
      "eigentlichen": 8716,
      "cortex": 8717,
      "beschleunigt": 8718,
      "right": 8719,
      "subje": 8720,
      "klappt": 8721,
      "entsprechend": 8722,
      "rakete": 8723,
      "sklaverei": 8724,
      "skulpturen": 8725,
      "kognitive": 8726,
      "verschwendung": 8727,
      "substanz": 8728,
      "karikatur": 8729,
      "gelenk": 8730,
      "differenz": 8731,
      "arbeitsplätze": 8732,
      "gestohlen": 8733,
      "fusion": 8734,
      "lings": 8735,
      "runde": 8736,
      "tsch": 8737,
      "via": 8738,
      "zierte": 8739,
      "zonen": 8740,
      "steinen": 8741,
      "stationen": 8742,
      "stheorie": 8743,
      "anrufen": 8744,
      "altete": 8745,
      "gefolgt": 8746,
      "wischt": 8747,
      "setze": 8748,
      "abweich": 8749,
      "itäre": 8750,
      "versagt": 8751,
      "versetzen": 8752,
      "verraten": 8753,
      "verheiratet": 8754,
      "ierbar": 8755,
      "reformen": 8756,
      "rosa": 8757,
      "sendet": 8758,
      "ausgestorben": 8759,
      "ausreichend": 8760,
      "übergreifen": 8761,
      "herzin": 8762,
      "einerseits": 8763,
      "lanz": 8764,
      "ihad": 8765,
      "halfen": 8766,
      "mala": 8767,
      "flos": 8768,
      "feder": 8769,
      "kratz": 8770,
      "eigentum": 8771,
      "gebung": 8772,
      "nap": 8773,
      "ungslos": 8774,
      "howard": 8775,
      "ärzt": 8776,
      "jazz": 8777,
      "exter": 8778,
      "delphin": 8779,
      "zeile": 8780,
      "besserer": 8781,
      "wichtigkeit": 8782,
      "miner": 8783,
      "insul": 8784,
      "fähigen": 8785,
      "subt": 8786,
      "öffentlicher": 8787,
      "zentralen": 8788,
      "vaters": 8789,
      "indiens": 8790,
      "deutschen": 8791,
      "töchter": 8792,
      "bedeutsam": 8793,
      "förder": 8794,
      "finanzierung": 8795,
      "gelegenheiten": 8796,
      "brow": 8797,
      "knö": 8798,
      "faszinierende": 8799,
      "erfolgreiche": 8800,
      "mächtigen": 8801,
      "bedeutende": 8802,
      "erwähnte": 8803,
      "fantastischen": 8804,
      "foot": 8805,
      "fremd": 8806,
      "säule": 8807,
      "raubt": 8808,
      "transportiert": 8809,
      "notwendigkeit": 8810,
      "redner": 8811,
      "leitungen": 8812,
      "pumpen": 8813,
      "verblüffend": 8814,
      "transplant": 8815,
      "bezirk": 8816,
      "enthüll": 8817,
      "teurer": 8818,
      "gelähmt": 8819,
      "stärksten": 8820,
      "schizophrenie": 8821,
      "dome": 8822,
      "fbi": 8823,
      "hs": 8824,
      "sm": 8825,
      "tar": 8826,
      "uen": 8827,
      "ypt": 8828,
      "stirn": 8829,
      "einig": 8830,
      "eingebaut": 8831,
      "undation": 8832,
      "schwelle": 8833,
      "geplant": 8834,
      "genossen": 8835,
      "abra": 8836,
      "abgesch": 8837,
      "elend": 8838,
      "beantwortet": 8839,
      "terte": 8840,
      "aussagen": 8841,
      "ausschnitt": 8842,
      "überdenken": 8843,
      "grä": 8844,
      "ilit": 8845,
      "herstellt": 8846,
      "ikon": 8847,
      "heter": 8848,
      "nachläss": 8849,
      "konto": 8850,
      "fran": 8851,
      "wässer": 8852,
      "durchlaufen": 8853,
      "flam": 8854,
      "würfe": 8855,
      "zweiter": 8856,
      "interface": 8857,
      "gewinne": 8858,
      "tunnel": 8859,
      "ungsweise": 8860,
      "tastat": 8861,
      "leichen": 8862,
      "wahrgenommen": 8863,
      "boom": 8864,
      "leise": 8865,
      "leitet": 8866,
      "kammer": 8867,
      "formel": 8868,
      "erstmals": 8869,
      "paaren": 8870,
      "gemeint": 8871,
      "sichtigen": 8872,
      "angezogen": 8873,
      "verlag": 8874,
      "küchen": 8875,
      "lud": 8876,
      "gestop": 8877,
      "festhalten": 8878,
      "veget": 8879,
      "fotogra": 8880,
      "dreck": 8881,
      "nebenwirkungen": 8882,
      "absolute": 8883,
      "80er": 8884,
      "krankenhäuser": 8885,
      "architekton": 8886,
      "sprodu": 8887,
      "beschäftigte": 8888,
      "benötigte": 8889,
      "gefährdet": 8890,
      "90ern": 8891,
      "kämpfe": 8892,
      "prüfung": 8893,
      "klinischen": 8894,
      "stammes": 8895,
      "ventionen": 8896,
      "büros": 8897,
      "schafter": 8898,
      "foundation": 8899,
      "empfänger": 8900,
      "protok": 8901,
      "rauschen": 8902,
      "gegner": 8903,
      "erweitert": 8904,
      "akzeptiert": 8905,
      "motivieren": 8906,
      "beeinträcht": 8907,
      "ökonomie": 8908,
      "elektronische": 8909,
      "historischen": 8910,
      "negative": 8911,
      "repräsentieren": 8912,
      "flaggen": 8913,
      "beschränkt": 8914,
      "interpretation": 8915,
      "finanziell": 8916,
      "photos": 8917,
      "nelson": 8918,
      "alexander": 8919,
      "alphabet": 8920,
      "dörfer": 8921,
      "unabhängige": 8922,
      "analogie": 8923,
      "äthiopien": 8924,
      "anwälte": 8925,
      "gummi": 8926,
      "anspruchs": 8927,
      "jesus": 8928,
      "bum": 8929,
      "fuer": 8930,
      "mum": 8931,
      "sö": 8932,
      "sig": 8933,
      "sort": 8934,
      "vok": 8935,
      "erschwing": 8936,
      "einges": 8937,
      "schnur": 8938,
      "zueinander": 8939,
      "genial": 8940,
      "abgelegen": 8941,
      "atta": 8942,
      "elf": 8943,
      "beat": 8944,
      "igr": 8945,
      "amate": 8946,
      "weiger": 8947,
      "steck": 8948,
      "stehlen": 8949,
      "jegliche": 8950,
      "geschwi": 8951,
      "hingegen": 8952,
      "antarktis": 8953,
      "seife": 8954,
      "millimeter": 8955,
      "entwicklungen": 8956,
      "soldat": 8957,
      "willkür": 8958,
      "sicheren": 8959,
      "treppe": 8960,
      "monster": 8961,
      "wortes": 8962,
      "2050": 8963,
      "öffnete": 8964,
      "natürlicher": 8965,
      "rieb": 8966,
      "commun": 8967,
      "ferenzen": 8968,
      "ultra": 8969,
      "lichts": 8970,
      "wirtschaftlich": 8971,
      "belei": 8972,
      "freizeit": 8973,
      "mustern": 8974,
      "verwendeten": 8975,
      "forschern": 8976,
      "jenes": 8977,
      "generell": 8978,
      "sinnes": 8979,
      "jose": 8980,
      "bekannter": 8981,
      "wärmer": 8982,
      "typische": 8983,
      "attung": 8984,
      "kleineren": 8985,
      "innovativ": 8986,
      "ehrgei": 8987,
      "tiefsee": 8988,
      "stieß": 8989,
      "größtenteils": 8990,
      "potentie": 8991,
      "kritische": 8992,
      "wesentliche": 8993,
      "long": 8994,
      "polizisten": 8995,
      "spiegeln": 8996,
      "insekt": 8997,
      "elektroden": 8998,
      "einzigartigen": 8999,
      "unsichtbare": 9000,
      "stimmte": 9001,
      "flüchtlinge": 9002,
      "drängt": 9003,
      "größenordnung": 9004,
      "fossilen": 9005,
      "veranstaltung": 9006,
      "gewohnheiten": 9007,
      "burgh": 9008,
      "vergewaltigt": 9009,
      "erreichte": 9010,
      "frosch": 9011,
      "beherrschen": 9012,
      "membran": 9013,
      "süchtig": 9014,
      "programmen": 9015,
      "herzinfar": 9016,
      "insulin": 9017,
      "belt": 9018,
      "clin": 9019,
      "dv": 9020,
      "ecken": 9021,
      "iums": 9022,
      "jor": 9023,
      "kell": 9024,
      "kans": 9025,
      "runden": 9026,
[...]
