{
  "version": "1.0",
  "truncation": null,
  "padding": null,
  "added_tokens": [
    {
      "id": 0,
      "content": "[UNK]",
      "single_word": false,
      "lstrip": false,
      "rstrip": false,
      "normalized": false,
      "special": true
    },
    {
      "id": 1,
      "content": "[PAD]",
      "single_word": false,
      "lstrip": false,
      "rstrip": false,
      "normalized": false,
      "special": true
    },
    {
      "id": 2,
      "content": "[EOS]",
      "single_word": false,
      "lstrip": false,
      "rstrip": false,
      "normalized": false,
      "special": true
    },
    {
      "id": 3,
      "content": "[SOS]",
      "single_word": false,
      "lstrip": false,
      "rstrip": false,
      "normalized": false,
      "special": true
    },
    {
      "id": 4,
      "content": "[MASK]",
      "single_word": false,
      "lstrip": false,
      "rstrip": false,
      "normalized": false,
      "special": true
    }
  ],
  "normalizer": {
    "type": "Lowercase"
  },
  "pre_tokenizer": {
    "type": "Sequence",
    "pretokenizers": [
      {
        "type": "Whitespace"
      },
      {
        "type": "Punctuation",
        "behavior": "Isolated"
      }
    ]
  },
  "post_processor": null,
  "decoder": null,
  "model": {
    "type": "BPE",
    "dropout": null,
    "unk_token": "[UNK]",
    "continuing_subword_prefix": null,
    "end_of_word_suffix": null,
    "fuse_unk": false,
    "byte_fallback": false,
    "ignore_merges": false,
    "vocab": {
      "[UNK]": 0,
      "[PAD]": 1,
      "[EOS]": 2,
      "[SOS]": 3,
      "[MASK]": 4,
      "!": 5,
      "\"": 6,
      "#": 7,
      "$": 8,
      "%": 9,
      "&": 10,
      "'": 11,
      "(": 12,
      ")": 13,
      "*": 14,
      "+": 15,
      ",": 16,
      "-": 17,
      ".": 18,
      "/": 19,
      "0": 20,
      "1": 21,
      "2": 22,
      "3": 23,
      "4": 24,
      "5": 25,
      "6": 26,
      "7": 27,
      "8": 28,
      "9": 29,
      ":": 30,
      ";": 31,
      "<": 32,
      "=": 33,
      ">": 34,
      "?": 35,
      "@": 36,
      "[": 37,
      "\\": 38,
      "]": 39,
      "^": 40,
      "_": 41,
      "`": 42,
      "a": 43,
      "b": 44,
      "c": 45,
      "d": 46,
      "e": 47,
      "f": 48,
      "g": 49,
      "h": 50,
      "i": 51,
      "j": 52,
      "k": 53,
      "l": 54,
      "m": 55,
      "n": 56,
      "o": 57,
      "p": 58,
      "q": 59,
      "r": 60,
      "s": 61,
      "t": 62,
      "u": 63,
      "v": 64,
      "w": 65,
      "x": 66,
      "y": 67,
      "z": 68,
      "{": 69,
      "|": 70,
      "}": 71,
      "~": 72,
      "": 73,
      "": 74,
      "": 75,
      "": 76,
      "": 77,
      "": 78,
      "": 79,
      "": 80,
      "": 81,
      "": 82,
      "": 83,
      "": 84,
      "": 85,
      "": 86,
      "": 87,
      "": 88,
      "": 89,
      "": 90,
      "": 91,
      "": 92,
      "": 93,
      "": 94,
      "": 95,
      "": 96,
      "": 97,
      "": 98,
      "": 99,
      "": 100,
      "": 101,
      "¡": 102,
      "¢": 103,
      "£": 104,
      "¤": 105,
      "¥": 106,
      "¦": 107,
      "§": 108,
      "¨": 109,
      "©": 110,
      "ª": 111,
      "«": 112,
      "¬": 113,
      "­": 114,
      "®": 115,
      "¯": 116,
      "°": 117,
      "±": 118,
      "²": 119,
      "³": 120,
      "´": 121,
      "µ": 122,
      "¶": 123,
      "·": 124,
      "¸": 125,
      "¹": 126,
      "º": 127,
      "»": 128,
      "¼": 129,
      "½": 130,
      "¾": 131,
      "¿": 132,
      "×": 133,
      "ß": 134,
      "à": 135,
      "á": 136,
      "â": 137,
      "ã": 138,
      "ä": 139,
      "å": 140,
      "æ": 141,
      "ç": 142,
      "è": 143,
      "é": 144,
      "ê": 145,
      "ë": 146,
      "ì": 147,
      "í": 148,
      "î": 149,
      "ï": 150,
      "ð": 151,
      "ñ": 152,
      "ò": 153,
      "ó": 154,
      "ô": 155,
      "õ": 156,
      "ö": 157,
      "÷": 158,
      "ø": 159,
      "ù": 160,
      "ú": 161,
      "û": 162,
      "ü": 163,
      "ý": 164,
      "þ": 165,
      "ÿ": 166,
      "ā": 167,
      "ă": 168,
      "ą": 169,
      "ć": 170,
      "ĉ": 171,
      "ċ": 172,
      "č": 173,
      "ď": 174,
      "đ": 175,
      "ē": 176,
      "ĕ": 177,
      "ė": 178,
      "ę": 179,
      "ě": 180,
      "ĝ": 181,
      "ğ": 182,
      "ġ": 183,
      "ģ": 184,
      "ĥ": 185,
      "ħ": 186,
      "ĩ": 187,
      "ī": 188,
      "ĭ": 189,
      "į": 190,
      "ı": 191,
      "ĳ": 192,
      "ĵ": 193,
      "ķ": 194,
      "ĸ": 195,
      "ĺ": 196,
      "ļ": 197,
      "ľ": 198,
      "ŀ": 199,
      "ł": 200,
      "ń": 201,
      "ņ": 202,
      "ň": 203,
      "ŋ": 204,
      "ō": 205,
      "ŏ": 206,
      "ő": 207,
      "œ": 208,
      "ŕ": 209,
      "ř": 210,
      "ś": 211,
      "ŝ": 212,
      "ş": 213,
      "š": 214,
      "ţ": 215,
      "ť": 216,
      "ũ": 217,
      "ū": 218,
      "ŭ": 219,
      "ů": 220,
      "ű": 221,
      "ų": 222,
      "ŵ": 223,
      "ŷ": 224,
      "ź": 225,
      "ż": 226,
      "ž": 227,
      "ſ": 228,
      "ƒ": 229,
      "ƙ": 230,
      "ƛ": 231,
      "ơ": 232,
      "ƭ": 233,
      "ư": 234,
      "ǎ": 235,
      "ǐ": 236,
      "ǒ": 237,
      "ǔ": 238,
      "ǘ": 239,
      "ǜ": 240,
      "ǝ": 241,
      "ǟ": 242,
      "ǣ": 243,
      "ǫ": 244,
      "ǵ": 245,
      "ǻ": 246,
      "ȃ": 247,
      "ș": 248,
      "ț": 249,
      "ȣ": 250,
      "ȥ": 251,
      "ȼ": 252,
      "ɐ": 253,
      "ɑ": 254,
      "ɒ": 255,
      "ɔ": 256,
      "ɕ": 257,
      "ə": 258,
      "ɚ": 259,
      "ɛ": 260,
      "ɜ": 261,
      "ɠ": 262,
      "ɡ": 263,
      "ɢ": 264,
      "ɣ": 265,
      "ɤ": 266,
      "ɨ": 267,
      "ɩ": 268,
      "ɪ": 269,
      "ɫ": 270,
      "ɬ": 271,
      "ɯ": 272,
      "ɲ": 273,
      "ɴ": 274,
      "ɵ": 275,
      "ɹ": 276,
      "ɾ": 277,
      "ʀ": 278,
      "ʁ": 279,
      "ʃ": 280,
      "ʊ": 281,
      "ʋ": 282,
      "ʌ": 283,
      "ʎ": 284,
      "ʐ": 285,
      "ʒ": 286,
      "ʔ": 287,
      "ʚ": 288,
      "ʤ": 289,
      "ʦ": 290,
      "ʰ": 291,
      "ʲ": 292,
      "ʺ": 293,
      "ʻ": 294,
      "ʼ": 295,
      "ʾ": 296,
      "ʿ": 297,
      "ˁ": 298,
      "ˆ": 299,
      "ˇ": 300,
      "ˈ": 301,
      "ˌ": 302,
      "ː": 303,
      "ˑ": 304,
      "˘": 305,
      "˙": 306,
      "˚": 307,
      "˛": 308,
      "˜": 309,
      "˝": 310,
      "ˡ": 311,
      "ˤ": 312,
      "̀": 313,
      "́": 314,
      "̂": 315,
      "̃": 316,
      "̄": 317,
      "̆": 318,
      "̇": 319,
      "̈": 320,
      "̍": 321,
      "̡": 322,
      "̣": 323,
      "̤": 324,
      "̧": 325,
      "̯": 326,
      "̱": 327,
      "̶": 328,
      "͘": 329,
      "͡": 330,
      ";": 331,
      "΄": 332,
      "ΐ": 333,
      "ά": 334,
      "έ": 335,
      "ή": 336,
      "ί": 337,
      "α": 338,
      "β": 339,
      "γ": 340,
      "δ": 341,
      "ε": 342,
      "ζ": 343,
      "η": 344,
      "θ": 345,
      "ι": 346,
      "κ": 347,
      "λ": 348,
      "μ": 349,
      "ν": 350,
      "ξ": 351,
      "ο": 352,
      "π": 353,
      "ρ": 354,
      "ς": 355,
      "σ": 356,
      "τ": 357,
      "υ": 358,
      "φ": 359,
      "χ": 360,
      "ψ": 361,
      "ω": 362,
      "ϊ": 363,
      "ϋ": 364,
      "ό": 365,
      "ύ": 366,
      "ώ": 367,
      "а": 368,
      "б": 369,
      "в": 370,
      "г": 371,
      "д": 372,
      "е": 373,
      "ж": 374,
      "з": 375,
      "и": 376,
      "й": 377,
      "к": 378,
      "л": 379,
      "м": 380,
      "н": 381,
      "о": 382,
      "п": 383,
      "р": 384,
      "с": 385,
      "т": 386,
      "у": 387,
      "ф": 388,
      "х": 389,
      "ц": 390,
      "ч": 391,
      "ш": 392,
      "щ": 393,
      "ъ": 394,
      "ы": 395,
      "ь": 396,
      "э": 397,
      "ю": 398,
      "я": 399,
      "ё": 400,
      "ђ": 401,
      "ѓ": 402,
      "є": 403,
      "ѕ": 404,
      "і": 405,
      "ї": 406,
      "ј": 407,
      "љ": 408,
      "њ": 409,
      "ћ": 410,
      "ќ": 411,
      "ў": 412,
      "џ": 413,
      "ѳ": 414,
      "ґ": 415,
      "ғ": 416,
      "ҙ": 417,
      "қ": 418,
      "ҡ": 419,
      "ң": 420,
      "ү": 421,
      "ұ": 422,
      "ҳ": 423,
      "һ": 424,
      "ә": 425,
      "ө": 426,
      "ӳ": 427,
      "ְ": 428,
      "ֲ": 429,
      "ֳ": 430,
      "ִ": 431,
      "ֵ": 432,
      "ֶ": 433,
      "ַ": 434,
      "ָ": 435,
      "ֹ": 436,
      "ּ": 437,
      "ֿ": 438,
      "ׁ": 439,
      "א": 440,
      "ב": 441,
      "ג": 442,
      "ד": 443,
      "ה": 444,
      "ו": 445,
      "ז": 446,
      "ח": 447,
      "ט": 448,
      "י": 449,
      "כ": 450,
      "ל": 451,
      "ם": 452,
      "מ": 453,
      "ן": 454,
      "נ": 455,
      "ס": 456,
      "ע": 457,
      "פ": 458,
      "ץ": 459,
      "צ": 460,
      "ק": 461,
      "ר": 462,
      "ש": 463,
      "ת": 464,
      "،": 465,
      "ؒ": 466,
      "؛": 467,
      "ء": 468,
      "آ": 469,
      "أ": 470,
      "ؤ": 471,
      "إ": 472,
      "ئ": 473,
      "ا": 474,
      "ب": 475,
      "ة": 476,
      "ت": 477,
      "ث": 478,
      "ج": 479,
      "ح": 480,
      "خ": 481,
      "د": 482,
      "ذ": 483,
      "ر": 484,
      "ز": 485,
      "س": 486,
      "ش": 487,
      "ص": 488,
      "ض": 489,
      "ط": 490,
      "ظ": 491,
      "ع": 492,
      "غ": 493,
      "ـ": 494,
      "ف": 495,
      "ق": 496,
      "ك": 497,
      "ل": 498,
      "م": 499,
      "ن": 500,
      "ه": 501,
      "و": 502,
      "ى": 503,
      "ي": 504,
      "ً": 505,
      "ٌ": 506,
      "ٍ": 507,
      "َ": 508,
      "ُ": 509,
      "ِ": 510,
      "ّ": 511,
      "ْ": 512,
      "ٲ": 513,
      "ٹ": 514,
      "ټ": 515,
      "پ": 516,
      "ځ": 517,
      "چ": 518,
      "ڠ": 519,
      "ڤ": 520,
      "ک": 521,
      "ڬ": 522,
      "ڭ": 523,
      "گ": 524,
      "ھ": 525,
      "ہ": 526,
      "ۂ": 527,
      "ۆ": 528,
      "ۇ": 529,
      "ی": 530,
      "ې": 531,
      "ە": 532,
      "۞": 533,
      "۩": 534,
      "۰": 535,
      "۱": 536,
      "۲": 537,
      "۳": 538,
      "۴": 539,
      "۵": 540,
      "۶": 541,
      "۷": 542,
      "۸": 543,
      "۹": 544,
      "ރ": 545,
      "ކ": 546,
      "އ": 547,
      "މ": 548,
      "ާ": 549,
      "ި": 550,
      "ެ": 551,
      "ߖ": 552,
      "ߧ": 553,
      "߮": 554,
      "ं": 555,
      "अ": 556,
      "आ": 557,
      "ई": 558,
      "उ": 559,
      "क": 560,
      "ग": 561,
      "च": 562,
      "छ": 563,
      "ज": 564,
      "ञ": 565,
      "ट": 566,
      "ड": 567,
      "ढ": 568,
      "ण": 569,
      "त": 570,
      "थ": 571,
      "द": 572,
      "ध": 573,
      "न": 574,
      "प": 575,
      "ब": 576,
      "भ": 577,
      "म": 578,
      "य": 579,
      "र": 580,
      "ल": 581,
      "व": 582,
      "श": 583,
      "ष": 584,
      "स": 585,
      "ह": 586,
      "़": 587,
      "ा": 588,
      "ि": 589,
      "ी": 590,
      "ु": 591,
      "ृ": 592,
      "े": 593,
      "ॉ": 594,
      "ो": 595,
      "्": 596,
      "ॐ": 597,
      "ॡ": 598,
      "०": 599,
      "१": 600,
      "२": 601,
      "३": 602,
      "५": 603,
      "९": 604,
      "ং": 605,
      "আ": 606,
      "ই": 607,
      "এ": 608,
      "ক": 609,
      "গ": 610,
      "ঙ": 611,
      "চ": 612,
      "ট": 613,
      "ত": 614,
      "ন": 615,
      "প": 616,
      "ব": 617,
      "ম": 618,
      "য": 619,
      "র": 620,
      "ল": 621,
      "শ": 622,
      "ষ": 623,
      "হ": 624,
      "়": 625,
      "া": 626,
      "ি": 627,
      "ু": 628,
      "ো": 629,
      "্": 630,
      "ৰ": 631,
      "ਗ": 632,
      "ਚ": 633,
      "ਡ": 634,
      "ਹ": 635,
      "ੀ": 636,
      "੍": 637,
      "ੜ": 638,
      "ੰ": 639,
      "ં": 640,
      "અ": 641,
      "ક": 642,
      "જ": 643,
      "ત": 644,
      "મ": 645,
      "ય": 646,
      "ર": 647,
      "સ": 648,
      "ા": 649,
      "િ": 650,
      "ુ": 651,
      "ે": 652,
      "્": 653,
      "૦": 654,
      "૧": 655,
      "૨": 656,
      "க": 657,
      "ங": 658,
      "ச": 659,
      "ட": 660,
      "த": 661,
      "ன": 662,
      "ப": 663,
      "ம": 664,
      "ய": 665,
      "ர": 666,
      "ல": 667,
      "வ": 668,
      "ஷ": 669,
      "ா": 670,
      "ி": 671,
      "ு": 672,
      "ூ": 673,
      "ெ": 674,
      "ை": 675,
      "ோ": 676,
      "்": 677,
      "ం": 678,
      "ఆ": 679,
      "క": 680,
      "గ": 681,
      "జ": 682,
      "డ": 683,
      "ద": 684,
      "ధ": 685,
      "న": 686,
      "ప": 687,
      "ర": 688,
      "శ": 689,
      "ా": 690,
      "ు": 691,
      "ె": 692,
      "ే": 693,
      "ొ": 694,
      "్": 695,
      "ౕ": 696,
      "ಐ": 697,
      "ಯ": 698,
      "ರ": 699,
      "ವ": 700,
      "ಶ": 701,
      "ಾ": 702,
      "ೆ": 703,
      "ೈ": 704,
      "್": 705,
      "ೖ": 706,
      "೦": 707,
      "೧": 708,
      "೨": 709,
      "೩": 710,
      "೫": 711,
      "೬": 712,
      "೮": 713,
      "೯": 714,
      "അ": 715,
      "എ": 716,
      "ക": 717,
      "ത": 718,
      "ദ": 719,
      "ന": 720,
      "പ": 721,
      "മ": 722,
      "യ": 723,
      "ല": 724,
      "വ": 725,
      "ഷ": 726,
      "സ": 727,
      "ി": 728,
      "ീ": 729,
      "ു": 730,
      "ോ": 731,
      "്": 732,
      "න": 733,
      "ම": 734,
      "ර": 735,
      "ව": 736,
      "හ": 737,
      "ු": 738,
      "ก": 739,
      "ข": 740,
      "ค": 741,
      "ฆ": 742,
      "ง": 743,
      "จ": 744,
      "ฉ": 745,
      "ช": 746,
      "ซ": 747,
      "ญ": 748,
      "ฎ": 749,
      "ฏ": 750,
      "ฐ": 751,
      "ฑ": 752,
      "ฒ": 753,
      "ณ": 754,
      "ด": 755,
      "ต": 756,
      "ถ": 757,
      "ท": 758,
      "ธ": 759,
      "น": 760,
      "บ": 761,
      "ป": 762,
      "ผ": 763,
      "ฝ": 764,
      "พ": 765,
      "ฟ": 766,
      "ภ": 767,
      "ม": 768,
      "ย": 769,
      "ร": 770,
      "ฤ": 771,
      "ล": 772,
      "ว": 773,
      "ศ": 774,
      "ษ": 775,
      "ส": 776,
      "ห": 777,
      "อ": 778,
      "ฮ": 779,
      "ฯ": 780,
      "ะ": 781,
      "ั": 782,
      "า": 783,
      "ำ": 784,
      "ิ": 785,
      "ี": 786,
      "ึ": 787,
      "ื": 788,
      "ุ": 789,
      "ู": 790,
      "฿": 791,
      "เ": 792,
      "แ": 793,
      "โ": 794,
      "ใ": 795,
      "ไ": 796,
      "ๆ": 797,
      "็": 798,
      "่": 799,
      "้": 800,
      "๊": 801,
      "๋": 802,
      "์": 803,
      "๑": 804,
      "ຂ": 805,
      "ຄ": 806,
      "ງ": 807,
      "ຈ": 808,
      "ດ": 809,
      "ຖ": 810,
      "ນ": 811,
      "ບ": 812,
      "ມ": 813,
      "ລ": 814,
      "ວ": 815,
      "ັ": 816,
      "າ": 817,
      "ຸ": 818,
      "ົ": 819,
      "ຽ": 820,
      "ເ": 821,
      "້": 822,
      "ໜ": 823,
      "་": 824,
      "ཏ": 825,
      "ད": 826,
      "ན": 827,
      "བ": 828,
      "མ": 829,
      "ཚ": 830,
      "འ": 831,
      "ལ": 832,
      "ས": 833,
      "ཱ": 834,
      "ི": 835,
      "ོ": 836,
      "ྔ": 837,
      "ླ": 838,
      "န": 839,
      "ရ": 840,
      "ဝ": 841,
      "သ": 842,
      "ဟ": 843,
      "ေ": 844,
      "္": 845,
      "ა": 846,
      "ბ": 847,
      "გ": 848,
      "დ": 849,
      "ე": 850,
      "ვ": 851,
      "ზ": 852,
      "თ": 853,
      "ი": 854,
      "კ": 855,
      "ლ": 856,
      "მ": 857,
      "ნ": 858,
      "ო": 859,
      "პ": 860,
      "რ": 861,
      "ს": 862,
      "ტ": 863,
      "უ": 864,
      "ქ": 865,
      "ღ": 866,
      "შ": 867,
      "ც": 868,
      "ძ": 869,
      "წ": 870,
      "ხ": 871,
      "ჯ": 872,
      "ህ": 873,
      "ሊ": 874,
      "ል": 875,
      "ሓ": 876,
      "ሕ": 877,
      "መ": 878,
      "ሙ": 879,
      "ሜ": 880,
      "ም": 881,
      "ሥ": 882,
      "ረ": 883,
      "ሪ": 884,
      "ራ": 885,
      "ር": 886,
      "ሰ": 887,
      "ሴ": 888,
      "ስ": 889,
      "ሻ": 890,
      "ሽ": 891,
      "ቀ": 892,
      "ቐ": 893,
      "በ": 894,
      "ቢ": 895,
      "ባ": 896,
      "ተ": 897,
      "ት": 898,
      "ቶ": 899,
      "ነ": 900,
      "ን": 901,
      "አ": 902,
      "ኣ": 903,
      "ኤ": 904,
      "እ": 905,
      "ኦ": 906,
      "ካ": 907,
      "ክ": 908,
      "ዋ": 909,
      "ው": 910,
      "ዓ": 911,
      "ዕ": 912,
      "የ": 913,
      "ይ": 914,
      "ደ": 915,
      "ዲ": 916,
      "ድ": 917,
      "ገ": 918,
      "ጋ": 919,
      "ጨ": 920,
      "ጽ": 921,
      "ፅ": 922,
      "ፈ": 923,
      "ፍ": 924,
      "፣": 925,
      "ᐃ": 926,
      "ᐊ": 927,
      "ᑦ": 928,
      "ᑲ": 929,
      "ᒃ": 930,
      "ᒥ": 931,
      "ᓄ": 932,
      "ᓕ": 933,
      "ដ": 934,
      "ឋ": 935,
      "រ": 936,
      "ស": 937,
      "ហ": 938,
      "្": 939,
      "ḇ": 940,
      "ḍ": 941,
      "ḏ": 942,
      "ḗ": 943,
      "ḥ": 944,
      "ḫ": 945,
      "ḳ": 946,
      "ḷ": 947,
      "ḿ": 948,
      "ṃ": 949,
      "ṅ": 950,
      "ṇ": 951,
      "ṉ": 952,
      "ṛ": 953,
      "ṣ": 954,
      "ṭ": 955,
      "ṯ": 956,
      "ṳ": 957,
      "ẋ": 958,
      "ạ": 959,
      "ả": 960,
      "ấ": 961,
      "ầ": 962,
      "ẩ": 963,
      "ậ": 964,
      "ắ": 965,
      "ằ": 966,
      "ẳ": 967,
      "ẵ": 968,
      "ặ": 969,
      "ẻ": 970,
      "ẽ": 971,
      "ế": 972,
      "ề": 973,
      "ể": 974,
      "ễ": 975,
      "ệ": 976,
      "ỉ": 977,
      "ị": 978,
      "ọ": 979,
      "ỏ": 980,
      "ố": 981,
      "ồ": 982,
      "ổ": 983,
      "ộ": 984,
      "ớ": 985,
      "ờ": 986,
      "ở": 987,
      "ỡ": 988,
      "ợ": 989,
      "ụ": 990,
      "ủ": 991,
      "ứ": 992,
      "ừ": 993,
      "ử": 994,
      "ữ": 995,
      "ự": 996,
      "ỳ": 997,
      "ỹ": 998,
      "ἀ": 999,
      "ἁ": 1000,
      "ἄ": 1001,
      "ἅ": 1002,
      "ἐ": 1003,
      "ἑ": 1004,
      "ἔ": 1005,
      "ἠ": 1006,
      "ἡ": 1007,
      "ἥ": 1008,
      "ἦ": 1009,
      "ἰ": 1010,
      "ἱ": 1011,
      "ὁ": 1012,
      "ὄ": 1013,
      "ὑ": 1014,
      "ά": 1015,
      "ὶ": 1016,
      "ὺ": 1017,
      "ῆ": 1018,
      "ῑ": 1019,
      "ῖ": 1020,
      "ῥ": 1021,
      "ῦ": 1022,
      "​": 1023,
      "‌": 1024,
      "‍": 1025,
      "‎": 1026,
      "‏": 1027,
      "‐": 1028,
      "‑": 1029,
      "‒": 1030,
      "–": 1031,
      "—": 1032,
      "―": 1033,
      "‖": 1034,
      "‘": 1035,
      "’": 1036,
      "‚": 1037,
      "‛": 1038,
      "“": 1039,
      "”": 1040,
      "„": 1041,
      "‟": 1042,
      "†": 1043,
      "‡": 1044,
      "•": 1045,
      "…": 1046,
      "‪": 1047,
      "‬": 1048,
      "‭": 1049,
      "‰": 1050,
      "′": 1051,
      "″": 1052,
      "‶": 1053,
      "‹": 1054,
      "›": 1055,
      "※": 1056,
      "‼": 1057,
      "‽": 1058,
      "⁄": 1059,
      "⁴": 1060,
      "ⁿ": 1061,
      "₁": 1062,
      "₂": 1063,
      "₠": 1064,
      "₣": 1065,
      "₤": 1066,
      "₩": 1067,
      "₪": 1068,
      "€": 1069,
      "₴": 1070,
      "₵": 1071,
      "⃛": 1072,
      "℃": 1073,
      "ℓ": 1074,
      "℔": 1075,
      "№": 1076,
      "™": 1077,
      "℮": 1078,
      "⅓": 1079,
      "⅔": 1080,
      "⅛": 1081,
      "⅞": 1082,
      "ⅱ": 1083,
      "ⅲ": 1084,
      "←": 1085,
      "↑": 1086,
      "→": 1087,
      "↓": 1088,
      "↔": 1089,
      "↧": 1090,
      "⇒": 1091,
      "⇔": 1092,
      "⇗": 1093,
      "⇢": 1094,
      "∀": 1095,
      "∃": 1096,
      "∈": 1097,
      "∑": 1098,
      "−": 1099,
      "∙": 1100,
      "√": 1101,
      "∞": 1102,
      "∫": 1103,
      "∴": 1104,
      "∶": 1105,
      "∼": 1106,
      "≈": 1107,
      "≠": 1108,
      "≡": 1109,
      "≤": 1110,
      "≥": 1111,
      "≪": 1112,
      "≫": 1113,
      "⋅": 1114,
      "⌃": 1115,
      "⌘": 1116,
      "①": 1117,
      "②": 1118,
      "③": 1119,
      "─": 1120,
      "│": 1121,
      "┌": 1122,
      "┐": 1123,
      "└": 1124,
      "┘": 1125,
      "┬": 1126,
      "┴": 1127,
      "╚": 1128,
      "╞": 1129,
      "╩": 1130,
      "█": 1131,
      "░": 1132,
      "▒": 1133,
      "■": 1134,
      "□": 1135,
      "▪": 1136,
      "▲": 1137,
      "△": 1138,
      "▸": 1139,
      "►": 1140,
      "▼": 1141,
      "◆": 1142,
      "◇": 1143,
      "◈": 1144,
      "◊": 1145,
      "○": 1146,
      "◎": 1147,
      "●": 1148,
      "◙": 1149,
      "◦": 1150,
      "★": 1151,
      "☆": 1152,
      "☎": 1153,
      "☏": 1154,
      "☑": 1155,
      "☯": 1156,
      "☺": 1157,
      "☻": 1158,
      "☼": 1159,
      "♀": 1160,
      "♂": 1161,
      "♠": 1162,
      "♣": 1163,
      "♥": 1164,
      "♦": 1165,
      "♪": 1166,
      "♫": 1167,
      "✿": 1168,
      "➔": 1169,
      "➚": 1170,
      "➟": 1171,
      "➲": 1172,
      "ⰶ": 1173,
      "ⲉ": 1174,
      "ⲟ": 1175,
      "ⲡ": 1176,
      "ⲣ": 1177,
      "ⲩ": 1178,
      "、": 1179,
      "。": 1180,
      "々": 1181,
      "《": 1182,
      "》": 1183,
      "「": 1184,
      "」": 1185,
      "『": 1186,
      "』": 1187,
      "【": 1188,
      "】": 1189,
      "〔": 1190,
      "〕": 1191,
      "〜": 1192,
      "ぁ": 1193,
      "あ": 1194,
      "ぃ": 1195,
      "い": 1196,
      "う": 1197,
      "ぇ": 1198,
      "え": 1199,
      "お": 1200,
      "か": 1201,
      "が": 1202,
      "き": 1203,
      "ぎ": 1204,
      "く": 1205,
      "ぐ": 1206,
      "け": 1207,
      "げ": 1208,
      "こ": 1209,
      "ご": 1210,
      "さ": 1211,
      "ざ": 1212,
      "し": 1213,
      "じ": 1214,
      "す": 1215,
      "ず": 1216,
      "せ": 1217,
      "ぜ": 1218,
      "そ": 1219,
      "ぞ": 1220,
      "た": 1221,
      "だ": 1222,
      "ち": 1223,
      "ぢ": 1224,
      "っ": 1225,
      "つ": 1226,
      "づ": 1227,
      "て": 1228,
      "で": 1229,
      "と": 1230,
      "ど": 1231,
      "な": 1232,
      "に": 1233,
      "ぬ": 1234,
      "ね": 1235,
      "の": 1236,
      "は": 1237,
      "ば": 1238,
      "ひ": 1239,
      "び": 1240,
      "ふ": 1241,
      "ぶ": 1242,
      "ぷ": 1243,
      "へ": 1244,
      "べ": 1245,
      "ほ": 1246,
      "ぼ": 1247,
      "ま": 1248,
      "み": 1249,
      "む": 1250,
      "め": 1251,
      "も": 1252,
      "ゃ": 1253,
      "や": 1254,
      "ゅ": 1255,
      "ゆ": 1256,
      "ょ": 1257,
      "よ": 1258,
      "ら": 1259,
      "り": 1260,
      "る": 1261,
      "れ": 1262,
      "ろ": 1263,
      "わ": 1264,
      "ゐ": 1265,
      "ゑ": 1266,
      "を": 1267,
      "ん": 1268,
      "ゔ": 1269,
      "゛": 1270,
      "゜": 1271,
      "ァ": 1272,
      "ア": 1273,
      "ィ": 1274,
      "イ": 1275,
      "ゥ": 1276,
      "ウ": 1277,
      "ェ": 1278,
      "エ": 1279,
      "ォ": 1280,
      "オ": 1281,
      "カ": 1282,
      "ガ": 1283,
      "キ": 1284,
      "ギ": 1285,
      "ク": 1286,
      "グ": 1287,
      "ケ": 1288,
      "ゲ": 1289,
      "コ": 1290,
      "ゴ": 1291,
      "サ": 1292,
      "ザ": 1293,
      "シ": 1294,
      "ジ": 1295,
      "ス": 1296,
      "ズ": 1297,
      "セ": 1298,
      "ゼ": 1299,
      "ソ": 1300,
      "ゾ": 1301,
      "タ": 1302,
      "ダ": 1303,
      "チ": 1304,
      "ッ": 1305,
      "ツ": 1306,
      "テ": 1307,
      "デ": 1308,
      "ト": 1309,
      "ド": 1310,
      "ナ": 1311,
      "ニ": 1312,
      "ヌ": 1313,
      "ネ": 1314,
      "ノ": 1315,
      "ハ": 1316,
      "バ": 1317,
      "パ": 1318,
      "ヒ": 1319,
      "ビ": 1320,
      "ピ": 1321,
      "フ": 1322,
      "ブ": 1323,
      "プ": 1324,
      "ヘ": 1325,
      "ベ": 1326,
      "ペ": 1327,
      "ホ": 1328,
      "ボ": 1329,
      "ポ": 1330,
      "マ": 1331,
      "ミ": 1332,
      "ム": 1333,
      "メ": 1334,
      "モ": 1335,
      "ャ": 1336,
      "ヤ": 1337,
      "ュ": 1338,
      "ユ": 1339,
      "ョ": 1340,
      "ヨ": 1341,
      "ラ": 1342,
      "リ": 1343,
      "ル": 1344,
      "レ": 1345,
      "ロ": 1346,
      "ワ": 1347,
      "ン": 1348,
      "ヴ": 1349,
      "・": 1350,
      "ー": 1351,
      "ㄅ": 1352,
      "ㄆ": 1353,
      "ㄇ": 1354,
      "ㄈ": 1355,
      "ㄤ": 1356,
      "ㄧ": 1357,
      "ㅓ": 1358,
      "ㅔ": 1359,
      "ㅕ": 1360,
      "ㅖ": 1361,
      "ㅡ": 1362,
      "ㅣ": 1363,
      "㎡": 1364,
      "䟩": 1365,
      "一": 1366,
      "七": 1367,
      "万": 1368,
      "丈": 1369,
      "三": 1370,
      "上": 1371,
      "下": 1372,
      "不": 1373,
      "与": 1374,
      "专": 1375,
      "世": 1376,
      "丘": 1377,
      "业": 1378,
      "东": 1379,
      "两": 1380,
      "严": 1381,
      "丨": 1382,
      "个": 1383,
      "中": 1384,
      "丰": 1385,
      "临": 1386,
      "丸": 1387,
      "丹": 1388,
      "为": 1389,
      "主": 1390,
      "丼": 1391,
      "丽": 1392,
      "举": 1393,
      "久": 1394,
      "么": 1395,
      "义": 1396,
      "之": 1397,
      "乌": 1398,
      "乎": 1399,
      "乏": 1400,
      "乐": 1401,
      "乗": 1402,
      "乘": 1403,
      "乙": 1404,
      "九": 1405,
      "也": 1406,
      "习": 1407,
      "乡": 1408,
      "书": 1409,
      "买": 1410,
      "乱": 1411,
      "乾": 1412,
      "了": 1413,
      "争": 1414,
      "事": 1415,
      "二": 1416,
      "于": 1417,
      "云": 1418,
      "互": 1419,
      "五": 1420,
      "井": 1421,
      "亚": 1422,
      "些": 1423,
      "亜": 1424,
      "亞": 1425,
      "交": 1426,
      "产": 1427,
      "亨": 1428,
      "京": 1429,
      "人": 1430,
      "亿": 1431,
      "什": 1432,
      "仁": 1433,
      "仅": 1434,
      "今": 1435,
      "介": 1436,
      "仍": 1437,
      "从": 1438,
      "他": 1439,
      "付": 1440,
      "仙": 1441,
      "仝": 1442,
      "代": 1443,
      "以": 1444,
      "仪": 1445,
      "们": 1446,
      "仮": 1447,
      "仲": 1448,
      "件": 1449,
      "价": 1450,
      "任": 1451,
      "伊": 1452,
      "伎": 1453,
      "伏": 1454,
      "伐": 1455,
      "休": 1456,
      "众": 1457,
      "优": 1458,
      "会": 1459,
      "伝": 1460,
      "伟": 1461,
      "传": 1462,
      "伦": 1463,
      "伯": 1464,
      "估": 1465,
      "伴": 1466,
      "伸": 1467,
      "似": 1468,
      "但": 1469,
      "位": 1470,
      "低": 1471,
      "住": 1472,
      "佐": 1473,
      "佑": 1474,
      "体": 1475,
      "何": 1476,
      "佗": 1477,
      "余": 1478,
      "作": 1479,
      "你": 1480,
      "佰": 1481,
      "使": 1482,
      "例": 1483,
      "侍": 1484,
      "供": 1485,
      "依": 1486,
      "便": 1487,
      "俄": 1488,
      "俊": 1489,
      "保": 1490,
      "信": 1491,
      "修": 1492,
      "倉": 1493,
      "個": 1494,
      "倍": 1495,
      "倒": 1496,
      "候": 1497,
      "值": 1498,
      "假": 1499,
      "做": 1500,
      "健": 1501,
      "側": 1502,
      "備": 1503,
      "储": 1504,
      "傳": 1505,
      "傷": 1506,
      "働": 1507,
      "像": 1508,
      "僕": 1509,
      "儀": 1510,
      "儉": 1511,
      "元": 1512,
      "先": 1513,
      "光": 1514,
      "克": 1515,
      "免": 1516,
      "入": 1517,
      "內": 1518,
      "全": 1519,
      "兩": 1520,
      "八": 1521,
      "公": 1522,
      "六": 1523,
      "兰": 1524,
      "共": 1525,
      "关": 1526,
      "兴": 1527,
      "兵": 1528,
      "其": 1529,
      "具": 1530,
      "养": 1531,
      "兽": 1532,
      "内": 1533,
      "円": 1534,
      "冊": 1535,
      "册": 1536,
      "再": 1537,
      "写": 1538,
      "军": 1539,
      "农": 1540,
      "冤": 1541,
      "冰": 1542,
      "决": 1543,
      "况": 1544,
      "冷": 1545,
      "净": 1546,
      "凄": 1547,
      "准": 1548,
      "凉": 1549,
      "凍": 1550,
      "减": 1551,
      "几": 1552,
      "凶": 1553,
      "凸": 1554,
      "出": 1555,
      "函": 1556,
      "刀": 1557,
      "分": 1558,
      "切": 1559,
      "刑": 1560,
      "列": 1561,
      "刘": 1562,
      "则": 1563,
      "刚": 1564,
      "创": 1565,
      "判": 1566,
      "別": 1567,
      "刨": 1568,
      "利": 1569,
      "别": 1570,
      "到": 1571,
      "制": 1572,
      "刺": 1573,
      "則": 1574,
      "前": 1575,
      "剑": 1576,
      "剣": 1577,
      "剥": 1578,
      "剧": 1579,
      "剩": 1580,
      "副": 1581,
      "割": 1582,
      "創": 1583,
      "劇": 1584,
      "劉": 1585,
      "力": 1586,
      "功": 1587,
      "加": 1588,
      "务": 1589,
      "动": 1590,
      "助": 1591,
      "努": 1592,
      "劳": 1593,
      "势": 1594,
      "動": 1595,
      "勝": 1596,
      "勞": 1597,
      "勢": 1598,
      "勧": 1599,
      "勿": 1600,
      "包": 1601,
      "化": 1602,
      "北": 1603,
      "匠": 1604,
      "匡": 1605,
      "匹": 1606,
      "区": 1607,
      "医": 1608,
      "匿": 1609,
      "區": 1610,
      "十": 1611,
      "千": 1612,
      "升": 1613,
      "半": 1614,
      "卍": 1615,
      "华": 1616,
      "协": 1617,
      "卐": 1618,
      "卓": 1619,
      "单": 1620,
      "卖": 1621,
      "南": 1622,
      "博": 1623,
      "卡": 1624,
      "卦": 1625,
      "卫": 1626,
      "印": 1627,
      "危": 1628,
      "即": 1629,
      "却": 1630,
      "厂": 1631,
      "原": 1632,
      "去": 1633,
      "县": 1634,
      "参": 1635,
      "參": 1636,
      "及": 1637,
      "友": 1638,
      "双": 1639,
      "反": 1640,
      "发": 1641,
      "取": 1642,
      "受": 1643,
      "变": 1644,
      "叡": 1645,
      "口": 1646,
      "古": 1647,
      "另": 1648,
      "只": 1649,
      "叫": 1650,
      "召": 1651,
      "可": 1652,
      "台": 1653,
      "史": 1654,
      "右": 1655,
      "号": 1656,
      "司": 1657,
      "吃": 1658,
      "各": 1659,
      "合": 1660,
      "吉": 1661,
      "吊": 1662,
      "同": 1663,
      "名": 1664,
      "后": 1665,
      "向": 1666,
      "吗": 1667,
      "君": 1668,
      "否": 1669,
      "吧": 1670,
      "吨": 1671,
      "含": 1672,
      "听": 1673,
      "吳": 1674,
      "吴": 1675,
      "吸": 1676,
      "吹": 1677,
      "吾": 1678,
      "呀": 1679,
      "呂": 1680,
      "呆": 1681,
      "呉": 1682,
      "告": 1683,
      "呑": 1684,
      "员": 1685,
      "周": 1686,
      "味": 1687,
      "呼": 1688,
      "命": 1689,
      "咆": 1690,
      "和": 1691,
      "咬": 1692,
      "品": 1693,
      "哈": 1694,
      "响": 1695,
      "員": 1696,
      "哥": 1697,
      "哮": 1698,
      "哲": 1699,
      "唐": 1700,
      "售": 1701,
      "唸": 1702,
      "商": 1703,
      "問": 1704,
      "啤": 1705,
      "啦": 1706,
      "喀": 1707,
      "喂": 1708,
      "善": 1709,
      "喇": 1710,
      "喜": 1711,
      "喫": 1712,
      "嗣": 1713,
      "嘉": 1714,
      "嘛": 1715,
      "嘟": 1716,
      "噌": 1717,
      "噛": 1718,
      "器": 1719,
      "嚴": 1720,
      "四": 1721,
      "回": 1722,
      "因": 1723,
      "団": 1724,
      "囧": 1725,
      "园": 1726,
      "困": 1727,
      "固": 1728,
      "国": 1729,
      "图": 1730,
      "圆": 1731,
      "國": 1732,
      "圍": 1733,
      "圏": 1734,
      "園": 1735,
      "圓": 1736,
      "圖": 1737,
      "土": 1738,
      "在": 1739,
      "地": 1740,
      "圳": 1741,
      "场": 1742,
      "址": 1743,
      "坂": 1744,
      "均": 1745,
      "坊": 1746,
      "坐": 1747,
      "块": 1748,
      "坛": 1749,
      "坝": 1750,
      "坡": 1751,
      "坤": 1752,
      "坪": 1753,
      "型": 1754,
      "垣": 1755,
      "城": 1756,
      "埔": 1757,
      "域": 1758,
      "基": 1759,
      "堂": 1760,
      "堆": 1761,
      "堤": 1762,
      "堰": 1763,
      "報": 1764,
      "場": 1765,
      "塊": 1766,
      "塔": 1767,
      "塗": 1768,
      "塞": 1769,
      "塩": 1770,
      "塾": 1771,
      "増": 1772,
      "增": 1773,
      "墟": 1774,
      "墩": 1775,
      "壊": 1776,
      "士": 1777,
      "壮": 1778,
      "売": 1779,
      "壳": 1780,
      "壹": 1781,
      "壽": 1782,
      "处": 1783,
      "备": 1784,
      "変": 1785,
      "复": 1786,
      "夏": 1787,
      "夕": 1788,
      "外": 1789,
      "多": 1790,
      "夛": 1791,
      "夜": 1792,
      "够": 1793,
      "夢": 1794,
      "大": 1795,
      "天": 1796,
      "太": 1797,
      "夫": 1798,
      "央": 1799,
      "头": 1800,
      "夷": 1801,
      "夹": 1802,
      "奄": 1803,
      "奇": 1804,
      "奈": 1805,
      "奉": 1806,
      "套": 1807,
      "奘": 1808,
      "奚": 1809,
      "奥": 1810,
      "女": 1811,
      "奶": 1812,
      "奸": 1813,
      "好": 1814,
      "如": 1815,
      "妖": 1816,
      "妤": 1817,
      "妨": 1818,
      "妻": 1819,
      "姆": 1820,
      "始": 1821,
      "委": 1822,
      "姦": 1823,
      "威": 1824,
      "娃": 1825,
      "娄": 1826,
      "娜": 1827,
      "娣": 1828,
      "娥": 1829,
      "娱": 1830,
      "婁": 1831,
      "婦": 1832,
      "婷": 1833,
      "媛": 1834,
      "嫌": 1835,
      "子": 1836,
      "字": 1837,
      "存": 1838,
      "季": 1839,
      "学": 1840,
      "孴": 1841,
      "學": 1842,
      "宁": 1843,
      "它": 1844,
      "宇": 1845,
      "安": 1846,
      "宋": 1847,
      "完": 1848,
      "宏": 1849,
      "宗": 1850,
      "官": 1851,
      "定": 1852,
      "宜": 1853,
      "宝": 1854,
      "实": 1855,
      "実": 1856,
      "客": 1857,
      "宣": 1858,
      "室": 1859,
      "宫": 1860,
      "宮": 1861,
      "宰": 1862,
      "家": 1863,
      "容": 1864,
      "宿": 1865,
      "寄": 1866,
      "密": 1867,
      "富": 1868,
      "寤": 1869,
      "實": 1870,
      "寧": 1871,
      "寨": 1872,
      "寳": 1873,
      "寶": 1874,
      "寸": 1875,
      "对": 1876,
      "寺": 1877,
      "寻": 1878,
      "寿": 1879,
      "専": 1880,
      "将": 1881,
      "小": 1882,
      "少": 1883,
      "尔": 1884,
      "尘": 1885,
      "就": 1886,
      "尽": 1887,
      "尾": 1888,
      "尿": 1889,
      "局": 1890,
      "屄": 1891,
      "居": 1892,
      "屈": 1893,
      "届": 1894,
      "屋": 1895,
      "屏": 1896,
      "展": 1897,
      "属": 1898,
      "屯": 1899,
      "山": 1900,
      "屿": 1901,
      "岐": 1902,
      "岗": 1903,
      "岛": 1904,
      "岡": 1905,
      "岩": 1906,
      "岭": 1907,
      "岳": 1908,
      "岷": 1909,
      "岸": 1910,
      "島": 1911,
      "峻": 1912,
      "峽": 1913,
      "崎": 1914,
      "崔": 1915,
      "崖": 1916,
      "崩": 1917,
      "嵥": 1918,
      "嶺": 1919,
      "嶼": 1920,
      "川": 1921,
      "州": 1922,
      "工": 1923,
      "左": 1924,
      "巧": 1925,
      "巨": 1926,
      "差": 1927,
      "己": 1928,
      "已": 1929,
      "巴": 1930,
      "巻": 1931,
      "市": 1932,
      "布": 1933,
      "师": 1934,
      "希": 1935,
      "帝": 1936,
      "帥": 1937,
      "带": 1938,
      "師": 1939,
      "席": 1940,
      "帯": 1941,
      "常": 1942,
      "幌": 1943,
      "幡": 1944,
      "幣": 1945,
      "干": 1946,
      "平": 1947,
      "年": 1948,
      "并": 1949,
      "幸": 1950,
      "幹": 1951,
      "幾": 1952,
      "广": 1953,
      "庁": 1954,
      "広": 1955,
      "庄": 1956,
      "庆": 1957,
      "序": 1958,
      "库": 1959,
      "应": 1960,
      "底": 1961,
      "店": 1962,
      "庚": 1963,
      "府": 1964,
      "废": 1965,
      "度": 1966,
      "座": 1967,
      "庫": 1968,
      "庭": 1969,
      "康": 1970,
      "廃": 1971,
      "廣": 1972,
      "建": 1973,
      "开": 1974,
      "弁": 1975,
      "异": 1976,
      "弄": 1977,
      "式": 1978,
      "弓": 1979,
      "弔": 1980,
      "引": 1981,
      "张": 1982,
      "弦": 1983,
      "張": 1984,
      "强": 1985,
      "当": 1986,
      "形": 1987,
      "彩": 1988,
      "彭": 1989,
      "彰": 1990,
      "影": 1991,
      "役": 1992,
      "彻": 1993,
      "彼": 1994,
      "征": 1995,
      "待": 1996,
      "很": 1997,
      "律": 1998,
      "後": 1999,
      "徐": 2000,
      "徒": 2001,
      "得": 2002,
      "御": 2003,
      "復": 2004,
      "循": 2005,
      "微": 2006,
      "徳": 2007,
      "德": 2008,
      "徹": 2009,
      "徽": 2010,
      "心": 2011,
      "必": 2012,
      "忆": 2013,
      "忍": 2014,
      "志": 2015,
      "忘": 2016,
      "応": 2017,
      "忠": 2018,
      "快": 2019,
      "念": 2020,
      "忻": 2021,
      "忽": 2022,
      "态": 2023,
      "怒": 2024,
      "思": 2025,
      "怡": 2026,
      "急": 2027,
      "性": 2028,
      "怪": 2029,
      "总": 2030,
      "恋": 2031,
      "恢": 2032,
      "恩": 2033,
      "息": 2034,
      "恵": 2035,
      "悟": 2036,
      "悠": 2037,
      "患": 2038,
      "您": 2039,
      "悩": 2040,
      "悪": 2041,
      "悬": 2042,
      "情": 2043,
      "惑": 2044,
      "惠": 2045,
      "惧": 2046,
      "惯": 2047,
      "想": 2048,
      "意": 2049,
      "愛": 2050,
      "感": 2051,
      "慈": 2052,
      "態": 2053,
      "慎": 2054,
      "慢": 2055,
      "慣": 2056,
      "慶": 2057,
      "憎": 2058,
      "憨": 2059,
      "憩": 2060,
      "憶": 2061,
      "憾": 2062,
      "應": 2063,
      "成": 2064,
      "我": 2065,
      "戒": 2066,
      "或": 2067,
      "战": 2068,
      "截": 2069,
      "戴": 2070,
      "戶": 2071,
      "户": 2072,
      "戸": 2073,
      "戻": 2074,
      "房": 2075,
      "所": 2076,
      "扈": 2077,
      "手": 2078,
      "才": 2079,
      "打": 2080,
      "払": 2081,
      "找": 2082,
      "承": 2083,
      "技": 2084,
      "投": 2085,
      "抗": 2086,
      "折": 2087,
      "抜": 2088,
      "护": 2089,
      "报": 2090,
      "抵": 2091,
      "抹": 2092,
      "押": 2093,
      "担": 2094,
      "拉": 2095,
      "拒": 2096,
      "拓": 2097,
      "招": 2098,
      "拟": 2099,
      "择": 2100,
      "括": 2101,
      "拳": 2102,
      "拼": 2103,
      "拿": 2104,
      "持": 2105,
      "挂": 2106,
      "指": 2107,
      "按": 2108,
      "挑": 2109,
      "挠": 2110,
      "挡": 2111,
      "振": 2112,
      "损": 2113,
      "据": 2114,
      "捷": 2115,
      "掉": 2116,
      "排": 2117,
      "掛": 2118,
      "採": 2119,
      "探": 2120,
      "接": 2121,
      "控": 2122,
      "推": 2123,
      "措": 2124,
      "掻": 2125,
      "揂": 2126,
      "揃": 2127,
      "提": 2128,
      "揚": 2129,
      "換": 2130,
      "握": 2131,
      "援": 2132,
      "搅": 2133,
      "損": 2134,
      "搜": 2135,
      "搞": 2136,
      "携": 2137,
      "摂": 2138,
      "摆": 2139,
      "摇": 2140,
      "摩": 2141,
      "撒": 2142,
      "撤": 2143,
      "撫": 2144,
      "播": 2145,
      "撮": 2146,
      "操": 2147,
      "支": 2148,
      "收": 2149,
      "改": 2150,
      "攻": 2151,
      "放": 2152,
      "政": 2153,
      "故": 2154,
      "效": 2155,
      "敏": 2156,
      "救": 2157,
      "教": 2158,
      "散": 2159,
      "敦": 2160,
      "敬": 2161,
      "数": 2162,
      "整": 2163,
      "文": 2164,
      "斗": 2165,
      "料": 2166,
      "斯": 2167,
      "新": 2168,
      "方": 2169,
      "施": 2170,
      "旅": 2171,
      "旋": 2172,
      "族": 2173,
      "无": 2174,
      "日": 2175,
      "旧": 2176,
      "旨": 2177,
      "旭": 2178,
      "旱": 2179,
      "时": 2180,
      "昇": 2181,
      "昌": 2182,
      "明": 2183,
      "易": 2184,
      "星": 2185,
      "映": 2186,
      "春": 2187,
      "昭": 2188,
      "是": 2189,
      "显": 2190,
      "時": 2191,
      "晏": 2192,
      "晨": 2193,
      "普": 2194,
      "景": 2195,
      "智": 2196,
      "暂": 2197,
      "暨": 2198,
      "暫": 2199,
      "暴": 2200,
      "曌": 2201,
      "曝": 2202,
      "更": 2203,
      "書": 2204,
      "曹": 2205,
      "曾": 2206,
      "最": 2207,
      "會": 2208,
      "月": 2209,
      "有": 2210,
      "服": 2211,
      "朔": 2212,
      "朗": 2213,
      "望": 2214,
      "朝": 2215,
      "期": 2216,
      "木": 2217,
      "未": 2218,
      "末": 2219,
      "本": 2220,
      "札": 2221,
      "术": 2222,
      "朱": 2223,
      "机": 2224,
      "杂": 2225,
      "李": 2226,
      "杏": 2227,
      "材": 2228,
      "村": 2229,
      "束": 2230,
      "条": 2231,
      "来": 2232,
      "杨": 2233,
      "杭": 2234,
      "東": 2235,
      "松": 2236,
      "板": 2237,
      "极": 2238,
      "构": 2239,
      "析": 2240,
      "林": 2241,
      "枚": 2242,
      "果": 2243,
      "枡": 2244,
      "枫": 2245,
      "架": 2246,
      "某": 2247,
      "染": 2248,
      "柔": 2249,
      "查": 2250,
      "柱": 2251,
      "柴": 2252,
      "标": 2253,
      "树": 2254,
      "校": 2255,
      "株": 2256,
      "样": 2257,
      "核": 2258,
      "根": 2259,
      "格": 2260,
      "栽": 2261,
      "桂": 2262,
      "桃": 2263,
      "框": 2264,
      "案": 2265,
      "桓": 2266,
      "桜": 2267,
      "桥": 2268,
      "桩": 2269,
      "桶": 2270,
      "梁": 2271,
      "梅": 2272,
      "梨": 2273,
      "械": 2274,
      "检": 2275,
      "棒": 2276,
      "森": 2277,
      "棲": 2278,
      "椅": 2279,
      "植": 2280,
      "検": 2281,
      "楠": 2282,
      "業": 2283,
      "極": 2284,
      "楼": 2285,
      "楽": 2286,
      "樓": 2287,
      "標": 2288,
      "模": 2289,
      "横": 2290,
      "樱": 2291,
      "樹": 2292,
      "橋": 2293,
      "機": 2294,
      "橿": 2295,
      "檀": 2296,
      "次": 2297,
      "欢": 2298,
      "欧": 2299,
      "款": 2300,
      "歌": 2301,
      "止": 2302,
      "正": 2303,
      "此": 2304,
      "步": 2305,
      "武": 2306,
      "歩": 2307,
      "歳": 2308,
      "歸": 2309,
      "死": 2310,
      "殊": 2311,
      "段": 2312,
      "殷": 2313,
      "殻": 2314,
      "殿": 2315,
      "毁": 2316,
      "母": 2317,
      "毎": 2318,
      "每": 2319,
      "毓": 2320,
      "比": 2321,
      "毛": 2322,
      "氏": 2323,
      "民": 2324,
      "气": 2325,
      "気": 2326,
      "氣": 2327,
      "氧": 2328,
      "氮": 2329,
      "水": 2330,
      "氷": 2331,
      "永": 2332,
      "汁": 2333,
      "求": 2334,
      "汇": 2335,
      "汉": 2336,
      "汕": 2337,
      "江": 2338,
      "池": 2339,
      "汤": 2340,
      "汴": 2341,
      "決": 2342,
      "沈": 2343,
      "沌": 2344,
      "沙": 2345,
      "沛": 2346,
      "没": 2347,
      "沢": 2348,
      "沪": 2349,
      "沱": 2350,
      "河": 2351,
      "油": 2352,
      "治": 2353,
      "沿": 2354,
      "況": 2355,
      "泄": 2356,
      "泉": 2357,
      "泊": 2358,
      "法": 2359,
      "波": 2360,
      "泥": 2361,
      "注": 2362,
      "泰": 2363,
      "泽": 2364,
      "洁": 2365,
      "洋": 2366,
      "洒": 2367,
      "洗": 2368,
      "洛": 2369,
      "洞": 2370,
      "洪": 2371,
      "洲": 2372,
      "活": 2373,
      "派": 2374,
      "流": 2375,
      "浄": 2376,
      "测": 2377,
      "济": 2378,
      "浙": 2379,
      "浜": 2380,
      "浦": 2381,
      "浮": 2382,
      "浴": 2383,
      "海": 2384,
      "涂": 2385,
      "消": 2386,
      "涌": 2387,
      "涩": 2388,
      "淡": 2389,
      "淫": 2390,
      "深": 2391,
      "混": 2392,
      "淹": 2393,
      "清": 2394,
      "済": 2395,
      "渋": 2396,
      "渐": 2397,
      "減": 2398,
      "渝": 2399,
      "渡": 2400,
      "温": 2401,
      "港": 2402,
      "渲": 2403,
      "渴": 2404,
      "游": 2405,
      "湄": 2406,
      "湖": 2407,
      "湘": 2408,
      "湯": 2409,
      "湾": 2410,
      "満": 2411,
      "溉": 2412,
      "源": 2413,
      "溜": 2414,
      "溝": 2415,
      "溢": 2416,
      "溥": 2417,
      "溪": 2418,
      "溫": 2419,
      "溯": 2420,
      "溶": 2421,
      "滇": 2422,
      "滞": 2423,
      "滨": 2424,
      "滬": 2425,
      "漢": 2426,
      "漫": 2427,
      "潜": 2428,
      "潟": 2429,
      "潢": 2430,
      "潭": 2431,
      "潮": 2432,
      "澄": 2433,
      "澎": 2434,
      "澤": 2435,
      "澳": 2436,
      "激": 2437,
      "濟": 2438,
      "濱": 2439,
      "灌": 2440,
      "灣": 2441,
      "火": 2442,
      "灯": 2443,
      "灰": 2444,
      "灾": 2445,
      "炎": 2446,
      "炯": 2447,
      "点": 2448,
      "為": 2449,
      "烈": 2450,
      "烏": 2451,
      "烦": 2452,
      "烧": 2453,
      "热": 2454,
      "無": 2455,
      "焦": 2456,
      "然": 2457,
      "焼": 2458,
      "煙": 2459,
      "照": 2460,
      "煩": 2461,
      "煮": 2462,
      "熊": 2463,
      "熟": 2464,
      "熨": 2465,
      "熱": 2466,
      "燃": 2467,
      "燕": 2468,
      "燗": 2469,
      "爆": 2470,
      "爛": 2471,
      "爪": 2472,
      "爱": 2473,
      "父": 2474,
      "爻": 2475,
      "爾": 2476,
      "片": 2477,
      "版": 2478,
      "牌": 2479,
      "牙": 2480,
      "牛": 2481,
      "物": 2482,
      "特": 2483,
      "状": 2484,
      "狐": 2485,
      "狗": 2486,
      "独": 2487,
      "狭": 2488,
      "猛": 2489,
      "猪": 2490,
      "献": 2491,
      "獄": 2492,
      "獲": 2493,
      "玄": 2494,
      "率": 2495,
      "玉": 2496,
      "王": 2497,
      "环": 2498,
      "现": 2499,
      "玲": 2500,
      "珈": 2501,
      "珍": 2502,
      "珠": 2503,
      "班": 2504,
      "球": 2505,
      "理": 2506,
      "琢": 2507,
      "琲": 2508,
      "瑠": 2509,
      "瑩": 2510,
      "璃": 2511,
      "璐": 2512,
      "環": 2513,
      "瓊": 2514,
      "瓶": 2515,
      "甜": 2516,
      "生": 2517,
      "用": 2518,
      "田": 2519,
      "由": 2520,
      "甲": 2521,
      "申": 2522,
      "电": 2523,
      "男": 2524,
      "甸": 2525,
      "町": 2526,
      "画": 2527,
      "界": 2528,
      "留": 2529,
      "畢": 2530,
      "略": 2531,
      "番": 2532,
      "畿": 2533,
      "疆": 2534,
      "疏": 2535,
      "疑": 2536,
      "疗": 2537,
      "疫": 2538,
      "病": 2539,
      "痛": 2540,
      "痴": 2541,
      "瘤": 2542,
      "癌": 2543,
      "癪": 2544,
      "発": 2545,
      "登": 2546,
      "白": 2547,
      "百": 2548,
      "的": 2549,
      "皇": 2550,
      "皮": 2551,
      "盆": 2552,
      "益": 2553,
      "盐": 2554,
      "监": 2555,
      "盖": 2556,
      "盗": 2557,
      "盛": 2558,
      "監": 2559,
      "盧": 2560,
      "目": 2561,
      "直": 2562,
      "相": 2563,
      "省": 2564,
      "看": 2565,
      "県": 2566,
      "真": 2567,
      "眩": 2568,
      "眼": 2569,
      "着": 2570,
      "睛": 2571,
      "睦": 2572,
      "瞎": 2573,
      "瞳": 2574,
      "瞻": 2575,
      "矢": 2576,
      "知": 2577,
      "短": 2578,
      "石": 2579,
      "矿": 2580,
      "码": 2581,
      "砂": 2582,
      "砕": 2583,
      "破": 2584,
      "硝": 2585,
      "硬": 2586,
      "确": 2587,
      "碁": 2588,
      "碍": 2589,
      "碧": 2590,
      "碳": 2591,
      "確": 2592,
      "磁": 2593,
      "磨": 2594,
      "磷": 2595,
      "礱": 2596,
      "示": 2597,
      "礼": 2598,
      "社": 2599,
      "祖": 2600,
      "祝": 2601,
      "神": 2602,
      "票": 2603,
      "祭": 2604,
      "祸": 2605,
      "祿": 2606,
      "禁": 2607,
      "禅": 2608,
      "福": 2609,
      "禪": 2610,
      "禹": 2611,
      "禽": 2612,
      "秀": 2613,
      "私": 2614,
      "秉": 2615,
      "秋": 2616,
      "种": 2617,
      "科": 2618,
      "租": 2619,
      "秦": 2620,
      "积": 2621,
      "称": 2622,
      "移": 2623,
      "稀": 2624,
      "稅": 2625,
      "程": 2626,
      "税": 2627,
      "稱": 2628,
      "稲": 2629,
      "稳": 2630,
      "稻": 2631,
      "稼": 2632,
      "稿": 2633,
      "穷": 2634,
      "空": 2635,
      "立": 2636,
      "站": 2637,
      "竜": 2638,
      "竞": 2639,
      "章": 2640,
      "端": 2641,
      "競": 2642,
      "竹": 2643,
      "笠": 2644,
      "第": 2645,
      "筆": 2646,
      "等": 2647,
      "筑": 2648,
      "答": 2649,
      "策": 2650,
      "签": 2651,
      "简": 2652,
      "箍": 2653,
      "箕": 2654,
      "管": 2655,
      "箱": 2656,
      "節": 2657,
      "篇": 2658,
      "簡": 2659,
      "米": 2660,
      "类": 2661,
      "粉": 2662,
      "粤": 2663,
      "粮": 2664,
      "粵": 2665,
      "精": 2666,
      "糖": 2667,
      "糸": 2668,
      "系": 2669,
      "紀": 2670,
      "紂": 2671,
      "紅": 2672,
      "紋": 2673,
      "納": 2674,
      "純": 2675,
      "紙": 2676,
      "級": 2677,
      "素": 2678,
      "索": 2679,
      "紧": 2680,
      "細": 2681,
      "紹": 2682,
      "終": 2683,
      "経": 2684,
      "結": 2685,
      "絞": 2686,
      "統": 2687,
      "經": 2688,
      "継": 2689,
      "続": 2690,
      "網": 2691,
      "綺": 2692,
      "総": 2693,
      "線": 2694,
      "縣": 2695,
      "縮": 2696,
      "繁": 2697,
      "織": 2698,
      "红": 2699,
      "约": 2700,
      "级": 2701,
      "纪": 2702,
      "纷": 2703,
      "纸": 2704,
      "纹": 2705,
      "纽": 2706,
      "线": 2707,
      "组": 2708,
      "细": 2709,
      "终": 2710,
      "绍": 2711,
      "经": 2712,
      "绝": 2713,
      "绞": 2714,
      "统": 2715,
      "绪": 2716,
      "续": 2717,
      "维": 2718,
      "缓": 2719,
      "缩": 2720,
      "缺": 2721,
      "网": 2722,
      "罗": 2723,
      "罪": 2724,
      "置": 2725,
      "署": 2726,
      "羅": 2727,
      "美": 2728,
      "群": 2729,
      "義": 2730,
      "羲": 2731,
      "羽": 2732,
      "翁": 2733,
      "習": 2734,
      "翠": 2735,
      "翻": 2736,
      "翼": 2737,
      "耀": 2738,
      "老": 2739,
      "考": 2740,
      "者": 2741,
      "而": 2742,
      "耐": 2743,
      "耕": 2744,
      "耳": 2745,
      "耶": 2746,
      "耸": 2747,
      "联": 2748,
      "聖": 2749,
      "聞": 2750,
      "聼": 2751,
      "肉": 2752,
      "股": 2753,
      "肥": 2754,
      "育": 2755,
      "胁": 2756,
      "背": 2757,
      "胖": 2758,
      "胜": 2759,
      "胞": 2760,
      "胡": 2761,
      "能": 2762,
      "脑": 2763,
      "脖": 2764,
      "脚": 2765,
      "脱": 2766,
      "腔": 2767,
      "腕": 2768,
      "腰": 2769,
      "腹": 2770,
      "腺": 2771,
      "膚": 2772,
      "臂": 2773,
      "臈": 2774,
      "臓": 2775,
      "臘": 2776,
      "臣": 2777,
      "臧": 2778,
      "臨": 2779,
      "自": 2780,
      "至": 2781,
      "致": 2782,
      "臺": 2783,
      "舁": 2784,
      "舅": 2785,
      "興": 2786,
      "舊": 2787,
      "舍": 2788,
      "舐": 2789,
      "舖": 2790,
      "舞": 2791,
      "舣": 2792,
      "舩": 2793,
      "航": 2794,
      "舫": 2795,
      "般": 2796,
      "艮": 2797,
      "良": 2798,
      "色": 2799,
      "艳": 2800,
      "节": 2801,
      "芋": 2802,
      "芝": 2803,
      "芦": 2804,
      "花": 2805,
      "苏": 2806,
      "苑": 2807,
      "若": 2808,
      "英": 2809,
      "茂": 2810,
      "茜": 2811,
      "茨": 2812,
      "茶": 2813,
      "草": 2814,
      "荣": 2815,
      "荷": 2816,
      "莉": 2817,
      "莞": 2818,
      "莨": 2819,
      "莲": 2820,
      "获": 2821,
      "莹": 2822,
      "菜": 2823,
      "菩": 2824,
      "華": 2825,
      "菱": 2826,
      "萄": 2827,
      "营": 2828,
      "萧": 2829,
      "萬": 2830,
      "落": 2831,
      "葉": 2832,
      "著": 2833,
      "葡": 2834,
      "董": 2835,
      "蒋": 2836,
      "蒸": 2837,
      "蓋": 2838,
      "蓟": 2839,
      "蓮": 2840,
      "蔓": 2841,
      "蔚": 2842,
      "蔣": 2843,
      "蕭": 2844,
      "蕴": 2845,
      "薇": 2846,
      "薊": 2847,
      "薔": 2848,
      "薬": 2849,
      "薯": 2850,
      "藍": 2851,
      "藏": 2852,
      "藕": 2853,
      "藤": 2854,
      "蘇": 2855,
      "虑": 2856,
      "號": 2857,
      "虫": 2858,
      "蛋": 2859,
      "蜀": 2860,
      "蝦": 2861,
      "融": 2862,
      "螨": 2863,
      "螳": 2864,
      "螺": 2865,
      "蟲": 2866,
      "血": 2867,
      "衆": 2868,
      "行": 2869,
      "術": 2870,
      "街": 2871,
      "衡": 2872,
      "衣": 2873,
      "表": 2874,
      "裂": 2875,
      "装": 2876,
      "裕": 2877,
      "製": 2878,
      "西": 2879,
      "要": 2880,
      "見": 2881,
      "視": 2882,
      "覧": 2883,
      "親": 2884,
      "観": 2885,
      "覺": 2886,
      "见": 2887,
      "观": 2888,
      "视": 2889,
      "觉": 2890,
      "角": 2891,
      "解": 2892,
      "触": 2893,
      "言": 2894,
      "訃": 2895,
      "訊": 2896,
      "討": 2897,
      "訓": 2898,
      "記": 2899,
      "設": 2900,
      "許": 2901,
      "訳": 2902,
      "詠": 2903,
      "試": 2904,
      "詩": 2905,
      "詰": 2906,
      "話": 2907,
      "詳": 2908,
      "詹": 2909,
      "誓": 2910,
      "語": 2911,
      "說": 2912,
      "説": 2913,
      "読": 2914,
      "調": 2915,
      "談": 2916,
      "請": 2917,
      "論": 2918,
      "諸": 2919,
      "謑": 2920,
      "證": 2921,
      "警": 2922,
      "譯": 2923,
      "護": 2924,
      "讃": 2925,
      "變": 2926,
      "计": 2927,
      "讣": 2928,
      "认": 2929,
      "讨": 2930,
      "让": 2931,
      "议": 2932,
      "讯": 2933,
      "记": 2934,
      "讲": 2935,
      "许": 2936,
      "论": 2937,
      "讼": 2938,
      "设": 2939,
      "证": 2940,
      "评": 2941,
      "识": 2942,
      "诉": 2943,
      "译": 2944,
      "试": 2945,
      "诘": 2946,
      "话": 2947,
      "该": 2948,
      "详": 2949,
      "语": 2950,
      "说": 2951,
      "请": 2952,
      "诺": 2953,
      "课": 2954,
      "调": 2955,
      "谈": 2956,
      "谋": 2957,
      "谢": 2958,
      "谷": 2959,
      "豆": 2960,
      "豊": 2961,
      "豐": 2962,
      "豫": 2963,
      "貌": 2964,
      "負": 2965,
      "財": 2966,
      "貢": 2967,
      "販": 2968,
      "貮": 2969,
      "貰": 2970,
      "貴": 2971,
      "貸": 2972,
      "費": 2973,
      "賀": 2974,
      "資": 2975,
      "賈": 2976,
      "賢": 2977,
      "贊": 2978,
      "贞": 2979,
      "负": 2980,
      "贡": 2981,
      "贤": 2982,
      "货": 2983,
      "质": 2984,
      "贫": 2985,
      "购": 2986,
      "贱": 2987,
      "贳": 2988,
      "贷": 2989,
      "贸": 2990,
      "费": 2991,
      "资": 2992,
      "赌": 2993,
      "赖": 2994,
      "赛": 2995,
      "赞": 2996,
      "赤": 2997,
      "赵": 2998,
      "赶": 2999,
      "起": 3000,
      "超": 3001,
      "越": 3002,
      "趋": 3003,
      "趙": 3004,
      "足": 3005,
      "跆": 3006,
      "跋": 3007,
      "跟": 3008,
      "跨": 3009,
      "路": 3010,
      "跳": 3011,
      "踌": 3012,
      "蹟": 3013,
      "躇": 3014,
      "躊": 3015,
      "躍": 3016,
      "身": 3017,
      "車": 3018,
      "軍": 3019,
      "転": 3020,
      "較": 3021,
      "載": 3022,
      "輪": 3023,
      "车": 3024,
      "转": 3025,
      "轮": 3026,
      "轻": 3027,
      "载": 3028,
      "较": 3029,
      "辑": 3030,
      "辛": 3031,
      "辞": 3032,
      "辭": 3033,
      "辱": 3034,
      "農": 3035,
      "込": 3036,
      "达": 3037,
      "迅": 3038,
      "过": 3039,
      "迎": 3040,
      "运": 3041,
      "近": 3042,
      "返": 3043,
      "还": 3044,
      "这": 3045,
      "进": 3046,
      "远": 3047,
      "连": 3048,
      "迫": 3049,
      "述": 3050,
      "迷": 3051,
      "追": 3052,
      "送": 3053,
      "适": 3054,
      "逃": 3055,
      "逆": 3056,
      "选": 3057,
      "透": 3058,
      "途": 3059,
      "通": 3060,
      "速": 3061,
      "造": 3062,
      "逢": 3063,
      "連": 3064,
      "逸": 3065,
      "遇": 3066,
      "遊": 3067,
      "運": 3068,
      "過": 3069,
      "道": 3070,
      "達": 3071,
      "遗": 3072,
      "遝": 3073,
      "遠": 3074,
      "遣": 3075,
      "適": 3076,
      "遪": 3077,
      "遭": 3078,
      "遲": 3079,
      "遷": 3080,
      "遽": 3081,
      "避": 3082,
      "還": 3083,
      "邊": 3084,
      "邑": 3085,
      "那": 3086,
      "邱": 3087,
      "郎": 3088,
      "郑": 3089,
      "郝": 3090,
      "郡": 3091,
      "部": 3092,
      "郷": 3093,
      "都": 3094,
      "鄂": 3095,
      "鄉": 3096,
      "鄭": 3097,
      "酉": 3098,
      "配": 3099,
      "酎": 3100,
      "酒": 3101,
      "酸": 3102,
      "采": 3103,
      "釉": 3104,
      "里": 3105,
      "重": 3106,
      "野": 3107,
      "量": 3108,
      "金": 3109,
      "釣": 3110,
      "鈍": 3111,
      "鈴": 3112,
      "鉄": 3113,
      "鉋": 3114,
      "銀": 3115,
      "銭": 3116,
      "鋍": 3117,
      "鋑": 3118,
      "鋒": 3119,
      "鋓": 3120,
      "鋖": 3121,
      "鋘": 3122,
      "鋜": 3123,
      "鋝": 3124,
      "鋞": 3125,
      "鋟": 3126,
      "録": 3127,
      "鍋": 3128,
      "鎚": 3129,
      "鏡": 3130,
      "鐵": 3131,
      "针": 3132,
      "钓": 3133,
      "钟": 3134,
      "钢": 3135,
      "钦": 3136,
      "钧": 3137,
      "钱": 3138,
      "铁": 3139,
      "铃": 3140,
      "铭": 3141,
      "银": 3142,
      "链": 3143,
      "销": 3144,
      "锈": 3145,
      "锋": 3146,
      "错": 3147,
      "锦": 3148,
      "键": 3149,
      "镜": 3150,
      "長": 3151,
      "长": 3152,
      "門": 3153,
      "開": 3154,
      "間": 3155,
      "関": 3156,
      "閣": 3157,
      "閥": 3158,
      "閩": 3159,
      "關": 3160,
      "门": 3161,
      "问": 3162,
      "间": 3163,
      "闵": 3164,
      "闻": 3165,
      "闽": 3166,
      "阜": 3167,
      "队": 3168,
      "阪": 3169,
      "防": 3170,
      "阳": 3171,
      "阶": 3172,
      "阻": 3173,
      "阿": 3174,
      "陀": 3175,
      "际": 3176,
      "陈": 3177,
      "降": 3178,
      "限": 3179,
      "院": 3180,
      "除": 3181,
      "险": 3182,
      "陰": 3183,
      "陳": 3184,
      "陵": 3185,
      "陶": 3186,
      "陽": 3187,
      "隆": 3188,
      "隊": 3189,
      "階": 3190,
      "際": 3191,
      "障": 3192,
      "难": 3193,
      "雄": 3194,
      "雅": 3195,
      "集": 3196,
      "雙": 3197,
      "雛": 3198,
      "離": 3199,
      "難": 3200,
      "雨": 3201,
      "雪": 3202,
      "雲": 3203,
      "雷": 3204,
      "電": 3205,
      "需": 3206,
      "霊": 3207,
      "霖": 3208,
      "霜": 3209,
      "露": 3210,
      "青": 3211,
      "静": 3212,
      "非": 3213,
      "靠": 3214,
      "面": 3215,
      "革": 3216,
      "靳": 3217,
      "韓": 3218,
      "音": 3219,
      "韻": 3220,
      "頂": 3221,
      "項": 3222,
      "順": 3223,
      "須": 3224,
      "頑": 3225,
      "領": 3226,
      "頭": 3227,
      "題": 3228,
      "顗": 3229,
      "顯": 3230,
      "页": 3231,
      "顶": 3232,
      "顷": 3233,
      "须": 3234,
      "顾": 3235,
      "预": 3236,
      "颐": 3237,
      "颖": 3238,
      "题": 3239,
      "颜": 3240,
      "额": 3241,
      "風": 3242,
      "风": 3243,
      "飛": 3244,
      "飞": 3245,
      "食": 3246,
      "飯": 3247,
      "飲": 3248,
      "飼": 3249,
      "館": 3250,
      "饮": 3251,
      "饲": 3252,
      "馆": 3253,
      "首": 3254,
      "香": 3255,
      "馬": 3256,
      "駄": 3257,
      "駅": 3258,
      "験": 3259,
      "騙": 3260,
      "騜": 3261,
      "驗": 3262,
      "马": 3263,
      "验": 3264,
      "骨": 3265,
      "髄": 3266,
      "體": 3267,
      "高": 3268,
      "鬼": 3269,
      "魔": 3270,
      "鮨": 3271,
      "鮮": 3272,
      "鯨": 3273,
      "鰀": 3274,
      "鰃": 3275,
      "鰄": 3276,
      "鰈": 3277,
      "鰊": 3278,
      "鰎": 3279,
      "鱲": 3280,
      "鱼": 3281,
      "鲁": 3282,
      "鲞": 3283,
      "鳩": 3284,
      "鳳": 3285,
      "鴻": 3286,
      "鵜": 3287,
      "鷹": 3288,
      "鸡": 3289,
      "鸭": 3290,
      "鸯": 3291,
      "鸳": 3292,
      "鹅": 3293,
      "鹈": 3294,
      "鹤": 3295,
      "鹿": 3296,
      "麗": 3297,
      "麩": 3298,
      "麺": 3299,
      "黃": 3300,
      "黄": 3301,
      "黎": 3302,
      "黒": 3303,
      "黚": 3304,
      "點": 3305,
      "黡": 3306,
      "黨": 3307,
      "黮": 3308,
      "黵": 3309,
      "黷": 3310,
      "鼻": 3311,
      "齋": 3312,
      "齡": 3313,
      "龍": 3314,
      "龙": 3315,
      "ꭰ": 3316,
      "ꭲ": 3317,
      "ꮊ": 3318,
      "검": 3319,
      "겜": 3320,
      "경": 3321,
      "계": 3322,
      "고": 3323,
      "곡": 3324,
      "구": 3325,
      "국": 3326,
      "군": 3327,
      "권": 3328,
      "글": 3329,
      "김": 3330,
      "뀌": 3331,
      "나": 3332,
      "널": 3333,
      "녀": 3334,
      "년": 3335,
      "노": 3336,
      "누": 3337,
      "는": 3338,
      "니": 3339,
      "닌": 3340,
      "님": 3341,
      "다": 3342,
      "단": 3343,
      "당": 3344,
      "대": 3345,
      "도": 3346,
      "돌": 3347,
      "동": 3348,
      "드": 3349,
      "디": 3350,
      "딘": 3351,
      "딩": 3352,
      "라": 3353,
      "레": 3354,
      "려": 3355,
      "령": 3356,
      "로": 3357,
      "루": 3358,
      "류": 3359,
      "르": 3360,
      "린": 3361,
      "마": 3362,
      "막": 3363,
      "맨": 3364,
      "면": 3365,
      "목": 3366,
      "무": 3367,
      "문": 3368,
      "미": 3369,
      "바": 3370,
      "박": 3371,
      "반": 3372,
      "백": 3373,
      "뱅": 3374,
      "번": 3375,
      "벌": 3376,
      "법": 3377,
      "베": 3378,
      "변": 3379,
      "별": 3380,
      "보": 3381,
      "블": 3382,
      "비": 3383,
      "빅": 3384,
      "빌": 3385,
      "빛": 3386,
      "사": 3387,
      "산": 3388,
      "서": 3389,
      "선": 3390,
      "성": 3391,
      "세": 3392,
      "셀": 3393,
      "셔": 3394,
      "셜": 3395,
      "소": 3396,
      "수": 3397,
      "스": 3398,
      "습": 3399,
      "승": 3400,
      "시": 3401,
      "신": 3402,
      "싱": 3403,
      "아": 3404,
      "알": 3405,
      "압": 3406,
      "야": 3407,
      "양": 3408,
      "어": 3409,
      "었": 3410,
      "에": 3411,
      "엘": 3412,
      "엠": 3413,
      "영": 3414,
      "오": 3415,
      "왕": 3416,
      "요": 3417,
      "울": 3418,
      "웅": 3419,
      "워": 3420,
      "월": 3421,
      "웨": 3422,
      "위": 3423,
      "유": 3424,
      "율": 3425,
      "으": 3426,
      "을": 3427,
      "읍": 3428,
      "이": 3429,
      "인": 3430,
      "일": 3431,
      "자": 3432,
      "작": 3433,
      "적": 3434,
      "전": 3435,
      "정": 3436,
      "제": 3437,
      "조": 3438,
      "존": 3439,
      "종": 3440,
      "주": 3441,
      "지": 3442,
      "짝": 3443,
      "창": 3444,
      "천": 3445,
      "체": 3446,
      "추": 3447,
      "충": 3448,
      "층": 3449,
      "치": 3450,
      "클": 3451,
      "키": 3452,
      "킨": 3453,
      "태": 3454,
      "터": 3455,
      "턴": 3456,
      "톨": 3457,
      "퇴": 3458,
      "트": 3459,
      "티": 3460,
      "퍼": 3461,
      "폐": 3462,
      "피": 3463,
      "한": 3464,
      "향": 3465,
      "호": 3466,
      "환": 3467,
      "회": 3468,
      "훈": 3469,
      "": 3470,
      "": 3471,
      "": 3472,
      "": 3473,
      "": 3474,
      "": 3475,
      "": 3476,
      "": 3477,
      "": 3478,
      "": 3479,
      "": 3480,
      "": 3481,
      "": 3482,
      "": 3483,
      "": 3484,
      "": 3485,
      "": 3486,
      "": 3487,
      "": 3488,
      "": 3489,
      "": 3490,
      "": 3491,
      "": 3492,
      "": 3493,
      "": 3494,
      "": 3495,
      "": 3496,
      "": 3497,
      "金": 3498,
      "ﬁ": 3499,
      "ﬂ": 3500,
      "ﷲ": 3501,
      "︰": 3502,
      "ﺍ": 3503,
      "ﺏ": 3504,
      "ﺤ": 3505,
      "ﺩ": 3506,
      "ﻁ": 3507,
      "ﻙ": 3508,
      "ﻫ": 3509,
      "﻿": 3510,
      "！": 3511,
      "＄": 3512,
      "（": 3513,
      "）": 3514,
      "＊": 3515,
      "，": 3516,
      "－": 3517,
      "．": 3518,
      "１": 3519,
      "２": 3520,
      "７": 3521,
      "９": 3522,
      "：": 3523,
      "；": 3524,
      "？": 3525,
      "［": 3526,
      "］": 3527,
      "ｂ": 3528,
      "ｄ": 3529,
      "ｅ": 3530,
      "ｈ": 3531,
      "ｉ": 3532,
      "ｌ": 3533,
      "ｏ": 3534,
      "ｐ": 3535,
      "ｓ": 3536,
      "ｔ": 3537,
      "ｕ": 3538,
      "ｖ": 3539,
      "､": 3540,
      "･": 3541,
      "ｫ": 3542,
      "ｲ": 3543,
      "ｻ": 3544,
      "ｿ": 3545,
      "ﾜ": 3546,
      "ﾟ": 3547,
      "￠": 3548,
      "￡": 3549,
      "￥": 3550,
      "￼": 3551,
      "�": 3552,
      "𐌰": 3553,
      "𐌴": 3554,
      "𐌸": 3555,
      "𐌼": 3556,
      "𐌽": 3557,
      "𐍃": 3558,
      "𐍉": 3559,
      "𠐄": 3560,
      "𢥲": 3561,
      "𧵮": 3562,
      "𲠄": 3563,
      "𲠤": 3564,
      "򮬩": 3565,
      "򮮥": 3566,
      "򲤥": 3567,
      "򲵮": 3568,
      "򴩧": 3569,
      "en": 3570,
      "er": 3571,
      "in": 3572,
      "ch": 3573,
      "th": 3574,
      "an": 3575,
      "es": 3576,
      "on": 3577,
      "un": 3578,
      "is": 3579,
      "it": 3580,
      "at": 3581,
      "the": 3582,
      "re": 3583,
      "ie": 3584,
      "al": 3585,
      "or": 3586,
      "st": 3587,
      "ar": 3588,
      "der": 3589,
      "ich": 3590,
      "as": 3591,
      "ion": 3592,
      "le": 3593,
      "ro": 3594,
      "be": 3595,
      "te": 3596,
      "au": 3597,
      "and": 3598,
      "ge": 3599,
      "ein": 3600,
      "of": 3601,
      "de": 3602,
      "ent": 3603,
      "to": 3604,
      "ur": 3605,
      "die": 3606,
      "und": 3607,
      "ung": 3608,
      "ing": 3609,
      "wi": 3610,
      "se": 3611,
      "om": 3612,
      "ver": 3613,
      "den": 3614,
      "ig": 3615,
      "we": 3616,
      "ll": 3617,
      "ic": 3618,
      "am": 3619,
      "sch": 3620,
      "im": 3621,
      "ter": 3622,
      "zu": 3623,
      "ed": 3624,
      "for": 3625,
      "ab": 3626,
      "ou": 3627,
      "ten": 3628,
      "il": 3629,
      "ol": 3630,
      "ation": 3631,
      "di": 3632,
      "ra": 3633,
      "ber": 3634,
      "ve": 3635,
      "pro": 3636,
      "ne": 3637,
      "ist": 3638,
      "hr": 3639,
      "ct": 3640,
      "gen": 3641,
      "das": 3642,
      "lich": 3643,
      "um": 3644,
      "pe": 3645,
      "so": 3646,
      "em": 3647,
      "no": 3648,
      "all": 3649,
      "eu": 3650,
      "fü": 3651,
      "mit": 3652,
      "ke": 3653,
      "ut": 3654,
      "isch": 3655,
      "wir": 3656,
      "us": 3657,
      "icht": 3658,
      "com": 3659,
      "auf": 3660,
      "con": 3661,
      "pr": 3662,
      "ier": 3663,
      "that": 3664,
      "wh": 3665,
      "ce": 3666,
      "est": 3667,
      "lo": 3668,
      "ma": 3669,
      "la": 3670,
      "wer": 3671,
      "aus": 3672,
      "von": 3673,
      "are": 3674,
      "des": 3675,
      "ly": 3676,
      "men": 3677,
      "mo": 3678,
      "me": 3679,
      "he": 3680,
      "ess": 3681,
      "ir": 3682,
      "ad": 3683,
      "par": 3684,
      "co": 3685,
      "für": 3686,
      "ach": 3687,
      "su": 3688,
      "dies": 3689,
      "ho": 3690,
      "gr": 3691,
      "id": 3692,
      "ul": 3693,
      "with": 3694,
      "po": 3695,
      "ts": 3696,
      "euro": 3697,
      "eine": 3698,
      "tr": 3699,
      "sie": 3700,
      "ck": 3701,
      "ges": 3702,
      "af": 3703,
      "if": 3704,
      "ere": 3705,
      "kt": 3706,
      "ind": 3707,
      "per": 3708,
      "ta": 3709,
      "ort": 3710,
      "ment": 3711,
      "this": 3712,
      "our": 3713,
      "sp": 3714,
      "ha": 3715,
      "ste": 3716,
      "qu": 3717,
      "da": 3718,
      "ate": 3719,
      "ze": 3720,
      "ex": 3721,
      "vor": 3722,
      "ld": 3723,
      "dem": 3724,
      "sen": 3725,
      "li": 3726,
      "her": 3727,
      "ben": 3728,
      "ungen": 3729,
      "über": 3730,
      "nen": 3731,
      "sich": 3732,
      "00": 3733,
      "ischen": 3734,
      "fe": 3735,
      "tz": 3736,
      "ser": 3737,
      "not": 3738,
      "ant": 3739,
      "str": 3740,
      "iv": 3741,
      "man": 3742,
      "fa": 3743,
      "nicht": 3744,
      "sion": 3745,
      "ive": 3746,
      "ity": 3747,
      "än": 3748,
      "ies": 3749,
      "by": 3750,
      "wor": 3751,
      "end": 3752,
      "kom": 3753,
      "do": 3754,
      "lie": 3755,
      "fer": 3756,
      "you": 3757,
      "auch": 3758,
      "mis": 3759,
      "was": 3760,
      "werden": 3761,
      "ib": 3762,
      "pa": 3763,
      "inter": 3764,
      "ger": 3765,
      "als": 3766,
      "fr": 3767,
      "op": 3768,
      "wie": 3769,
      "du": 3770,
      "dass": 3771,
      "have": 3772,
      "unter": 3773,
      "ht": 3774,
      "will": 3775,
      "igen": 3776,
      "tra": 3777,
      "tel": 3778,
      "ann": 3779,
      "ther": 3780,
      "ag": 3781,
      "res": 3782,
      "ap": 3783,
      "port": 3784,
      "rom": 3785,
      "ien": 3786,
      "sh": 3787,
      "its": 3788,
      "ial": 3789,
      "ah": 3790,
      "lt": 3791,
      "bes": 3792,
      "je": 3793,
      "ould": 3794,
      "sit": 3795,
      "ac": 3796,
      "pl": 3797,
      "br": 3798,
      "form": 3799,
      "fin": 3800,
      "which": 3801,
      "hal": 3802,
      "war": 3803,
      "from": 3804,
      "bo": 3805,
      "pol": 3806,
      "ust": 3807,
      "can": 3808,
      "ik": 3809,
      "europe": 3810,
      "ted": 3811,
      "wo": 3812,
      "up": 3813,
      "ungs": 3814,
      "bei": 3815,
      "go": 3816,
      "one": 3817,
      "reg": 3818,
      "mission": 3819,
      "fo": 3820,
      "hen": 3821,
      "schaf": 3822,
      "has": 3823,
      "out": 3824,
      "sind": 3825,
      "mer": 3826,
      "el": 3827,
      "et": 3828,
      "einer": 3829,
      "ident": 3830,
      "ay": 3831,
      "mar": 3832,
      "iel": 3833,
      "ions": 3834,
      "able": 3835,
      "part": 3836,
      "ih": 3837,
      "nach": 3838,
      "wird": 3839,
      "ip": 3840,
      "wen": 3841,
      "gan": 3842,
      "lu": 3843,
      "dr": 3844,
      "rech": 3845,
      "llen": 3846,
      "aben": 3847,
      "lin": 3848,
      "kon": 3849,
      "sam": 3850,
      "ön": 3851,
      "fen": 3852,
      "ure": 3853,
      "einen": 3854,
      "ans": 3855,
      "dur": 3856,
      "ische": 3857,
      "ide": 3858,
      "pres": 3859,
      "coun": 3860,
      "ür": 3861,
      "hat": 3862,
      "gro": 3863,
      "mö": 3864,
      "zur": 3865,
      "ft": 3866,
      "oder": 3867,
      "ken": 3868,
      "ise": 3869,
      "iz": 3870,
      "europ": 3871,
      "fre": 3872,
      "iten": 3873,
      "ill": 3874,
      "ern": 3875,
      "ange": 3876,
      "uns": 3877,
      "also": 3878,
      "200": 3879,
      "land": 3880,
      "ament": 3881,
      "min": 3882,
      "hren": 3883,
      "ia": 3884,
      "spe": 3885,
      "sy": 3886,
      "haben": 3887,
      "age": 3888,
      "hotel": 3889,
      "arbe": 3890,
      "ple": 3891,
      "stat": 3892,
      "sel": 3893,
      "european": 3894,
      "ally": 3895,
      "son": 3896,
      "there": 3897,
      "nation": 3898,
      "europä": 3899,
      "ass": 3900,
      "kön": 3901,
      "ard": 3902,
      "ction": 3903,
      "ige": 3904,
      "pre": 3905,
      "che": 3906,
      "lichen": 3907,
      "ice": 3908,
      "alle": 3909,
      "rat": 3910,
      "very": 3911,
      "art": 3912,
      "durch": 3913,
      "dern": 3914,
      "dar": 3915,
      "ations": 3916,
      "wä": 3917,
      "but": 3918,
      "gu": 3919,
      "produ": 3920,
      "vo": 3921,
      "ous": 3922,
      "uss": 3923,
      "ät": 3924,
      "tre": 3925,
      "chen": 3926,
      "ers": 3927,
      "ated": 3928,
      "bar": 3929,
      "sten": 3930,
      "weit": 3931,
      "ja": 3932,
      "dis": 3933,
      "inc": 3934,
      "ult": 3935,
      "king": 3936,
      "ob": 3937,
      "aten": 3938,
      "diese": 3939,
      "union": 3940,
      "your": 3941,
      "bere": 3942,
      "hand": 3943,
      "sta": 3944,
      "ieren": 3945,
      "national": 3946,
      "wn": 3947,
      "pla": 3948,
      "leg": 3949,
      "schaft": 3950,
      "ble": 3951,
      "hl": 3952,
      "tim": 3953,
      "ander": 3954,
      "ear": 3955,
      "ight": 3956,
      "wur": 3957,
      "kann": 3958,
      "einem": 3959,
      "polit": 3960,
      "bu": 3961,
      "ding": 3962,
      "iert": 3963,
      "äs": 3964,
      "19": 3965,
      "cess": 3966,
      "ue": 3967,
      "more": 3968,
      "ff": 3969,
      "bl": 3970,
      "od": 3971,
      "tet": 3972,
      "teil": 3973,
      "ish": 3974,
      "use": 3975,
      "mon": 3976,
      "herr": 3977,
      "keit": 3978,
      "stem": 3979,
      "other": 3980,
      "ner": 3981,
      "stand": 3982,
      "ang": 3983,
      "hin": 3984,
      "pt": 3985,
      "fra": 3986,
      "ün": 3987,
      "inst": 3988,
      "tro": 3989,
      "ical": 3990,
      "igh": 3991,
      "ank": 3992,
      "ite": 3993,
      "cht": 3994,
      "können": 3995,
      "hmen": 3996,
      "zeit": 3997,
      "ance": 3998,
      "mr": 3999,
      "new": 4000,
      "gesch": 4001,
      "wenn": 4002,
      "liche": 4003,
      "ome": 4004,
      "ign": 4005,
      "ko": 4006,
      "zum": 4007,
      "system": 4008,
      "commission": 4009,
      "work": 4010,
      "og": 4011,
      "geb": 4012,
      "ary": 4013,
      "kl": 4014,
      "ör": 4015,
      "sol": 4016,
      "är": 4017,
      "cent": 4018,
      "would": 4019,
      "gh": 4020,
      "sa": 4021,
      "their": 4022,
      "ember": 4023,
      "now": 4024,
      "serv": 4025,
      "ord": 4026,
      "gre": 4027,
      "ition": 4028,
      "ihre": 4029,
      "inform": 4030,
      "been": 4031,
      "pos": 4032,
      "fol": 4033,
      "cr": 4034,
      "ese": 4035,
      "gem": 4036,
      "heit": 4037,
      "vie": 4038,
      "ssen": 4039,
      "any": 4040,
      "ev": 4041,
      "cial": 4042,
      "nur": 4043,
      "ile": 4044,
      "imm": 4045,
      "gt": 4046,
      "glich": 4047,
      "ins": 4048,
      "ine": 4049,
      "net": 4050,
      "unser": 4051,
      "arbeit": 4052,
      "pu": 4053,
      "way": 4054,
      "they": 4055,
      "progr": 4056,
      "zen": 4057,
      "gel": 4058,
      "mehr": 4059,
      "dieser": 4060,
      "ak": 4061,
      "präs": 4062,
      "ück": 4063,
      "aber": 4064,
      "mat": 4065,
      "dam": 4066,
      "bet": 4067,
      "under": 4068,
      "prov": 4069,
      "ihr": 4070,
      "mü": 4071,
      "should": 4072,
      "ase": 4073,
      "fir": 4074,
      "kr": 4075,
      "member": 4076,
      "gegen": 4077,
      "who": 4078,
      "ph": 4079,
      "europäischen": 4080,
      "ast": 4081,
      "noch": 4082,
      "cre": 4083,
      "ian": 4084,
      "ents": 4085,
      "cl": 4086,
      "ty": 4087,
      "ution": 4088,
      "best": 4089,
      "ments": 4090,
      "tzt": 4091,
      "ong": 4092,
      "immer": 4093,
      "day": 4094,
      "kommission": 4095,
      "countr": 4096,
      "fl": 4097,
      "dire": 4098,
      "präsident": 4099,
      "ierung": 4100,
      "must": 4101,
      "schen": 4102,
      "like": 4103,
      "ces": 4104,
      "proble": 4105,
      "reich": 4106,
      "ktion": 4107,
      "nat": 4108,
      "ahl": 4109,
      "ded": 4110,
      "bil": 4111,
      "stell": 4112,
      "chn": 4113,
      "these": 4114,
      "act": 4115,
      "20": 4116,
      "program": 4117,
      "time": 4118,
      "fore": 4119,
      "nis": 4120,
      "daß": 4121,
      "sup": 4122,
      "only": 4123,
      "year": 4124,
      "por": 4125,
      "ds": 4126,
      "sein": 4127,
      "president": 4128,
      "soll": 4129,
      "ow": 4130,
      "cur": 4131,
      "änder": 4132,
      "gese": 4133,
      "ef": 4134,
      "ities": 4135,
      "sib": 4136,
      "ire": 4137,
      "get": 4138,
      "ba": 4139,
      "my": 4140,
      "zie": 4141,
      "zw": 4142,
      "some": 4143,
      "information": 4144,
      "wurde": 4145,
      "führ": 4146,
      "pen": 4147,
      "fu": 4148,
      "ßen": 4149,
      "ms": 4150,
      "utz": 4151,
      "techn": 4152,
      "bis": 4153,
      "mal": 4154,
      "cy": 4155,
      "glie": 4156,
      "vis": 4157,
      "lle": 4158,
      "about": 4159,
      "bas": 4160,
      "assen": 4161,
      "welt": 4162,
      "what": 4163,
      "chte": 4164,
      "kommen": 4165,
      "leich": 4166,
      "viel": 4167,
      "sehr": 4168,
      "sicher": 4169,
      "av": 4170,
      "hn": 4171,
      "10": 4172,
      "grund": 4173,
      "ame": 4174,
      "verb": 4175,
      "cts": 4176,
      "ok": 4177,
      "cil": 4178,
      "alt": 4179,
      "fall": 4180,
      "mitglie": 4181,
      "olog": 4182,
      "pf": 4183,
      "over": 4184,
      "international": 4185,
      "möglich": 4186,
      "int": 4187,
      "blic": 4188,
      "room": 4189,
      "sub": 4190,
      "richt": 4191,
      "ause": 4192,
      "weiter": 4193,
      "qual": 4194,
      "such": 4195,
      "posit": 4196,
      "entwi": 4197,
      "ci": 4198,
      "tain": 4199,
      "hier": 4200,
      "neu": 4201,
      "velo": 4202,
      "nehmen": 4203,
      "eng": 4204,
      "parl": 4205,
      "need": 4206,
      "finan": 4207,
      "wa": 4208,
      "ced": 4209,
      "stru": 4210,
      "müssen": 4211,
      "nah": 4212,
      "inv": 4213,
      "develo": 4214,
      "tt": 4215,
      "bal": 4216,
      "zwe": 4217,
      "parlament": 4218,
      "comp": 4219,
      "when": 4220,
      "off": 4221,
      "deut": 4222,
      "legen": 4223,
      "most": 4224,
      "si": 4225,
      "sho": 4226,
      "gemein": 4227,
      "just": 4228,
      "mun": 4229,
      "det": 4230,
      "xt": 4231,
      "rit": 4232,
      "ious": 4233,
      "med": 4234,
      "uch": 4235,
      "person": 4236,
      "ied": 4237,
      "many": 4238,
      "well": 4239,
      "liament": 4240,
      "parliament": 4241,
      "gar": 4242,
      "develop": 4243,
      "ors": 4244,
      "ele": 4245,
      "mus": 4246,
      "wel": 4247,
      "fä": 4248,
      "mittel": 4249,
      "ital": 4250,
      "wirt": 4251,
      "ket": 4252,
      "cor": 4253,
      "gest": 4254,
      "hol": 4255,
      "eines": 4256,
      "oper": 4257,
      "peop": 4258,
      "jahr": 4259,
      "ität": 4260,
      "sche": 4261,
      "ater": 4262,
      "zusam": 4263,
      "import": 4264,
      "rel": 4265,
      "ular": 4266,
      "ibt": 4267,
      "ctive": 4268,
      "zusammen": 4269,
      "diesem": 4270,
      "cle": 4271,
      "atz": 4272,
      "ks": 4273,
      "car": 4274,
      "iger": 4275,
      "fort": 4276,
      "states": 4277,
      "first": 4278,
      "igkeit": 4279,
      "people": 4280,
      "ster": 4281,
      "ures": 4282,
      "igt": 4283,
      "wicht": 4284,
      "organ": 4285,
      "staaten": 4286,
      "onder": 4287,
      "setz": 4288,
      "trans": 4289,
      "erg": 4290,
      "ific": 4291,
      "gleich": 4292,
      "besch": 4293,
      "dieses": 4294,
      "kte": 4295,
      "ose": 4296,
      "unden": 4297,
      "thing": 4298,
      "loc": 4299,
      "into": 4300,
      "halten": 4301,
      "cause": 4302,
      "come": 4303,
      "world": 4304,
      "rou": 4305,
      "schl": 4306,
      "were": 4307,
      "them": 4308,
      "iven": 4309,
      "geben": 4310,
      "ateg": 4311,
      "bus": 4312,
      "os": 4313,
      "view": 4314,
      "ual": 4315,
      "rest": 4316,
      "region": 4317,
      "ility": 4318,
      "col": 4319,
      "ices": 4320,
      "cour": 4321,
      "ßer": 4322,
      "äu": 4323,
      "ative": 4324,
      "lung": 4325,
      "his": 4326,
      "ru": 4327,
      "sed": 4328,
      "report": 4329,
      "ihnen": 4330,
      "dec": 4331,
      "sicht": 4332,
      "stü": 4333,
      "demo": 4334,
      "offer": 4335,
      "tell": 4336,
      "than": 4337,
      "mitglied": 4338,
      "möchte": 4339,
      "iden": 4340,
      "stellen": 4341,
      "lau": 4342,
      "ating": 4343,
      "jo": 4344,
      "frau": 4345,
      "les": 4346,
      "ens": 4347,
      "dition": 4348,
      "web": 4349,
      "bereich": 4350,
      "bie": 4351,
      "econ": 4352,
      "änd": 4353,
      "read": 4354,
      "pon": 4355,
      "bin": 4356,
      "vom": 4357,
      "econom": 4358,
      "cont": 4359,
      "bericht": 4360,
      "gs": 4361,
      "weise": 4362,
      "entr": 4363,
      "unsere": 4364,
      "isten": 4365,
      "polic": 4366,
      "fun": 4367,
      "gew": 4368,
      "lage": 4369,
      "dien": 4370,
      "order": 4371,
      "see": 4372,
      "hel": 4373,
      "schlie": 4374,
      "sk": 4375,
      "zahl": 4376,
      "ale": 4377,
      "zwischen": 4378,
      "here": 4379,
      "proje": 4380,
      "ga": 4381,
      "agre": 4382,
      "aga": 4383,
      "countries": 4384,
      "io": 4385,
      "währ": 4386,
      "red": 4387,
      "deb": 4388,
      "partic": 4389,
      "where": 4390,
      "besonder": 4391,
      "gener": 4392,
      "vers": 4393,
      "ustr": 4394,
      "emp": 4395,
      "ory": 4396,
      "gra": 4397,
      "bre": 4398,
      "sof": 4399,
      "forder": 4400,
      "nung": 4401,
      "situ": 4402,
      "tern": 4403,
      "pun": 4404,
      "entwick": 4405,
      "sin": 4406,
      "council": 4407,
      "ieden": 4408,
      "air": 4409,
      "menschen": 4410,
      "akt": 4411,
      "gibt": 4412,
      "inclu": 4413,
      "nor": 4414,
      "make": 4415,
      "quest": 4416,
      "ps": 4417,
      "leben": 4418,
      "dif": 4419,
      "tem": 4420,
      "real": 4421,
      "fam": 4422,
      "tur": 4423,
      "öff": 4424,
      "halb": 4425,
      "unterstü": 4426,
      "sowie": 4427,
      "sible": 4428,
      "take": 4429,
      "haus": 4430,
      "vel": 4431,
      "ca": 4432,
      "because": 4433,
      "after": 4434,
      "may": 4435,
      "tion": 4436,
      "important": 4437,
      "ware": 4438,
      "main": 4439,
      "stu": 4440,
      "hör": 4441,
      "char": 4442,
      "cer": 4443,
      "play": 4444,
      "high": 4445,
      "ween": 4446,
      "support": 4447,
      "group": 4448,
      "between": 4449,
      "fact": 4450,
      "wend": 4451,
      "star": 4452,
      "lar": 4453,
      "ler": 4454,
      "fest": 4455,
      "industr": 4456,
      "heu": 4457,
      "commun": 4458,
      "fahr": 4459,
      "line": 4460,
      "ights": 4461,
      "led": 4462,
      "pra": 4463,
      "wirk": 4464,
      "every": 4465,
      "tung": 4466,
      "vent": 4467,
      "energ": 4468,
      "ence": 4469,
      "amer": 4470,
      "vol": 4471,
      "fil": 4472,
      "ail": 4473,
      "two": 4474,
      "even": 4475,
      "ss": 4476,
      "versch": 4477,
      "good": 4478,
      "wieder": 4479,
      "europäische": 4480,
      "press": 4481,
      "vern": 4482,
      "ings": 4483,
      "wür": 4484,
      "ural": 4485,
      "recht": 4486,
      "igung": 4487,
      "service": 4488,
      "maß": 4489,
      "commit": 4490,
      "instit": 4491,
      "beg": 4492,
      "bau": 4493,
      "rough": 4494,
      "same": 4495,
      "made": 4496,
      "muss": 4497,
      "nä": 4498,
      "public": 4499,
      "num": 4500,
      "ihrer": 4501,
      "ister": 4502,
      "jed": 4503,
      "schla": 4504,
      "enz": 4505,
      "199": 4506,
      "reas": 4507,
      "then": 4508,
      "chin": 4509,
      "sum": 4510,
      "keine": 4511,
      "ziel": 4512,
      "wirtschaft": 4513,
      "dat": 4514,
      "europa": 4515,
      "market": 4516,
      "ker": 4517,
      "ting": 4518,
      "fur": 4519,
      "schließ": 4520,
      "site": 4521,
      "ful": 4522,
      "fach": 4523,
      "rei": 4524,
      "cted": 4525,
      "damit": 4526,
      "uni": 4527,
      "val": 4528,
      "through": 4529,
      "bel": 4530,
      "zeu": 4531,
      "zial": 4532,
      "que": 4533,
      "hä": 4534,
      "right": 4535,
      "nam": 4536,
      "zeich": 4537,
      "last": 4538,
      "far": 4539,
      "bst": 4540,
      "those": 4541,
      "ats": 4542,
      "finden": 4543,
      "dan": 4544,
      "policy": 4545,
      "na": 4546,
      "vir": 4547,
      "dann": 4548,
      "full": 4549,
      "hö": 4550,
      "eben": 4551,
      "ffic": 4552,
      "had": 4553,
      "hum": 4554,
      "wort": 4555,
      "how": 4556,
      "kle": 4557,
      "own": 4558,
      "text": 4559,
      "effe": 4560,
      "years": 4561,
      "sim": 4562,
      "beste": 4563,
      "anderen": 4564,
      "issu": 4565,
      "wohl": 4566,
      "plan": 4567,
      "del": 4568,
      "mitgliedstaaten": 4569,
      "clear": 4570,
      "bring": 4571,
      "tal": 4572,
      "wis": 4573,
      "ient": 4574,
      "cond": 4575,
      "ren": 4576,
      "ven": 4577,
      "politik": 4578,
      "sport": 4579,
      "zimmer": 4580,
      "frage": 4581,
      "respon": 4582,
      "verfü": 4583,
      "ives": 4584,
      "bit": 4585,
      "know": 4586,
      "fund": 4587,
      "lan": 4588,
      "cept": 4589,
      "wes": 4590,
      "priv": 4591,
      "strateg": 4592,
      "istr": 4593,
      "conc": 4594,
      "gung": 4595,
      "ving": 4596,
      "find": 4597,
      "ischer": 4598,
      "15": 4599,
      "ende": 4600,
      "unternehmen": 4601,
      "urs": 4602,
      "stad": 4603,
      "hau": 4604,
      "problem": 4605,
      "var": 4606,
      "clo": 4607,
      "being": 4608,
      "differ": 4609,
      "famil": 4610,
      "allen": 4611,
      "län": 4612,
      "voll": 4613,
      "auto": 4614,
      "groß": 4615,
      "itt": 4616,
      "ves": 4617,
      "kun": 4618,
      "inn": 4619,
      "ute": 4620,
      "keiten": 4621,
      "bed": 4622,
      "ited": 4623,
      "aller": 4624,
      "howe": 4625,
      "however": 4626,
      "sprech": 4627,
      "organis": 4628,
      "exper": 4629,
      "ement": 4630,
      "rent": 4631,
      "zentr": 4632,
      "schr": 4633,
      "ick": 4634,
      "brauch": 4635,
      "selbst": 4636,
      "weil": 4637,
      "govern": 4638,
      "sur": 4639,
      "pri": 4640,
      "place": 4641,
      "hne": 4642,
      "tee": 4643,
      "technolog": 4644,
      "kol": 4645,
      "belie": 4646,
      "prof": 4647,
      "soft": 4648,
      "alth": 4649,
      "trä": 4650,
      "less": 4651,
      "lö": 4652,
      "bür": 4653,
      "cke": 4654,
      "position": 4655,
      "stra": 4656,
      "diesen": 4657,
      "economic": 4658,
      "att": 4659,
      "present": 4660,
      "ständ": 4661,
      "city": 4662,
      "ict": 4663,
      "bur": 4664,
      "free": 4665,
      "stehen": 4666,
      "particular": 4667,
      "fahren": 4668,
      "ship": 4669,
      "human": 4670,
      "mill": 4671,
      "nahmen": 4672,
      "essen": 4673,
      "glo": 4674,
      "situation": 4675,
      "ausge": 4676,
      "ument": 4677,
      "bürger": 4678,
      "propos": 4679,
      "ys": 4680,
      "wert": 4681,
      "miss": 4682,
      "prote": 4683,
      "12": 4684,
      "mich": 4685,
      "fle": 4686,
      "tran": 4687,
      "och": 4688,
      "flu": 4689,
      "aut": 4690,
      "heute": 4691,
      "process": 4692,
      "area": 4693,
      "sc": 4694,
      "ved": 4695,
      "dy": 4696,
      "development": 4697,
      "invest": 4698,
      "wurden": 4699,
      "isen": 4700,
      "set": 4701,
      "rights": 4702,
      "seine": 4703,
      "aur": 4704,
      "iter": 4705,
      "innen": 4706,
      "sm": 4707,
      "stre": 4708,
      "dru": 4709,
      "used": 4710,
      "ough": 4711,
      "great": 4712,
      "put": 4713,
      "30": 4714,
      "sign": 4715,
      "unterstütz": 4716,
      "requ": 4717,
      "ihren": 4718,
      "ters": 4719,
      "possible": 4720,
      "therefore": 4721,
      "bild": 4722,
      "say": 4723,
      "markt": 4724,
      "sure": 4725,
      "seit": 4726,
      "down": 4727,
      "ium": 4728,
      "verein": 4729,
      "18": 4730,
      "indi": 4731,
      "iness": 4732,
      "arch": 4733,
      "point": 4734,
      "spra": 4735,
      "ouse": 4736,
      "unserer": 4737,
      "entlich": 4738,
      "mor": 4739,
      "open": 4740,
      "ink": 4741,
      "eigen": 4742,
      "comple": 4743,
      "nt": 4744,
      "spiel": 4745,
      "rechts": 4746,
      "chan": 4747,
      "grö": 4748,
      "daten": 4749,
      "lassen": 4750,
      "design": 4751,
      "back": 4752,
      "social": 4753,
      "stadt": 4754,
      "entwicklung": 4755,
      "standard": 4756,
      "spa": 4757,
      "programm": 4758,
      "tour": 4759,
      "jedoch": 4760,
      "aussch": 4761,
      "habe": 4762,
      "leist": 4763,
      "inte": 4764,
      "neue": 4765,
      "internet": 4766,
      "services": 4767,
      "wissen": 4768,
      "zer": 4769,
      "ju": 4770,
      "halt": 4771,
      "access": 4772,
      "ot": 4773,
      "wach": 4774,
      "cas": 4775,
      "sehen": 4776,
      "hist": 4777,
      "contin": 4778,
      "sondern": 4779,
      "bro": 4780,
      "000": 4781,
      "ates": 4782,
      "business": 4783,
      "sor": 4784,
      "letz": 4785,
      "change": 4786,
      "self": 4787,
      "pat": 4788,
      "50": 4789,
      "concern": 4790,
      "gehen": 4791,
      "har": 4792,
      "iti": 4793,
      "kur": 4794,
      "folgen": 4795,
      "ganz": 4796,
      "ply": 4797,
      "führen": 4798,
      "schafts": 4799,
      "ommen": 4800,
      "mil": 4801,
      "within": 4802,
      "operation": 4803,
      "plic": 4804,
      "ohne": 4805,
      "integr": 4806,
      "both": 4807,
      "tens": 4808,
      "could": 4809,
      "direct": 4810,
      "level": 4811,
      "does": 4812,
      "punkt": 4813,
      "oc": 4814,
      "political": 4815,
      "buil": 4816,
      "aum": 4817,
      "ris": 4818,
      "pal": 4819,
      "restaur": 4820,
      "itä": 4821,
      "pet": 4822,
      "want": 4823,
      "global": 4824,
      "handel": 4825,
      "betr": 4826,
      "ism": 4827,
      "number": 4828,
      "sozial": 4829,
      "entsche": 4830,
      "vi": 4831,
      "let": 4832,
      "gestell": 4833,
      "abl": 4834,
      "provide": 4835,
      "stellung": 4836,
      "hil": 4837,
      "power": 4838,
      "manage": 4839,
      "bereits": 4840,
      "bs": 4841,
      "wichtig": 4842,
      "appro": 4843,
      "house": 4844,
      "wal": 4845,
      "dra": 4846,
      "lis": 4847,
      "esser": 4848,
      "lif": 4849,
      "reichen": 4850,
      "sollte": 4851,
      "avail": 4852,
      "exam": 4853,
      "country": 4854,
      "ep": 4855,
      "schutz": 4856,
      "ready": 4857,
      "zwei": 4858,
      "much": 4859,
      "kre": 4860,
      "chten": 4861,
      "ics": 4862,
      "krat": 4863,
      "against": 4864,
      "inner": 4865,
      "key": 4866,
      "enth": 4867,
      "gang": 4868,
      "viele": 4869,
      "mt": 4870,
      "large": 4871,
      "ka": 4872,
      "llow": 4873,
      "nie": 4874,
      "macht": 4875,
      "ability": 4876,
      "kar": 4877,
      "dazu": 4878,
      "maßnahmen": 4879,
      "mu": 4880,
      "today": 4881,
      "ban": 4882,
      "loy": 4883,
      "still": 4884,
      "rooms": 4885,
      "andere": 4886,
      "ants": 4887,
      "druck": 4888,
      "vid": 4889,
      "unt": 4890,
      "without": 4891,
      "quality": 4892,
      "gesam": 4893,
      "neuen": 4894,
      "trag": 4895,
      "ätz": 4896,
      "gut": 4897,
      "partner": 4898,
      "thre": 4899,
      "cit": 4900,
      "long": 4901,
      "cust": 4902,
      "ierte": 4903,
      "low": 4904,
      "jahren": 4905,
      "utions": 4906,
      "führt": 4907,
      "begr": 4908,
      "fut": 4909,
      "denn": 4910,
      "bank": 4911,
      "regul": 4912,
      "sollten": 4913,
      "schrif": 4914,
      "ffen": 4915,
      "isp": 4916,
      "viron": 4917,
      "environ": 4918,
      "kosten": 4919,
      "contro": 4920,
      "old": 4921,
      "software": 4922,
      "van": 4923,
      "hän": 4924,
      "custom": 4925,
      "kes": 4926,
      "fast": 4927,
      "ade": 4928,
      "fragen": 4929,
      "antwort": 4930,
      "different": 4931,
      "ject": 4932,
      "spec": 4933,
      "ests": 4934,
      "cap": 4935,
      "sider": 4936,
      "machen": 4937,
      "date": 4938,
      "since": 4939,
      "liegt": 4940,
      "saf": 4941,
      "consider": 4942,
      "state": 4943,
      "denen": 4944,
      "ierten": 4945,
      "tag": 4946,
      "bestimm": 4947,
      "regard": 4948,
      "kehr": 4949,
      "meas": 4950,
      "pect": 4951,
      "turn": 4952,
      "une": 4953,
      "stimm": 4954,
      "11": 4955,
      "wind": 4956,
      "initi": 4957,
      "mir": 4958,
      "law": 4959,
      "hlen": 4960,
      "alen": 4961,
      "beisp": 4962,
      "doch": 4963,
      "länder": 4964,
      "before": 4965,
      "verschieden": 4966,
      "satz": 4967,
      "itions": 4968,
      "don": 4969,
      "isl": 4970,
      "committee": 4971,
      "jetzt": 4972,
      "außer": 4973,
      "rechte": 4974,
      "lon": 4975,
      "anz": 4976,
      "falls": 4977,
      "version": 4978,
      "sto": 4979,
      "offen": 4980,
      "los": 4981,
      "special": 4982,
      "kten": 4983,
      "pass": 4984,
      "rahmen": 4985,
      "environment": 4986,
      "treat": 4987,
      "during": 4988,
      "weg": 4989,
      "bud": 4990,
      "auth": 4991,
      "zug": 4992,
      "einige": 4993,
      "äch": 4994,
      "enter": 4995,
      "cus": 4996,
      "prü": 4997,
      "ness": 4998,
      "san": 4999,
      "ask": 5000,
      "licher": 5001,
      "available": 5002,
      "data": 5003,
      "äf": 5004,
      "regel": 5005,
      "ator": 5006,
      "finanz": 5007,
      "help": 5008,
      "redu": 5009,
      "current": 5010,
      "ways": 5011,
      "beit": 5012,
      "cho": 5013,
      "bietet": 5014,
      "kin": 5015,
      "frei": 5016,
      "einfach": 5017,
      "waren": 5018,
      "amend": 5019,
      "lang": 5020,
      "too": 5021,
      "lim": 5022,
      "meine": 5023,
      "schlag": 5024,
      "ists": 5025,
      "require": 5026,
      "proz": 5027,
      "bt": 5028,
      "bewer": 5029,
      "pur": 5030,
      "besondere": 5031,
      "certain": 5032,
      "während": 5033,
      "schrit": 5034,
      "ktur": 5035,
      "ctions": 5036,
      "setzen": 5037,
      "course": 5038,
      "geht": 5039,
      "russ": 5040,
      "erfol": 5041,
      "rich": 5042,
      "million": 5043,
      "employ": 5044,
      "inde": 5045,
      "gl": 5046,
      "mein": 5047,
      "ike": 5048,
      "öl": 5049,
      "bereit": 5050,
      "nun": 5051,
      "wahl": 5052,
      "ton": 5053,
      "mb": 5054,
      "future": 5055,
      "gent": 5056,
      "ländern": 5057,
      "secur": 5058,
      "genommen": 5059,
      "ti": 5060,
      "findet": 5061,
      "berich": 5062,
      "för": 5063,
      "schon": 5064,
      "further": 5065,
      "16": 5066,
      "äß": 5067,
      "kam": 5068,
      "thank": 5069,
      "already": 5070,
      "democ": 5071,
      "stär": 5072,
      "lös": 5073,
      "informationen": 5074,
      "terr": 5075,
      "demokrat": 5076,
      "iß": 5077,
      "products": 5078,
      "cing": 5079,
      "darauf": 5080,
      "lagen": 5081,
      "individ": 5082,
      "dig": 5083,
      "schne": 5084,
      "dafür": 5085,
      "kün": 5086,
      "ession": 5087,
      "believe": 5088,
      "rap": 5089,
      "decis": 5090,
      "beispiel": 5091,
      "iet": 5092,
      "seiner": 5093,
      "alten": 5094,
      "systems": 5095,
      "case": 5096,
      "fair": 5097,
      "seite": 5098,
      "jor": 5099,
      "question": 5100,
      "ec": 5101,
      "zo": 5102,
      "dienst": 5103,
      "legal": 5104,
      "ica": 5105,
      "minister": 5106,
      "modern": 5107,
      "zel": 5108,
      "gestellt": 5109,
      "think": 5110,
      "top": 5111,
      "sagen": 5112,
      "klär": 5113,
      "sou": 5114,
      "asse": 5115,
      "rag": 5116,
      "mater": 5117,
      "financial": 5118,
      "linie": 5119,
      "government": 5120,
      "ages": 5121,
      "each": 5122,
      "14": 5123,
      "small": 5124,
      "cult": 5125,
      "ix": 5126,
      "chil": 5127,
      "programme": 5128,
      "sing": 5129,
      "ersten": 5130,
      "grün": 5131,
      "instr": 5132,
      "pers": 5133,
      "institution": 5134,
      "sprechen": 5135,
      "suc": 5136,
      "haf": 5137,
      "äft": 5138,
      "ry": 5139,
      "community": 5140,
      "2009": 5141,
      "gesell": 5142,
      "tun": 5143,
      "sicherheit": 5144,
      "fig": 5145,
      "follow": 5146,
      "ience": 5147,
      "while": 5148,
      "omen": 5149,
      "pay": 5150,
      "equ": 5151,
      "imple": 5152,
      "nisse": 5153,
      "nov": 5154,
      "pp": 5155,
      "ically": 5156,
      "jah": 5157,
      "tele": 5158,
      "ug": 5159,
      "kunden": 5160,
      "grup": 5161,
      "17": 5162,
      "nte": 5163,
      "cannot": 5164,
      "beding": 5165,
      "colle": 5166,
      "uten": 5167,
      "abge": 5168,
      "kra": 5169,
      "anal": 5170,
      "zurück": 5171,
      "meet": 5172,
      "ime": 5173,
      "log": 5174,
      "daher": 5175,
      "defin": 5176,
      "pack": 5177,
      "start": 5178,
      "security": 5179,
      "refer": 5180,
      "kauf": 5181,
      "ctor": 5182,
      "agreement": 5183,
      "ationen": 5184,
      "common": 5185,
      "eas": 5186,
      "natür": 5187,
      "tes": 5188,
      "offers": 5189,
      "cam": 5190,
      "citiz": 5191,
      "frü": 5192,
      "arbeits": 5193,
      "stim": 5194,
      "alter": 5195,
      "action": 5196,
      "kult": 5197,
      "blick": 5198,
      "13": 5199,
      "allow": 5200,
      "management": 5201,
      "ished": 5202,
      "resol": 5203,
      "ismus": 5204,
      "fon": 5205,
      "dom": 5206,
      "general": 5207,
      "gemeinsam": 5208,
      "tradition": 5209,
      "ately": 5210,
      "bon": 5211,
      "arbeiten": 5212,
      "park": 5213,
      "liegen": 5214,
      "centr": 5215,
      "applic": 5216,
      "lossen": 5217,
      "cost": 5218,
      "show": 5219,
      "second": 5220,
      "funktion": 5221,
      "neh": 5222,
      "major": 5223,
      "members": 5224,
      "reason": 5225,
      "sal": 5226,
      "commissioner": 5227,
      "imin": 5228,
      "statt": 5229,
      "fully": 5230,
      "author": 5231,
      "call": 5232,
      "herrn": 5233,
      "dabei": 5234,
      "personal": 5235,
      "struct": 5236,
      "company": 5237,
      "vention": 5238,
      "transport": 5239,
      "klein": 5240,
      "hoch": 5241,
      "based": 5242,
      "mult": 5243,
      "kommiss": 5244,
      "necess": 5245,
      "bezie": 5246,
      "würde": 5247,
      "mot": 5248,
      "hof": 5249,
      "ually": 5250,
      "exp": 5251,
      "hig": 5252,
      "ward": 5253,
      "jahre": 5254,
      "name": 5255,
      "issue": 5256,
      "energy": 5257,
      "som": 5258,
      "span": 5259,
      "verkehr": 5260,
      "cken": 5261,
      "ordnung": 5262,
      "cell": 5263,
      "page": 5264,
      "ily": 5265,
      "dio": 5266,
      "life": 5267,
      "activ": 5268,
      "gn": 5269,
      "reform": 5270,
      "eig": 5271,
      "größ": 5272,
      "said": 5273,
      "stay": 5274,
      "bot": 5275,
      "allem": 5276,
      "train": 5277,
      "nahme": 5278,
      "pop": 5279,
      "heiten": 5280,
      "setzung": 5281,
      "including": 5282,
      "count": 5283,
      "achie": 5284,
      "wollen": 5285,
      "health": 5286,
      "cal": 5287,
      "isierung": 5288,
      "example": 5289,
      "means": 5290,
      "debate": 5291,
      "ktor": 5292,
      "next": 5293,
      "iff": 5294,
      "kommissar": 5295,
      "website": 5296,
      "proposal": 5297,
      "erst": 5298,
      "ont": 5299,
      "histor": 5300,
      "oking": 5301,
      "stellt": 5302,
      "bah": 5303,
      "steht": 5304,
      "seiten": 5305,
      "look": 5306,
      "25": 5307,
      "cro": 5308,
      "why": 5309,
      "three": 5310,
      "basis": 5311,
      "umf": 5312,
      "ged": 5313,
      "beach": 5314,
      "heits": 5315,
      "prior": 5316,
      "worden": 5317,
      "darüber": 5318,
      "agen": 5319,
      "home": 5320,
      "conta": 5321,
      "apart": 5322,
      "trib": 5323,
      "beim": 5324,
      "adop": 5325,
      "unseren": 5326,
      "insbesondere": 5327,
      "ls": 5328,
      "haupt": 5329,
      "ders": 5330,
      "raum": 5331,
      "ised": 5332,
      "äm": 5333,
      "verfahren": 5334,
      "she": 5335,
      "budget": 5336,
      "innov": 5337,
      "whe": 5338,
      "elle": 5339,
      "glau": 5340,
      "deshalb": 5341,
      "found": 5342,
      "compet": 5343,
      "ri": 5344,
      "schein": 5345,
      "einzel": 5346,
      "24": 5347,
      "result": 5348,
      "abil": 5349,
      "mut": 5350,
      "centre": 5351,
      "agr": 5352,
      "umwelt": 5353,
      "mail": 5354,
      "taken": 5355,
      "wed": 5356,
      "werk": 5357,
      "kontro": 5358,
      "tage": 5359,
      "grow": 5360,
      "post": 5361,
      "addition": 5362,
      "team": 5363,
      "tail": 5364,
      "online": 5365,
      "problems": 5366,
      "parlaments": 5367,
      "ausschuss": 5368,
      "etwas": 5369,
      "ized": 5370,
      "gend": 5371,
      "located": 5372,
      "vide": 5373,
      "cover": 5374,
      "specific": 5375,
      "bringen": 5376,
      "legt": 5377,
      "führung": 5378,
      "mod": 5379,
      "tar": 5380,
      "give": 5381,
      "vorschlag": 5382,
      "verantwort": 5383,
      "hotels": 5384,
      "utes": 5385,
      "success": 5386,
      "lauf": 5387,
      "citizens": 5388,
      "jen": 5389,
      "rece": 5390,
      "ace": 5391,
      "legisl": 5392,
      "hält": 5393,
      "ordin": 5394,
      "staat": 5395,
      "ird": 5396,
      "fri": 5397,
      "ield": 5398,
      "did": 5399,
      "measures": 5400,
      "notwend": 5401,
      "pflich": 5402,
      "fehl": 5403,
      "areas": 5404,
      "install": 5405,
      "given": 5406,
      "aro": 5407,
      "gesetz": 5408,
      "namen": 5409,
      "kunft": 5410,
      "kü": 5411,
      "erhalten": 5412,
      "establ": 5413,
      "immt": 5414,
      "few": 5415,
      "rates": 5416,
      "km": 5417,
      "ek": 5418,
      "sour": 5419,
      "mone": 5420,
      "drei": 5421,
      "ller": 5422,
      "restaurant": 5423,
      "gehör": 5424,
      "ning": 5425,
      "änderungs": 5426,
      "non": 5427,
      "water": 5428,
      "rele": 5429,
      "ichte": 5430,
      "orig": 5431,
      "princ": 5432,
      "appe": 5433,
      "china": 5434,
      "range": 5435,
      "ght": 5436,
      "welche": 5437,
      "bieten": 5438,
      "again": 5439,
      "protection": 5440,
      "close": 5441,
      "gangen": 5442,
      "einmal": 5443,
      "halts": 5444,
      "break": 5445,
      "2010": 5446,
      "vill": 5447,
      "flo": 5448,
      "zusammenarbeit": 5449,
      "mand": 5450,
      "ues": 5451,
      "entwicke": 5452,
      "friend": 5453,
      "meth": 5454,
      "schul": 5455,
      "half": 5456,
      "elt": 5457,
      "necessary": 5458,
      "ina": 5459,
      "preis": 5460,
      "fung": 5461,
      "ible": 5462,
      "chr": 5463,
      "hung": 5464,
      "mark": 5465,
      "earch": 5466,
      "wahr": 5467,
      "steu": 5468,
      "conne": 5469,
      "posed": 5470,
      "schaften": 5471,
      "schließlich": 5472,
      "trade": 5473,
      "research": 5474,
      "lead": 5475,
      "üs": 5476,
      "reser": 5477,
      "const": 5478,
      "fraktion": 5479,
      "joy": 5480,
      "fass": 5481,
      "using": 5482,
      "verwen": 5483,
      "ential": 5484,
      "gere": 5485,
      "letzten": 5486,
      "natürlich": 5487,
      "platz": 5488,
      "ensure": 5489,
      "bede": 5490,
      "schlä": 5491,
      "wasser": 5492,
      "genau": 5493,
      "esen": 5494,
      "pract": 5495,
      "tragen": 5496,
      "him": 5497,
      "struktur": 5498,
      "cooperation": 5499,
      "klar": 5500,
      "increas": 5501,
      "sprache": 5502,
      "mobil": 5503,
      "wirklich": 5504,
      "läs": 5505,
      "erklär": 5506,
      "implement": 5507,
      "tats": 5508,
      "zü": 5509,
      "merk": 5510,
      "afr": 5511,
      "lungs": 5512,
      "opport": 5513,
      "unterstützung": 5514,
      "ww": 5515,
      "bra": 5516,
      "ches": 5517,
      "dings": 5518,
      "pho": 5519,
      "2008": 5520,
      "test": 5521,
      "ihrem": 5522,
      "gesetzt": 5523,
      "care": 5524,
      "jeder": 5525,
      "bekann": 5526,
      "dial": 5527,
      "leicht": 5528,
      "united": 5529,
      "distr": 5530,
      "opportun": 5531,
      "hope": 5532,
      "glichen": 5533,
      "sequ": 5534,
      "met": 5535,
      "geschäf": 5536,
      "esse": 5537,
      "cks": 5538,
      "treten": 5539,
      "vier": 5540,
      "book": 5541,
      "wand": 5542,
      "shall": 5543,
      "entscheid": 5544,
      "lei": 5545,
      "ente": 5546,
      "ped": 5547,
      "mas": 5548,
      "alled": 5549,
      "lebens": 5550,
      "consum": 5551,
      "porte": 5552,
      "ira": 5553,
      "lea": 5554,
      "another": 5555,
      "visit": 5556,
      "sitz": 5557,
      "utzen": 5558,
      "aktiv": 5559,
      "energie": 5560,
      "entfer": 5561,
      "regierung": 5562,
      "ports": 5563,
      "complete": 5564,
      "aff": 5565,
      "vote": 5566,
      "tax": 5567,
      "ache": 5568,
      "eur": 5569,
      "liber": 5570,
      "prä": 5571,
      "produkt": 5572,
      "bitte": 5573,
      "richtung": 5574,
      "bi": 5575,
      "super": 5576,
      "working": 5577,
      "wish": 5578,
      "stimmung": 5579,
      "100": 5580,
      "origin": 5581,
      "blo": 5582,
      "pend": 5583,
      "ules": 5584,
      "cially": 5585,
      "reach": 5586,
      "bahn": 5587,
      "burg": 5588,
      "einge": 5589,
      "agt": 5590,
      "lungen": 5591,
      "darf": 5592,
      "untersch": 5593,
      "cher": 5594,
      "wett": 5595,
      "rück": 5596,
      "lat": 5597,
      "please": 5598,
      "compan": 5599,
      "invol": 5600,
      "leit": 5601,
      "entlichen": 5602,
      "gabe": 5603,
      "fert": 5604,
      "pan": 5605,
      "sätz": 5606,
      "control": 5607,
      "hy": 5608,
      "whether": 5609,
      "wards": 5610,
      "gesellschaft": 5611,
      "nutz": 5612,
      "wirtschafts": 5613,
      "run": 5614,
      "besteht": 5615,
      "pot": 5616,
      "usa": 5617,
      "igten": 5618,
      "move": 5619,
      "production": 5620,
      "gä": 5621,
      "zept": 5622,
      "iety": 5623,
      "town": 5624,
      "always": 5625,
      "disk": 5626,
      "brit": 5627,
      "sions": 5628,
      "typ": 5629,
      "bedeut": 5630,
      "lands": 5631,
      "toge": 5632,
      "hard": 5633,
      "enjoy": 5634,
      "isation": 5635,
      "together": 5636,
      "sever": 5637,
      "yo": 5638,
      "wegen": 5639,
      "forsch": 5640,
      "streng": 5641,
      "field": 5642,
      "deutsch": 5643,
      "poin": 5644,
      "dist": 5645,
      "termin": 5646,
      "private": 5647,
      "ified": 5648,
      "extre": 5649,
      "directive": 5650,
      "meiner": 5651,
      "ared": 5652,
      "terms": 5653,
      "einz": 5654,
      "alles": 5655,
      "cu": 5656,
      "parte": 5657,
      "großen": 5658,
      "head": 5659,
      "third": 5660,
      "better": 5661,
      "sele": 5662,
      "views": 5663,
      "fas": 5664,
      "seinen": 5665,
      "förder": 5666,
      "itäten": 5667,
      "central": 5668,
      "jan": 5669,
      "sibility": 5670,
      "flex": 5671,
      "weitere": 5672,
      "vision": 5673,
      "interest": 5674,
      "list": 5675,
      "dren": 5676,
      "wäre": 5677,
      "terror": 5678,
      "needs": 5679,
      "deren": 5680,
      "wendung": 5681,
      "angen": 5682,
      "account": 5683,
      "abhän": 5684,
      "wohn": 5685,
      "wide": 5686,
      "ert": 5687,
      "around": 5688,
      "recent": 5689,
      "vielen": 5690,
      "kno": 5691,
      "german": 5692,
      "ergeb": 5693,
      "nal": 5694,
      "children": 5695,
      "große": 5696,
      "politischen": 5697,
      "light": 5698,
      "load": 5699,
      "spl": 5700,
      "äum": 5701,
      "gesund": 5702,
      "win": 5703,
      "obje": 5704,
      "near": 5705,
      "facil": 5706,
      "kollegen": 5707,
      "guar": 5708,
      "kinder": 5709,
      "profession": 5710,
      "user": 5711,
      "sü": 5712,
      "za": 5713,
      "kind": 5714,
      "ides": 5715,
      "handelt": 5716,
      "möglichkeit": 5717,
      "making": 5718,
      "kor": 5719,
      "mel": 5720,
      "writ": 5721,
      "va": 5722,
      "ii": 5723,
      "heraus": 5724,
      "perfe": 5725,
      "öffentlich": 5726,
      "ivil": 5727,
      "ätze": 5728,
      "proper": 5729,
      "word": 5730,
      "40": 5731,
      "terstat": 5732,
      "ierungs": 5733,
      "women": 5734,
      "clu": 5735,
      "wettbewer": 5736,
      "berg": 5737,
      "direkt": 5738,
      "richtlinie": 5739,
      "ums": 5740,
      "big": 5741,
      "solid": 5742,
      "class": 5743,
      "pool": 5744,
      "local": 5745,
      "transpar": 5746,
      "berichterstat": 5747,
      "milit": 5748,
      "hu": 5749,
      "industrie": 5750,
      "food": 5751,
      "2007": 5752,
      "card": 5753,
      "doc": 5754,
      "probleme": 5755,
      "uc": 5756,
      "zeigt": 5757,
      "muß": 5758,
      "accept": 5759,
      "conditions": 5760,
      "träge": 5761,
      "kommt": 5762,
      "schwi": 5763,
      "feat": 5764,
      "dort": 5765,
      "dou": 5766,
      "promo": 5767,
      "besonders": 5768,
      "natur": 5769,
      "prove": 5770,
      "öt": 5771,
      "bedingungen": 5772,
      "hungen": 5773,
      "compu": 5774,
      "proced": 5775,
      "industry": 5776,
      "ury": 5777,
      "photo": 5778,
      "verfügung": 5779,
      "völ": 5780,
      "lack": 5781,
      "mlich": 5782,
      "particularly": 5783,
      "2000": 5784,
      "beschäft": 5785,
      "mrs": 5786,
      "internationalen": 5787,
      "lik": 5788,
      "betrie": 5789,
      "once": 5790,
      "going": 5791,
      "reco": 5792,
      "kein": 5793,
      "face": 5794,
      "leistungen": 5795,
      "lux": 5796,
      "automat": 5797,
      "exist": 5798,
      "enten": 5799,
      "benutz": 5800,
      "station": 5801,
      "hang": 5802,
      "rolle": 5803,
      "location": 5804,
      "bedeutung": 5805,
      "nehmer": 5806,
      "become": 5807,
      "prozess": 5808,
      "ming": 5809,
      "verbind": 5810,
      "ikan": 5811,
      "mass": 5812,
      "abhäng": 5813,
      "betre": 5814,
      "short": 5815,
      "aspe": 5816,
      "käm": 5817,
      "ention": 5818,
      "suchen": 5819,
      "equip": 5820,
      "west": 5821,
      "sowohl": 5822,
      "frame": 5823,
      "staff": 5824,
      "experience": 5825,
      "gol": 5826,
      "job": 5827,
      "verbrauch": 5828,
      "espe": 5829,
      "uments": 5830,
      "diffic": 5831,
      "org": 5832,
      "davon": 5833,
      "hervor": 5834,
      "gemeinschaft": 5835,
      "respect": 5836,
      "vertr": 5837,
      "buch": 5838,
      "material": 5839,
      "60": 5840,
      "event": 5841,
      "clus": 5842,
      "difficult": 5843,
      "rapporte": 5844,
      "soc": 5845,
      "beginn": 5846,
      "ths": 5847,
      "gue": 5848,
      "haushalts": 5849,
      "thema": 5850,
      "abkommen": 5851,
      "anzu": 5852,
      "näch": 5853,
      "issues": 5854,
      "ying": 5855,
      "rats": 5856,
      "board": 5857,
      "role": 5858,
      "single": 5859,
      "communic": 5860,
      "standards": 5861,
      "erken": 5862,
      "ikel": 5863,
      "iben": 5864,
      "wär": 5865,
      "decision": 5866,
      "mode": 5867,
      "contrib": 5868,
      "xim": 5869,
      "fern": 5870,
      "tool": 5871,
      "dessen": 5872,
      "meer": 5873,
      "rules": 5874,
      "gegenüber": 5875,
      "lösung": 5876,
      "äd": 5877,
      "app": 5878,
      "personen": 5879,
      "product": 5880,
      "project": 5881,
      "whole": 5882,
      "represent": 5883,
      "vious": 5884,
      "langu": 5885,
      "80": 5886,
      "ctr": 5887,
      "among": 5888,
      "mom": 5889,
      "frauen": 5890,
      "ulation": 5891,
      "companies": 5892,
      "road": 5893,
      "aid": 5894,
      "various": 5895,
      "schwe": 5896,
      "deal": 5897,
      "nu": 5898,
      "völker": 5899,
      "erreichen": 5900,
      "bü": 5901,
      "hilfe": 5902,
      "coming": 5903,
      "via": 5904,
      "sector": 5905,
      "pas": 5906,
      "window": 5907,
      "fel": 5908,
      "eh": 5909,
      "especially": 5910,
      "gas": 5911,
      "erforder": 5912,
      "comfort": 5913,
      "cris": 5914,
      "weisen": 5915,
      "abo": 5916,
      "contra": 5917,
      "resolution": 5918,
      "ße": 5919,
      "weis": 5920,
      "ground": 5921,
      "antrag": 5922,
      "office": 5923,
      "guaran": 5924,
      "benef": 5925,
      "network": 5926,
      "vour": 5927,
      "east": 5928,
      "mind": 5929,
      "optim": 5930,
      "dank": 5931,
      "aktion": 5932,
      "nten": 5933,
      "greif": 5934,
      "aim": 5935,
      "asso": 5936,
      "heim": 5937,
      "check": 5938,
      "welcome": 5939,
      "ino": 5940,
      "itik": 5941,
      "innerhalb": 5942,
      "zwar": 5943,
      "ähr": 5944,
      "geschäfts": 5945,
      "verbesser": 5946,
      "frieden": 5947,
      "eigenen": 5948,
      "23": 5949,
      "schluss": 5950,
      "cording": 5951,
      "following": 5952,
      "gewähr": 5953,
      "ize": 5954,
      "könnte": 5955,
      "ham": 5956,
      "add": 5957,
      "employment": 5958,
      "ategor": 5959,
      "scho": 5960,
      "family": 5961,
      "forderungen": 5962,
      "artikel": 5963,
      "effective": 5964,
      "sea": 5965,
      "called": 5966,
      "wün": 5967,
      "yet": 5968,
      "create": 5969,
      "ika": 5970,
      "oren": 5971,
      "really": 5972,
      "pose": 5973,
      "lab": 5974,
      "selves": 5975,
      "dress": 5976,
      "verständ": 5977,
      "befindet": 5978,
      "kets": 5979,
      "comes": 5980,
      "kultur": 5981,
      "unge": 5982,
      "taking": 5983,
      "anges": 5984,
      "matter": 5985,
      "isches": 5986,
      "ief": 5987,
      "mess": 5988,
      "technology": 5989,
      "peri": 5990,
      "hinter": 5991,
      "demand": 5992,
      "muse": 5993,
      "ican": 5994,
      "several": 5995,
      "front": 5996,
      "cons": 5997,
      "hatte": 5998,
      "fäh": 5999,
      "steuer": 6000,
      "sat": 6001,
      "ons": 6002,
      "lines": 6003,
      "engl": 6004,
      "gesehen": 6005,
      "erwar": 6006,
      "gelegen": 6007,
      "peace": 6008,
      "live": 6009,
      "iges": 6010,
      "teilen": 6011,
      "iday": 6012,
      "done": 6013,
      "hunder": 6014,
      "hor": 6015,
      "neten": 6016,
      "ingen": 6017,
      "tür": 6018,
      "fisch": 6019,
      "nego": 6020,
      "period": 6021,
      "zukunft": 6022,
      "center": 6023,
      "def": 6024,
      "mär": 6025,
      "initiative": 6026,
      "igr": 6027,
      "schrift": 6028,
      "itz": 6029,
      "subject": 6030,
      "netz": 6031,
      "express": 6032,
      "sett": 6033,
      "ably": 6034,
      "advan": 6035,
      "urch": 6036,
      "admin": 6037,
      "excell": 6038,
      "enzen": 6039,
      "ization": 6040,
      "mann": 6041,
      "unterstützen": 6042,
      "crip": 6043,
      "treaty": 6044,
      "klim": 6045,
      "verw": 6046,
      "bill": 6047,
      "produkte": 6048,
      "möglichkeiten": 6049,
      "prin": 6050,
      "zeug": 6051,
      "excellent": 6052,
      "due": 6053,
      "teile": 6054,
      "erste": 6055,
      "tv": 6056,
      "resour": 6057,
      "frank": 6058,
      "schriften": 6059,
      "four": 6060,
      "2006": 6061,
      "geschlossen": 6062,
      "unde": 6063,
      "negoti": 6064,
      "gaben": 6065,
      "sty": 6066,
      "verschiedenen": 6067,
      "atte": 6068,
      "regional": 6069,
      "möchten": 6070,
      "dro": 6071,
      "besser": 6072,
      "ising": 6073,
      "einzu": 6074,
      "itor": 6075,
      "improve": 6076,
      "feel": 6077,
      "auer": 6078,
      "never": 6079,
      "entfernt": 6080,
      "incre": 6081,
      "genann": 6082,
      "berlin": 6083,
      "intro": 6084,
      "iple": 6085,
      "detail": 6086,
      "isra": 6087,
      "gentle": 6088,
      "behör": 6089,
      "ival": 6090,
      "schwer": 6091,
      "acc": 6092,
      "qualität": 6093,
      "days": 6094,
      "dür": 6095,
      "germany": 6096,
      "progress": 6097,
      "stück": 6098,
      "term": 6099,
      "ppen": 6100,
      "beru": 6101,
      "something": 6102,
      "ety": 6103,
      "approach": 6104,
      "cli": 6105,
      "altung": 6106,
      "verpflich": 6107,
      "dest": 6108,
      "side": 6109,
      "ifft": 6110,
      "favour": 6111,
      "commen": 6112,
      "ences": 6113,
      "attra": 6114,
      "geführt": 6115,
      "party": 6116,
      "ses": 6117,
      "individual": 6118,
      "understand": 6119,
      "introdu": 6120,
      "kraft": 6121,
      "bad": 6122,
      "schnell": 6123,
      "persön": 6124,
      "neben": 6125,
      "anim": 6126,
      "hlt": 6127,
      "ither": 6128,
      "komple": 6129,
      "nutzen": 6130,
      "affe": 6131,
      "freund": 6132,
      "cast": 6133,
      "ppe": 6134,
      "atten": 6135,
      "litt": 6136,
      "gäste": 6137,
      "framework": 6138,
      "bour": 6139,
      "price": 6140,
      "away": 6141,
      "rapporteur": 6142,
      "continue": 6143,
      "schwier": 6144,
      "minutes": 6145,
      "ishing": 6146,
      "bildung": 6147,
      "imate": 6148,
      "bor": 6149,
      "known": 6150,
      "ars": 6151,
      "mag": 6152,
      "mid": 6153,
      "fficient": 6154,
      "gegeben": 6155,
      "itself": 6156,
      "vorschlä": 6157,
      "mechan": 6158,
      "often": 6159,
      "ladies": 6160,
      "computer": 6161,
      "moment": 6162,
      "absol": 6163,
      "schaffen": 6164,
      "eg": 6165,
      "money": 6166,
      "spr": 6167,
      "link": 6168,
      "until": 6169,
      "safety": 6170,
      "krie": 6171,
      "breakfast": 6172,
      "icult": 6173,
      "allerdings": 6174,
      "content": 6175,
      "function": 6176,
      "absch": 6177,
      "pleas": 6178,
      "unterschied": 6179,
      "mäß": 6180,
      "ideal": 6181,
      "berichterstatter": 6182,
      "fundament": 6183,
      "server": 6184,
      "gil": 6185,
      "tin": 6186,
      "außerdem": 6187,
      "particip": 6188,
      "educ": 6189,
      "fassung": 6190,
      "according": 6191,
      "ane": 6192,
      "haltung": 6193,
      "schritt": 6194,
      "little": 6195,
      "table": 6196,
      "anst": 6197,
      "opin": 6198,
      "uhr": 6199,
      "etc": 6200,
      "reicht": 6201,
      "having": 6202,
      "discus": 6203,
      "hes": 6204,
      "least": 6205,
      "cop": 6206,
      "danken": 6207,
      "organisation": 6208,
      "mention": 6209,
      "gebiet": 6210,
      "crisis": 6211,
      "gentlemen": 6212,
      "growth": 6213,
      "constit": 6214,
      "ama": 6215,
      "serious": 6216,
      "artic": 6217,
      "teilung": 6218,
      "abgeord": 6219,
      "bestehen": 6220,
      "erweiter": 6221,
      "address": 6222,
      "integration": 6223,
      "ling": 6224,
      "ieben": 6225,
      "amendments": 6226,
      "mi": 6227,
      "grat": 6228,
      "ones": 6229,
      "kurz": 6230,
      "ifiz": 6231,
      "tages": 6232,
      "kommun": 6233,
      "rela": 6234,
      "drit": 6235,
      "leis": 6236,
      "din": 6237,
      "äußer": 6238,
      "dok": 6239,
      "force": 6240,
      "lot": 6241,
      "lichkeit": 6242,
      "21": 6243,
      "früh": 6244,
      "zeitig": 6245,
      "gerade": 6246,
      "ath": 6247,
      "kat": 6248,
      "things": 6249,
      "cat": 6250,
      "projekt": 6251,
      "agricult": 6252,
      "präsidentin": 6253,
      "dre": 6254,
      "politische": 6255,
      "zip": 6256,
      "ring": 6257,
      "electr": 6258,
      "towards": 6259,
      "building": 6260,
      "mean": 6261,
      "eren": 6262,
      "hät": 6263,
      "wan": 6264,
      "rather": 6265,
      "spie": 6266,
      "institutions": 6267,
      "strong": 6268,
      "body": 6269,
      "film": 6270,
      "jahres": 6271,
      "ults": 6272,
      "gute": 6273,
      "meinung": 6274,
      "positive": 6275,
      "geld": 6276,
      "night": 6277,
      "anti": 6278,
      "times": 6279,
      "stän": 6280,
      "round": 6281,
      "easy": 6282,
      "instrument": 6283,
      "pact": 6284,
      "amo": 6285,
      "gruppe": 6286,
      "bezug": 6287,
      "promis": 6288,
      "customers": 6289,
      "deli": 6290,
      "although": 6291,
      "ever": 6292,
      "stimmen": 6293,
      "left": 6294,
      "moder": 6295,
      "vert": 6296,
      "ements": 6297,
      "row": 6298,
      "keep": 6299,
      "gü": 6300,
      "music": 6301,
      "forward": 6302,
      "igkeiten": 6303,
      "constru": 6304,
      "unehmen": 6305,
      "uring": 6306,
      "sichtlich": 6307,
      "22": 6308,
      "stop": 6309,
      "ances": 6310,
      "zusammenhang": 6311,
      "quite": 6312,
      "zweiten": 6313,
      "iving": 6314,
      "zun": 6315,
      "madam": 6316,
      "stain": 6317,
      "verhand": 6318,
      "indem": 6319,
      "sult": 6320,
      "strategie": 6321,
      "schö": 6322,
      "video": 6323,
      "ober": 6324,
      "flug": 6325,
      "kan": 6326,
      "jähr": 6327,
      "drück": 6328,
      "ping": 6329,
      "dit": 6330,
      "sep": 6331,
      "agree": 6332,
      "active": 6333,
      "jeden": 6334,
      "stabil": 6335,
      "value": 6336,
      "option": 6337,
      "entschließ": 6338,
      "beiden": 6339,
      "außen": 6340,
      "iere": 6341,
      "distrib": 6342,
      "strategy": 6343,
      "presiden": 6344,
      "unserem": 6345,
      "ago": 6346,
      "moun": 6347,
      "70": 6348,
      "auen": 6349,
      "austr": 6350,
      "etwa": 6351,
      "confer": 6352,
      "2005": 6353,
      "einander": 6354,
      "lies": 6355,
      "ials": 6356,
      "alternat": 6357,
      "univers": 6358,
      "week": 6359,
      "training": 6360,
      "beaut": 6361,
      "along": 6362,
      "gesagt": 6363,
      "ragen": 6364,
      "holiday": 6365,
      "zusätz": 6366,
      "manu": 6367,
      "cir": 6368,
      "istic": 6369,
      "begrü": 6370,
      "iken": 6371,
      "graph": 6372,
      "vertrag": 6373,
      "flü": 6374,
      "daran": 6375,
      "increase": 6376,
      "ativ": 6377,
      "laden": 6378,
      "archite": 6379,
      "gemeinsamen": 6380,
      "activities": 6381,
      "hinaus": 6382,
      "weniger": 6383,
      "resources": 6384,
      "aufgrund": 6385,
      "affen": 6386,
      "ples": 6387,
      "ification": 6388,
      "mp": 6389,
      "harmon": 6390,
      "freed": 6391,
      "ived": 6392,
      "education": 6393,
      "jap": 6394,
      "aufge": 6395,
      "opportunity": 6396,
      "contact": 6397,
      "zogen": 6398,
      "extreme": 6399,
      "christ": 6400,
      "safe": 6401,
      "above": 6402,
      "mosp": 6403,
      "israel": 6404,
      "seem": 6405,
      "stor": 6406,
      "wachst": 6407,
      "ians": 6408,
      "digital": 6409,
      "bzw": 6410,
      "vorschriften": 6411,
      "achieve": 6412,
      "baren": 6413,
      "regulation": 6414,
      "wit": 6415,
      "folge": 6416,
      "came": 6417,
      "south": 6418,
      "halte": 6419,
      "viol": 6420,
      "provided": 6421,
      "points": 6422,
      "code": 6423,
      "spol": 6424,
      "sweise": 6425,
      "foreign": 6426,
      "beautif": 6427,
      "stelle": 6428,
      "associ": 6429,
      "arr": 6430,
      "ütz": 6431,
      "erfahr": 6432,
      "atmosp": 6433,
      "fis": 6434,
      "sound": 6435,
      "solution": 6436,
      "democrat": 6437,
      "might": 6438,
      "windows": 6439,
      "entscheiden": 6440,
      "zentrum": 6441,
      "musik": 6442,
      "ierungen": 6443,
      "speak": 6444,
      "sogar": 6445,
      "extra": 6446,
      "tic": 6447,
      "acht": 6448,
      "bew": 6449,
      "öffentlichen": 6450,
      "presidency": 6451,
      "fähr": 6452,
      "europas": 6453,
      "border": 6454,
      "mic": 6455,
      "fs": 6456,
      "interess": 6457,
      "atives": 6458,
      "idence": 6459,
      "request": 6460,
      "troffen": 6461,
      "ball": 6462,
      "band": 6463,
      "offic": 6464,
      "gef": 6465,
      "subst": 6466,
      "iver": 6467,
      "krise": 6468,
      "betra": 6469,
      "denken": 6470,
      "model": 6471,
      "society": 6472,
      "freedom": 6473,
      "lear": 6474,
      "pub": 6475,
      "septem": 6476,
      "foto": 6477,
      "proto": 6478,
      "chem": 6479,
      "economy": 6480,
      "finally": 6481,
      "sil": 6482,
      "prochen": 6483,
      "bare": 6484,
      "gilt": 6485,
      "links": 6486,
      "signific": 6487,
      "return": 6488,
      "space": 6489,
      "ebenfalls": 6490,
      "itäts": 6491,
      "verl": 6492,
      "hon": 6493,
      "ently": 6494,
      "uellen": 6495,
      "september": 6496,
      "beteil": 6497,
      "oft": 6498,
      "relation": 6499,
      "behalf": 6500,
      "gelegt": 6501,
      "include": 6502,
      "eded": 6503,
      "2004": 6504,
      "mitt": 6505,
      "download": 6506,
      "kal": 6507,
      "recommen": 6508,
      "ativen": 6509,
      "zugang": 6510,
      "step": 6511,
      "iding": 6512,
      "solidar": 6513,
      "anderer": 6514,
      "nämlich": 6515,
      "respe": 6516,
      "cra": 6517,
      "application": 6518,
      "ises": 6519,
      "words": 6520,
      "konfer": 6521,
      "gesamt": 6522,
      "derzeit": 6523,
      "darin": 6524,
      "clean": 6525,
      "nichts": 6526,
      "leisten": 6527,
      "tit": 6528,
      "gam": 6529,
      "garant": 6530,
      "cient": 6531,
      "millionen": 6532,
      "news": 6533,
      "others": 6534,
      "total": 6535,
      "sco": 6536,
      "icken": 6537,
      "japan": 6538,
      "vertre": 6539,
      "allgem": 6540,
      "assist": 6541,
      "young": 6542,
      "zehn": 6543,
      "spor": 6544,
      "spir": 6545,
      "sec": 6546,
      "las": 6547,
      "rein": 6548,
      "slo": 6549,
      "kap": 6550,
      "bekannt": 6551,
      "paris": 6552,
      "tät": 6553,
      "rate": 6554,
      "deutschland": 6555,
      "happen": 6556,
      "gemacht": 6557,
      "ception": 6558,
      "sites": 6559,
      "green": 6560,
      "proposals": 6561,
      "berück": 6562,
      "natural": 6563,
      "tor": 6564,
      "thus": 6565,
      "ächlich": 6566,
      "berücksicht": 6567,
      "zeigen": 6568,
      "exten": 6569,
      "grundlage": 6570,
      "ebene": 6571,
      "pie": 6572,
      "meeting": 6573,
      "ski": 6574,
      "fundamental": 6575,
      "partn": 6576,
      "abstimmung": 6577,
      "ihm": 6578,
      "ffiz": 6579,
      "trotz": 6580,
      "appropri": 6581,
      "liefer": 6582,
      "vielleicht": 6583,
      "weiß": 6584,
      "schre": 6585,
      "remain": 6586,
      "tober": 6587,
      "reise": 6588,
      "ras": 6589,
      "hnen": 6590,
      "enden": 6591,
      "198": 6592,
      "costs": 6593,
      "gebra": 6594,
      "deck": 6595,
      "ihn": 6596,
      "charac": 6597,
      "simply": 6598,
      "meisten": 6599,
      "italien": 6600,
      "accom": 6601,
      "media": 6602,
      "betrifft": 6603,
      "zä": 6604,
      "object": 6605,
      "vice": 6606,
      "2003": 6607,
      "perfect": 6608,
      "heart": 6609,
      "verbunden": 6610,
      "weiterhin": 6611,
      "groups": 6612,
      "cen": 6613,
      "änderungen": 6614,
      "kop": 6615,
      "zif": 6616,
      "27": 6617,
      "ented": 6618,
      "zeichnet": 6619,
      "gebie": 6620,
      "istan": 6621,
      "cla": 6622,
      "frist": 6623,
      "facilities": 6624,
      "later": 6625,
      "continu": 6626,
      "capital": 6627,
      "beautiful": 6628,
      "adopted": 6629,
      "vergangen": 6630,
      "entwickel": 6631,
      "bung": 6632,
      "nel": 6633,
      "amendment": 6634,
      "hab": 6635,
      "inten": 6636,
      "transfer": 6637,
      "projects": 6638,
      "entwicklungs": 6639,
      "janu": 6640,
      "erhö": 6641,
      "makes": 6642,
      "guests": 6643,
      "nationalen": 6644,
      "school": 6645,
      "cultural": 6646,
      "entire": 6647,
      "bevölker": 6648,
      "ify": 6649,
      "ziele": 6650,
      "seinem": 6651,
      "opinion": 6652,
      "environmental": 6653,
      "ehr": 6654,
      "zunehmen": 6655,
      "ussel": 6656,
      "questions": 6657,
      "unterstützt": 6658,
      "relax": 6659,
      "quar": 6660,
      "internal": 6661,
      "civil": 6662,
      "wider": 6663,
      "ständig": 6664,
      "konta": 6665,
      "share": 6666,
      "legislation": 6667,
      "ichts": 6668,
      "results": 6669,
      "erfü": 6670,
      "responsibility": 6671,
      "fün": 6672,
      "utet": 6673,
      "bath": 6674,
      "tu": 6675,
      "risk": 6676,
      "läss": 6677,
      "verbraucher": 6678,
      "kir": 6679,
      "passen": 6680,
      "attention": 6681,
      "brauchen": 6682,
      "formen": 6683,
      "bat": 6684,
      "llt": 6685,
      "erwä": 6686,
      "guide": 6687,
      "nove": 6688,
      "aussprache": 6689,
      "cham": 6690,
      "jahrhunder": 6691,
      "angebo": 6692,
      "unabhäng": 6693,
      "ebenso": 6694,
      "eth": 6695,
      "glaube": 6696,
      "bru": 6697,
      "events": 6698,
      "deutlich": 6699,
      "wiesen": 6700,
      "technical": 6701,
      "provides": 6702,
      "nete": 6703,
      "mitteln": 6704,
      "atur": 6705,
      "note": 6706,
      "tex": 6707,
      "una": 6708,
      "voraus": 6709,
      "hoste": 6710,
      "künft": 6711,
      "schön": 6712,
      "policies": 6713,
      "challen": 6714,
      "bekäm": 6715,
      "lange": 6716,
      "dor": 6717,
      "klima": 6718,
      "solche": 6719,
      "normal": 6720,
      "sektor": 6721,
      "minuten": 6722,
      "einigen": 6723,
      "gleichzeitig": 6724,
      "enterpr": 6725,
      "ledge": 6726,
      "zy": 6727,
      "effect": 6728,
      "history": 6729,
      "structure": 6730,
      "iled": 6731,
      "send": 6732,
      "looking": 6733,
      "arbeitet": 6734,
      "restaurants": 6735,
      "greater": 6736,
      "perfor": 6737,
      "clearly": 6738,
      "raph": 6739,
      "dim": 6740,
      "schritte": 6741,
      "kunst": 6742,
      "relig": 6743,
      "geschichte": 6744,
      "original": 6745,
      "ret": 6746,
      "court": 6747,
      "method": 6748,
      "yes": 6749,
      "indeed": 6750,
      "concerned": 6751,
      "neuer": 6752,
      "möglichen": 6753,
      "commer": 6754,
      "fonds": 6755,
      "ager": 6756,
      "demon": 6757,
      "rän": 6758,
      "nature": 6759,
      "sicherheits": 6760,
      "crit": 6761,
      "solutions": 6762,
      "apr": 6763,
      "past": 6764,
      "wissenschaft": 6765,
      "suit": 6766,
      "democra": 6767,
      "auszu": 6768,
      "besuch": 6769,
      "2001": 6770,
      "fordern": 6771,
      "feld": 6772,
      "dürfen": 6773,
      "ov": 6774,
      "ost": 6775,
      "gebung": 6776,
      "century": 6777,
      "sollen": 6778,
      "isse": 6779,
      "messen": 6780,
      "anf": 6781,
      "insel": 6782,
      "len": 6783,
      "box": 6784,
      "proved": 6785,
      "linien": 6786,
      "effiz": 6787,
      "guest": 6788,
      "language": 6789,
      "jour": 6790,
      "isiert": 6791,
      "manufact": 6792,
      "gruppen": 6793,
      "vertra": 6794,
      "quick": 6795,
      "offe": 6796,
      "sei": 6797,
      "fünf": 6798,
      "carr": 6799,
      "prakt": 6800,
      "bleiben": 6801,
      "funds": 6802,
      "vorschläge": 6803,
      "increasing": 6804,
      "context": 6805,
      "importance": 6806,
      "besten": 6807,
      "minim": 6808,
      "performan": 6809,
      "fit": 6810,
      "ktr": 6811,
      "verkehrs": 6812,
      "friendly": 6813,
      "directly": 6814,
      "liste": 6815,
      "type": 6816,
      "provis": 6817,
      "prim": 6818,
      "try": 6819,
      "analy": 6820,
      "situated": 6821,
      "ku": 6822,
      "tru": 6823,
      "liberal": 6824,
      "maxim": 6825,
      "draw": 6826,
      "reiche": 6827,
      "kolleg": 6828,
      "though": 6829,
      "lling": 6830,
      "firm": 6831,
      "wenig": 6832,
      "liches": 6833,
      "crimin": 6834,
      "currently": 6835,
      "kür": 6836,
      "sustain": 6837,
      "bemü": 6838,
      "els": 6839,
      "keinen": 6840,
      "vic": 6841,
      "infra": 6842,
      "änderungsan": 6843,
      "answer": 6844,
      "conf": 6845,
      "entsch": 6846,
      "airport": 6847,
      "clar": 6848,
      "konferenz": 6849,
      "cut": 6850,
      "ergebnis": 6851,
      "voted": 6852,
      "ausschusses": 6853,
      "bul": 6854,
      "spä": 6855,
      "höch": 6856,
      "hnt": 6857,
      "outs": 6858,
      "ada": 6859,
      "fähigkeit": 6860,
      "changes": 6861,
      "umfassen": 6862,
      "tary": 6863,
      "micro": 6864,
      "bevor": 6865,
      "wärt": 6866,
      "forts": 6867,
      "conference": 6868,
      "90": 6869,
      "wech": 6870,
      "spolitik": 6871,
      "fan": 6872,
      "emis": 6873,
      "booking": 6874,
      "nähe": 6875,
      "procedure": 6876,
      "gestimmt": 6877,
      "ench": 6878,
      "rund": 6879,
      "dige": 6880,
      "demonstr": 6881,
      "decide": 6882,
      "file": 6883,
      "entliche": 6884,
      "pages": 6885,
      "ain": 6886,
      "amerikan": 6887,
      "luft": 6888,
      "wichtige": 6889,
      "weite": 6890,
      "ior": 6891,
      "mitted": 6892,
      "obwohl": 6893,
      "responsible": 6894,
      "laub": 6895,
      "principle": 6896,
      "focus": 6897,
      "gal": 6898,
      "setzt": 6899,
      "contain": 6900,
      "status": 6901,
      "lig": 6902,
      "nice": 6903,
      "systeme": 6904,
      "ziehen": 6905,
      "significant": 6906,
      "opt": 6907,
      "aug": 6908,
      "ana": 6909,
      "worten": 6910,
      "dienstleistungen": 6911,
      "sug": 6912,
      "wat": 6913,
      "ported": 6914,
      "required": 6915,
      "zustellen": 6916,
      "forschung": 6917,
      "ächst": 6918,
      "zunächst": 6919,
      "mitarbeit": 6920,
      "rad": 6921,
      "mitglieder": 6922,
      "zi": 6923,
      "professional": 6924,
      "zone": 6925,
      "werde": 6926,
      "ination": 6927,
      "süd": 6928,
      "ux": 6929,
      "wall": 6930,
      "gern": 6931,
      "geschlagen": 6932,
      "stein": 6933,
      "seits": 6934,
      "sive": 6935,
      "wirtschaftlichen": 6936,
      "vereinbar": 6937,
      "affair": 6938,
      "mber": 6939,
      "freu": 6940,
      "benöt": 6941,
      "bedeutet": 6942,
      "reihe": 6943,
      "2002": 6944,
      "aging": 6945,
      "democratic": 6946,
      "würden": 6947,
      "phil": 6948,
      "hib": 6949,
      "sus": 6950,
      "nieder": 6951,
      "authorities": 6952,
      "sun": 6953,
      "image": 6954,
      "ging": 6955,
      "essential": 6956,
      "empf": 6957,
      "owed": 6958,
      "greich": 6959,
      "stock": 6960,
      "iar": 6961,
      "upon": 6962,
      "november": 6963,
      "gemeinsame": 6964,
      "imes": 6965,
      "werte": 6966,
      "regions": 6967,
      "museum": 6968,
      "greifen": 6969,
      "democracy": 6970,
      "verantwortung": 6971,
      "beispielsweise": 6972,
      "produktion": 6973,
      "north": 6974,
      "spielen": 6975,
      "gratul": 6976,
      "mals": 6977,
      "teilt": 6978,
      "ison": 6979,
      "item": 6980,
      "competition": 6981,
      "seen": 6982,
      "nord": 6983,
      "demokratie": 6984,
      "verkauf": 6985,
      "veranst": 6986,
      "everything": 6987,
      "travel": 6988,
      "treffen": 6989,
      "club": 6990,
      "weder": 6991,
      "ös": 6992,
      "ansicht": 6993,
      "zahlen": 6994,
      "haup": 6995,
      "kontrolle": 6996,
      "regionen": 6997,
      "chine": 6998,
      "parties": 6999,
      "pict": 7000,
      "pfung": 7001,
      "gliche": 7002,
      "cd": 7003,
      "anwendung": 7004,
      "darum": 7005,
      "erfolgreich": 7006,
      "ßt": 7007,
      "handeln": 7008,
      "rec": 7009,
      "entscheidung": 7010,
      "edi": 7011,
      "zentral": 7012,
      "volle": 7013,
      "züglich": 7014,
      "gebracht": 7015,
      "ators": 7016,
      "schu": 7017,
      "kit": 7018,
      "einsatz": 7019,
      "combin": 7020,
      "nächsten": 7021,
      "gehört": 7022,
      "character": 7023,
      "april": 7024,
      "grand": 7025,
      "establish": 7026,
      "engine": 7027,
      "flä": 7028,
      "herren": 7029,
      "wettbewerbs": 7030,
      "cise": 7031,
      "26": 7032,
      "cru": 7033,
      "präsent": 7034,
      "phone": 7035,
      "garden": 7036,
      "handels": 7037,
      "lay": 7038,
      "fight": 7039,
      "gesundheit": 7040,
      "schließen": 7041,
      "verhandlungen": 7042,
      "article": 7043,
      "beziehungen": 7044,
      "requirements": 7045,
      "enough": 7046,
      "menschenrechte": 7047,
      "investment": 7048,
      "months": 7049,
      "condition": 7050,
      "wirkungen": 7051,
      "mbh": 7052,
      "longer": 7053,
      "500": 7054,
      "unver": 7055,
      "ined": 7056,
      "umsetzung": 7057,
      "developed": 7058,
      "läu": 7059,
      "customer": 7060,
      "gewalt": 7061,
      "agenda": 7062,
      "prevent": 7063,
      "chter": 7064,
      "separ": 7065,
      "üssel": 7066,
      "related": 7067,
      "hinzu": 7068,
      "mm": 7069,
      "prinzip": 7070,
      "behörden": 7071,
      "bereichen": 7072,
      "iran": 7073,
      "dad": 7074,
      "markets": 7075,
      "comfortable": 7076,
      "game": 7077,
      "proposed": 7078,
      "institutionen": 7079,
      "weiteren": 7080,
      "final": 7081,
      "ables": 7082,
      "lied": 7083,
      "implementation": 7084,
      "länd": 7085,
      "recogn": 7086,
      "apply": 7087,
      "publik": 7088,
      "ihres": 7089,
      "stud": 7090,
      "ash": 7091,
      "fi": 7092,
      "jede": 7093,
      "host": 7094,
      "interests": 7095,
      "landes": 7096,
      "winter": 7097,
      "leistungs": 7098,
      "ought": 7099,
      "gemäß": 7100,
      "acro": 7101,
      "förderung": 7102,
      "mem": 7103,
      "franz": 7104,
      "motor": 7105,
      "needed": 7106,
      "dialog": 7107,
      "publ": 7108,
      "click": 7109,
      "climate": 7110,
      "kleinen": 7111,
      "univer": 7112,
      "held": 7113,
      "interesse": 7114,
      "sex": 7115,
      "jedes": 7116,
      "nit": 7117,
      "brand": 7118,
      "fal": 7119,
      "freiheit": 7120,
      "enthalten": 7121,
      "internationale": 7122,
      "standen": 7123,
      "search": 7124,
      "angelegen": 7125,
      "soon": 7126,
      "fla": 7127,
      "überein": 7128,
      "gmbh": 7129,
      "familien": 7130,
      "umente": 7131,
      "true": 7132,
      "herz": 7133,
      "debatte": 7134,
      "28": 7135,
      "uelle": 7136,
      "works": 7137,
      "llig": 7138,
      "consequ": 7139,
      "document": 7140,
      "registr": 7141,
      "gab": 7142,
      "performance": 7143,
      "extremely": 7144,
      "involved": 7145,
      "punkte": 7146,
      "notwendig": 7147,
      "mob": 7148,
      "verfüg": 7149,
      "erfolg": 7150,
      "ziellen": 7151,
      "communication": 7152,
      "themselves": 7153,
      "fte": 7154,
      "additional": 7155,
      "zweif": 7156,
      "überzeu": 7157,
      "living": 7158,
      "iers": 7159,
      "monitor": 7160,
      "loss": 7161,
      "staats": 7162,
      "either": 7163,
      "amb": 7164,
      "reserv": 7165,
      "www": 7166,
      "modif": 7167,
      "hoffe": 7168,
      "affairs": 7169,
      "nimmt": 7170,
      "golf": 7171,
      "culture": 7172,
      "mensch": 7173,
      "entsprech": 7174,
      "efforts": 7175,
      "consult": 7176,
      "presented": 7177,
      "fallen": 7178,
      "ichtet": 7179,
      "stead": 7180,
      "russia": 7181,
      "chance": 7182,
      "neg": 7183,
      "jeweil": 7184,
      "unique": 7185,
      "cases": 7186,
      "unch": 7187,
      "kei": 7188,
      "kampf": 7189,
      "sozialen": 7190,
      "profit": 7191,
      "hinder": 7192,
      "grenz": 7193,
      "acy": 7194,
      "previous": 7195,
      "lic": 7196,
      "scheint": 7197,
      "files": 7198,
      "aufmerk": 7199,
      "kil": 7200,
      "ält": 7201,
      "speed": 7202,
      "ffe": 7203,
      "prices": 7204,
      "prep": 7205,
      "smo": 7206,
      "verwendet": 7207,
      "almost": 7208,
      "ermöglich": 7209,
      "heiß": 7210,
      "feder": 7211,
      "bisher": 7212,
      "cies": 7213,
      "features": 7214,
      "france": 7215,
      "dic": 7216,
      "cting": 7217,
      "actions": 7218,
      "peten": 7219,
      "indic": 7220,
      "verschiedene": 7221,
      "wachstum": 7222,
      "apartments": 7223,
      "roman": 7224,
      "claim": 7225,
      "convention": 7226,
      "preise": 7227,
      "strand": 7228,
      "maintain": 7229,
      "thanks": 7230,
      "aufmerksam": 7231,
      "letzt": 7232,
      "shop": 7233,
      "rup": 7234,
      "sucht": 7235,
      "ausgest": 7236,
      "bevölkerung": 7237,
      "wander": 7238,
      "gelten": 7239,
      "fordert": 7240,
      "erhe": 7241,
      "cross": 7242,
      "american": 7243,
      "five": 7244,
      "appropriate": 7245,
      "corre": 7246,
      "karte": 7247,
      "verbindung": 7248,
      "kn": 7249,
      "flexib": 7250,
      "tungen": 7251,
      "arg": 7252,
      "dokument": 7253,
      "french": 7254,
      "einzelnen": 7255,
      "han": 7256,
      "negotiations": 7257,
      "wr": 7258,
      "istischen": 7259,
      "knowledge": 7260,
      "onen": 7261,
      "erreicht": 7262,
      "developing": 7263,
      "ested": 7264,
      "swi": 7265,
      "entsprechen": 7266,
      "depend": 7267,
      "konkre": 7268,
      "pc": 7269,
      "neues": 7270,
      "created": 7271,
      "bald": 7272,
      "1999": 7273,
      "zielle": 7274,
      "sha": 7275,
      "fortun": 7276,
      "parts": 7277,
      "mobile": 7278,
      "ändern": 7279,
      "joint": 7280,
      "leider": 7281,
      "räum": 7282,
      "details": 7283,
      "walk": 7284,
      "sand": 7285,
      "users": 7286,
      "gets": 7287,
      "sinn": 7288,
      "famous": 7289,
      "included": 7290,
      "ye": 7291,
      "designed": 7292,
      "nitt": 7293,
      "rop": 7294,
      "gleichen": 7295,
      "angebot": 7296,
      "competit": 7297,
      "könnten": 7298,
      "weltweit": 7299,
      "berü": 7300,
      "ogue": 7301,
      "uell": 7302,
      "später": 7303,
      "lösungen": 7304,
      "entwickelt": 7305,
      "volks": 7306,
      "erei": 7307,
      "genie": 7308,
      "disc": 7309,
      "35": 7310,
      "schle": 7311,
      "immedi": 7312,
      "fire": 7313,
      "üt": 7314,
      "forderung": 7315,
      "territ": 7316,
      "anten": 7317,
      "unded": 7318,
      "frühstück": 7319,
      "folgt": 7320,
      "binnen": 7321,
      "ünst": 7322,
      "29": 7323,
      "dynam": 7324,
      "sab": 7325,
      "actually": 7326,
      "damen": 7327,
      "befinden": 7328,
      "built": 7329,
      "nachhalt": 7330,
      "relations": 7331,
      "island": 7332,
      "diskus": 7333,
      "dut": 7334,
      "kategor": 7335,
      "überprü": 7336,
      "workers": 7337,
      "cker": 7338,
      "andid": 7339,
      "yl": 7340,
      "vö": 7341,
      "phas": 7342,
      "akzept": 7343,
      "schaffung": 7344,
      "street": 7345,
      "arbeitung": 7346,
      "gän": 7347,
      "fail": 7348,
      "analys": 7349,
      "kontakt": 7350,
      "kennt": 7351,
      "gewä": 7352,
      "hold": 7353,
      "ffer": 7354,
      "auswirkungen": 7355,
      "ausdruck": 7356,
      "abgeordneten": 7357,
      "rail": 7358,
      "metho": 7359,
      "exclus": 7360,
      "behand": 7361,
      "determin": 7362,
      "early": 7363,
      "expect": 7364,
      "western": 7365,
      "iffen": 7366,
      "arbeitspl": 7367,
      "zeichen": 7368,
      "race": 7369,
      "grenzen": 7370,
      "leistung": 7371,
      "fluss": 7372,
      "transl": 7373,
      "idea": 7374,
      "hinblick": 7375,
      "atory": 7376,
      "vorgeschlagen": 7377,
      "wunder": 7378,
      "exchange": 7379,
      "double": 7380,
      "pruch": 7381,
      "üsse": 7382,
      "fahrt": 7383,
      "blu": 7384,
      "ano": 7385,
      "hend": 7386,
      "syn": 7387,
      "größer": 7388,
      "throughout": 7389,
      "leading": 7390,
      "verfügt": 7391,
      "ermöglicht": 7392,
      "outside": 7393,
      "anlage": 7394,
      "english": 7395,
      "gegenwärt": 7396,
      "45": 7397,
      "onic": 7398,
      "gefü": 7399,
      "lla": 7400,
      "sau": 7401,
      "igungs": 7402,
      "kör": 7403,
      "interessen": 7404,
      "stil": 7405,
      "industrial": 7406,
      "kommunik": 7407,
      "helfen": 7408,
      "receive": 7409,
      "encour": 7410,
      "display": 7411,
      "tatsächlich": 7412,
      "dete": 7413,
      "certainly": 7414,
      "swe": 7415,
      "hindern": 7416,
      "apartment": 7417,
      "refle": 7418,
      "fehler": 7419,
      "haps": 7420,
      "recommend": 7421,
      "across": 7422,
      "hatten": 7423,
      "series": 7424,
      "arian": 7425,
      "themen": 7426,
      "register": 7427,
      "erforderlich": 7428,
      "london": 7429,
      "verordnung": 7430,
      "mentioned": 7431,
      "perhaps": 7432,
      "zeiten": 7433,
      "vertrags": 7434,
      "abzu": 7435,
      "innovation": 7436,
      "ilar": 7437,
      "hohen": 7438,
      "morgen": 7439,
      "basic": 7440,
      "villa": 7441,
      "privat": 7442,
      "ines": 7443,
      "ände": 7444,
      "itu": 7445,
      "traditional": 7446,
      "dle": 7447,
      "ceed": 7448,
      "dimen": 7449,
      "sorgen": 7450,
      "takes": 7451,
      "exec": 7452,
      "jenigen": 7453,
      "ki": 7454,
      "coll": 7455,
      "ado": 7456,
      "gesamten": 7457,
      "bedeuten": 7458,
      "tatsache": 7459,
      "plant": 7460,
      "squ": 7461,
      "enable": 7462,
      "juni": 7463,
      "nothing": 7464,
      "figur": 7465,
      "six": 7466,
      "änderungsanträge": 7467,
      "angesichts": 7468,
      "hours": 7469,
      "ico": 7470,
      "iting": 7471,
      "suggest": 7472,
      "intens": 7473,
      "ellen": 7474,
      "rule": 7475,
      "guarantee": 7476,
      "nahe": 7477,
      "source": 7478,
      "nutzung": 7479,
      "explo": 7480,
      "neut": 7481,
      "august": 7482,
      "tä": 7483,
      "connection": 7484,
      "cup": 7485,
      "heut": 7486,
      "griff": 7487,
      "partners": 7488,
      "verhält": 7489,
      "pping": 7490,
      "kung": 7491,
      "itionen": 7492,
      "spezial": 7493,
      "constitution": 7494,
      "sä": 7495,
      "atta": 7496,
      "warum": 7497,
      "dadurch": 7498,
      "verte": 7499,
      "sprach": 7500,
      "avo": 7501,
      "doing": 7502,
      "block": 7503,
      "tat": 7504,
      "amount": 7505,
      "richten": 7506,
      "majority": 7507,
      "bund": 7508,
      "benutzer": 7509,
      "197": 7510,
      "gebäu": 7511,
      "emphas": 7512,
      "orient": 7513,
      "alternative": 7514,
      "wünschen": 7515,
      "regeln": 7516,
      "email": 7517,
      "coordin": 7518,
      "gree": 7519,
      "kolleginnen": 7520,
      "män": 7521,
      "wechsel": 7522,
      "denke": 7523,
      "wood": 7524,
      "stunden": 7525,
      "übr": 7526,
      "got": 7527,
      "änderungsantrag": 7528,
      "isieren": 7529,
      "bestät": 7530,
      "broad": 7531,
      "took": 7532,
      "stic": 7533,
      "diskussion": 7534,
      "bestand": 7535,
      "langen": 7536,
      "complex": 7537,
      "dring": 7538,
      "öst": 7539,
      "remo": 7540,
      "elektr": 7541,
      "zudem": 7542,
      "package": 7543,
      "pfen": 7544,
      "sent": 7545,
      "love": 7546,
      "writing": 7547,
      "wählen": 7548,
      "rea": 7549,
      "forms": 7550,
      "kleine": 7551,
      "angenommen": 7552,
      "richtungen": 7553,
      "gelt": 7554,
      "bran": 7555,
      "aufgabe": 7556,
      "style": 7557,
      "ired": 7558,
      "effekt": 7559,
      "reib": 7560,
      "städ": 7561,
      "bio": 7562,
      "doppe": 7563,
      "concerning": 7564,
      "military": 7565,
      "kontroll": 7566,
      "strengthen": 7567,
      "umfang": 7568,
      "jobs": 7569,
      "beitrit": 7570,
      "hätte": 7571,
      "jedem": 7572,
      "richtig": 7573,
      "wachsen": 7574,
      "stage": 7575,
      "extern": 7576,
      "präsidenten": 7577,
      "programmes": 7578,
      "regarding": 7579,
      "scht": 7580,
      "bereiche": 7581,
      "cep": 7582,
      "limited": 7583,
      "haft": 7584,
      "construction": 7585,
      "attet": 7586,
      "scre": 7587,
      "ctors": 7588,
      "ency": 7589,
      "häu": 7590,
      "base": 7591,
      "objective": 7592,
      "igration": 7593,
      "colleag": 7594,
      "existing": 7595,
      "potential": 7596,
      "installation": 7597,
      "urspr": 7598,
      "flugh": 7599,
      "vereinigten": 7600,
      "player": 7601,
      "ell": 7602,
      "deleg": 7603,
      "path": 7604,
      "aden": 7605,
      "instead": 7606,
      "black": 7607,
      "hear": 7608,
      "plus": 7609,
      "ändert": 7610,
      "accommod": 7611,
      "agreements": 7612,
      "licht": 7613,
      "informations": 7614,
      "lässt": 7615,
      "bekämpfung": 7616,
      "agent": 7617,
      "uß": 7618,
      "ichten": 7619,
      "konnte": 7620,
      "sports": 7621,
      "format": 7622,
      "aufenth": 7623,
      "chines": 7624,
      "scient": 7625,
      "hind": 7626,
      "stoff": 7627,
      "anwend": 7628,
      "technologie": 7629,
      "equipment": 7630,
      "practice": 7631,
      "ersch": 7632,
      "confl": 7633,
      "absolute": 7634,
      "thern": 7635,
      "kel": 7636,
      "fuß": 7637,
      "beitrag": 7638,
      "usst": 7639,
      "impact": 7640,
      "turkey": 7641,
      "seas": 7642,
      "justice": 7643,
      "defen": 7644,
      "roy": 7645,
      "kla": 7646,
      "popular": 7647,
      "cou": 7648,
      "ony": 7649,
      "augen": 7650,
      "gerne": 7651,
      "doll": 7652,
      "appear": 7653,
      "population": 7654,
      "heißt": 7655,
      "hinsichtlich": 7656,
      "shar": 7657,
      "lose": 7658,
      "sag": 7659,
      "leistet": 7660,
      "ured": 7661,
      "veröffentlich": 7662,
      "similar": 7663,
      "mehrere": 7664,
      "simple": 7665,
      "wein": 7666,
      "enlarge": 7667,
      "creation": 7668,
      "cert": 7669,
      "mün": 7670,
      "gefähr": 7671,
      "ith": 7672,
      "änderung": 7673,
      "element": 7674,
      "concerns": 7675,
      "purch": 7676,
      "copy": 7677,
      "former": 7678,
      "gos": 7679,
      "capa": 7680,
      "dv": 7681,
      "büro": 7682,
      "plann": 7683,
      "engage": 7684,
      "auswahl": 7685,
      "established": 7686,
      "subsi": 7687,
      "bleibt": 7688,
      "300": 7689,
      "print": 7690,
      "includes": 7691,
      "wichtigen": 7692,
      "ukra": 7693,
      "portug": 7694,
      "symb": 7695,
      "decisions": 7696,
      "america": 7697,
      "completely": 7698,
      "besu": 7699,
      "iment": 7700,
      "gerichtet": 7701,
      "verg": 7702,
      "verstär": 7703,
      "quo": 7704,
      "gran": 7705,
      "onom": 7706,
      "wise": 7707,
      "rieben": 7708,
      "acqu": 7709,
      "gericht": 7710,
      "gip": 7711,
      "mitarbeiter": 7712,
      "konf": 7713,
      "unseres": 7714,
      "einheit": 7715,
      "satis": 7716,
      "stimme": 7717,
      "yor": 7718,
      "kräf": 7719,
      "meinen": 7720,
      "ganze": 7721,
      "cri": 7722,
      "ganzen": 7723,
      "below": 7724,
      "fällen": 7725,
      "applications": 7726,
      "beein": 7727,
      "perspe": 7728,
      "choice": 7729,
      "barce": 7730,
      "wochen": 7731,
      "aware": 7732,
      "verteid": 7733,
      "cript": 7734,
      "everyone": 7735,
      "reasons": 7736,
      "krank": 7737,
      "jul": 7738,
      "gast": 7739,
      "reiben": 7740,
      "wonder": 7741,
      "türkei": 7742,
      "spo": 7743,
      "bekommen": 7744,
      "tempor": 7745,
      "bay": 7746,
      "somit": 7747,
      "febru": 7748,
      "poor": 7749,
      "equipped": 7750,
      "gy": 7751,
      "kern": 7752,
      "sense": 7753,
      "modell": 7754,
      "ets": 7755,
      "alu": 7756,
      "consumer": 7757,
      "oblig": 7758,
      "iterr": 7759,
      "unfortun": 7760,
      "verständlich": 7761,
      "enor": 7762,
      "independ": 7763,
      "gemeinschafts": 7764,
      "prob": 7765,
      "agricultural": 7766,
      "bezüglich": 7767,
      "bestimmungen": 7768,
      "allows": 7769,
      "fix": 7770,
      "amera": 7771,
      "überwach": 7772,
      "igte": 7773,
      "choose": 7774,
      "dung": 7775,
      "universit": 7776,
      "meines": 7777,
      "sky": 7778,
      "external": 7779,
      "recently": 7780,
      "dez": 7781,
      "könig": 7782,
      "kulture": 7783,
      "oil": 7784,
      "summer": 7785,
      "credit": 7786,
      "31": 7787,
      "schlussel": 7788,
      "values": 7789,
      "anfang": 7790,
      "stör": 7791,
      "reports": 7792,
      "ires": 7793,
      "white": 7794,
      "atic": 7795,
      "sieht": 7796,
      "krimin": 7797,
      "balance": 7798,
      "regular": 7799,
      "koordin": 7800,
      "conclus": 7801,
      "hom": 7802,
      "gress": 7803,
      "erweiterung": 7804,
      "ni": 7805,
      "generation": 7806,
      "lager": 7807,
      "counter": 7808,
      "objectives": 7809,
      "influ": 7810,
      "wirtschaftliche": 7811,
      "entschließung": 7812,
      "gangs": 7813,
      "middle": 7814,
      "französ": 7815,
      "gült": 7816,
      "iko": 7817,
      "bedarf": 7818,
      "spac": 7819,
      "export": 7820,
      "learn": 7821,
      "militär": 7822,
      "manager": 7823,
      "guarante": 7824,
      "stam": 7825,
      "spend": 7826,
      "relev": 7827,
      "präsidentschaft": 7828,
      "graf": 7829,
      "brow": 7830,
      "benefit": 7831,
      "materials": 7832,
      "fisher": 7833,
      "goods": 7834,
      "efficient": 7835,
      "assess": 7836,
      "desp": 7837,
      "floor": 7838,
      "temper": 7839,
      "barcelon": 7840,
      "bind": 7841,
      "frankreich": 7842,
      "istrat": 7843,
      "veh": 7844,
      "distribution": 7845,
      "received": 7846,
      "künst": 7847,
      "pil": 7848,
      "196": 7849,
      "treatment": 7850,
      "mediterr": 7851,
      "konzentr": 7852,
      "ny": 7853,
      "telefon": 7854,
      "esh": 7855,
      "dauer": 7856,
      "barkeit": 7857,
      "körper": 7858,
      "koll": 7859,
      "sibil": 7860,
      "alte": 7861,
      "ausch": 7862,
      "grie": 7863,
      "lisbon": 7864,
      "soph": 7865,
      "zielen": 7866,
      "stability": 7867,
      "zah": 7868,
      "corpor": 7869,
      "aufzu": 7870,
      "hohe": 7871,
      "ric": 7872,
      "hm": 7873,
      "swit": 7874,
      "zz": 7875,
      "exhib": 7876,
      "familie": 7877,
      "mai": 7878,
      "phys": 7879,
      "anno": 7880,
      "verwenden": 7881,
      "foot": 7882,
      "anlagen": 7883,
      "komfort": 7884,
      "aktivitäten": 7885,
      "erlau": 7886,
      "pag": 7887,
      "bab": 7888,
      "instruments": 7889,
      "door": 7890,
      "traffic": 7891,
      "size": 7892,
      "rig": 7893,
      "gerecht": 7894,
      "spezif": 7895,
      "bedür": 7896,
      "linux": 7897,
      "genießen": 7898,
      "added": 7899,
      "projekte": 7900,
      "ón": 7901,
      "debian": 7902,
      "ond": 7903,
      "prem": 7904,
      "bir": 7905,
      "experien": 7906,
      "antic": 7907,
      "ological": 7908,
      "administrat": 7909,
      "mac": 7910,
      "discover": 7911,
      "iso": 7912,
      "wichtigsten": 7913,
      "verwendung": 7914,
      "ider": 7915,
      "freien": 7916,
      "ergebnisse": 7917,
      "symbol": 7918,
      "woche": 7919,
      "verbesserung": 7920,
      "nungs": 7921,
      "öster": 7922,
      "gesundheits": 7923,
      "angemessen": 7924,
      "jugend": 7925,
      "ären": 7926,
      "tools": 7927,
      "dimension": 7928,
      "marketing": 7929,
      "beschäftigung": 7930,
      "irgend": 7931,
      "tagen": 7932,
      "stellungen": 7933,
      "wobei": 7934,
      "arm": 7935,
      "ml": 7936,
      "bestell": 7937,
      "radio": 7938,
      "quickly": 7939,
      "erung": 7940,
      "despite": 7941,
      "lass": 7942,
      "erzeu": 7943,
      "pi": 7944,
      "lam": 7945,
      "university": 7946,
      "aufbau": 7947,
      "einzig": 7948,
      "ferien": 7949,
      "rang": 7950,
      "fördern": 7951,
      "ries": 7952,
      "technik": 7953,
      "adap": 7954,
      "lissab": 7955,
      "successful": 7956,
      "governments": 7957,
      "enthält": 7958,
      "arbeitnehmer": 7959,
      "swim": 7960,
      "depart": 7961,
      "krieg": 7962,
      "dialogue": 7963,
      "shows": 7964,
      "partei": 7965,
      "gg": 7966,
      "interpre": 7967,
      "revol": 7968,
      "nations": 7969,
      "huge": 7970,
      "entwickeln": 7971,
      "frequ": 7972,
      "brid": 7973,
      "guten": 7974,
      "commercial": 7975,
      "suche": 7976,
      "aust": 7977,
      "bern": 7978,
      "congratul": 7979,
      "section": 7980,
      "ature": 7981,
      "geeig": 7982,
      "promise": 7983,
      "kürz": 7984,
      "desk": 7985,
      "nuclear": 7986,
      "russland": 7987,
      "organisationen": 7988,
      "höhe": 7989,
      "barcelona": 7990,
      "carry": 7991,
      "lissabon": 7992,
      "highly": 7993,
      "uren": 7994,
      "straße": 7995,
      "tres": 7996,
      "levels": 7997,
      "mountain": 7998,
      "mä": 7999,
      "circ": 8000,
      "anforderungen": 8001,
      "betroffen": 8002,
      "contains": 8003,
      "placed": 8004,
      "join": 8005,
      "bewert": 8006,
      "beginning": 8007,
      "gerä": 8008,
      "deliver": 8009,
      "anzahl": 8010,
      "warm": 8011,
      "ya": 8012,
      "places": 8013,
      "auftrag": 8014,
      "ume": 8015,
      "sustainable": 8016,
      "labour": 8017,
      "handen": 8018,
      "sommer": 8019,
      "games": 8020,
      "kred": 8021,
      "ermöglichen": 8022,
      "gründen": 8023,
      "insgesamt": 8024,
      "medien": 8025,
      "june": 8026,
      "fälle": 8027,
      "highl": 8028,
      "ush": 8029,
      "consumers": 8030,
      "umgebung": 8031,
      "usion": 8032,
      "öhn": 8033,
      "essern": 8034,
      "genannten": 8035,
      "plat": 8036,
      "klicken": 8037,
      "condu": 8038,
      "stag": 8039,
      "arten": 8040,
      "tte": 8041,
      "vari": 8042,
      "thin": 8043,
      "supply": 8044,
      "audio": 8045,
      "speich": 8046,
      "paper": 8047,
      "ktionen": 8048,
      "enterprise": 8049,
      "ift": 8050,
      "seems": 8051,
      "erach": 8052,
      "ends": 8053,
      "hall": 8054,
      "achieved": 8055,
      "chair": 8056,
      "steller": 8057,
      "arab": 8058,
      "discuss": 8059,
      "rä": 8060,
      "princi": 8061,
      "republic": 8062,
      "pel": 8063,
      "behandlung": 8064,
      "deutschen": 8065,
      "nes": 8066,
      "achen": 8067,
      "belg": 8068,
      "hoff": 8069,
      "higher": 8070,
      "gold": 8071,
      "vorhanden": 8072,
      "ziert": 8073,
      "direction": 8074,
      "numer": 8075,
      "übrigen": 8076,
      "march": 8077,
      "soziale": 8078,
      "afen": 8079,
      "wann": 8080,
      "nachdem": 8081,
      "allgemeinen": 8082,
      "karten": 8083,
      "happ": 8084,
      "beschrän": 8085,
      "gelegenheit": 8086,
      "samm": 8087,
      "asked": 8088,
      "closed": 8089,
      "österreich": 8090,
      "ätzen": 8091,
      "increased": 8092,
      "deta": 8093,
      "erweise": 8094,
      "bey": 8095,
      "innovative": 8096,
      "attem": 8097,
      "urlaub": 8098,
      "setting": 8099,
      "fru": 8100,
      "hoben": 8101,
      "heil": 8102,
      "nr": 8103,
      "sate": 8104,
      "völlig": 8105,
      "ery": 8106,
      "amster": 8107,
      "study": 8108,
      "york": 8109,
      "regime": 8110,
      "leb": 8111,
      "rechen": 8112,
      "amsterdam": 8113,
      "summit": 8114,
      "schließend": 8115,
      "flor": 8116,
      "uses": 8117,
      "vergleich": 8118,
      "eigene": 8119,
      "ähn": 8120,
      "property": 8121,
      "allein": 8122,
      "anspruch": 8123,
      "ption": 8124,
      "pes": 8125,
      "klass": 8126,
      "grundlegen": 8127,
      "relevant": 8128,
      "zahlreiche": 8129,
      "großer": 8130,
      "bilder": 8131,
      "wettbewerb": 8132,
      "ously": 8133,
      "verbessern": 8134,
      "leader": 8135,
      "sofort": 8136,
      "iveness": 8137,
      "xis": 8138,
      "ini": 8139,
      "vehic": 8140,
      "reviews": 8141,
      "maschin": 8142,
      "keyword": 8143,
      "sech": 8144,
      "village": 8145,
      "hle": 8146,
      "lernen": 8147,
      "gnis": 8148,
      "evalu": 8149,
      "principles": 8150,
      "herzen": 8151,
      "neigh": 8152,
      "coast": 8153,
      "häre": 8154,
      "dienste": 8155,
      "effects": 8156,
      "lesen": 8157,
      "whose": 8158,
      "minder": 8159,
      "drive": 8160,
      "bese": 8161,
      "agreed": 8162,
      "notwendigkeit": 8163,
      "doppel": 8164,
      "worth": 8165,
      "spar": 8166,
      "gefunden": 8167,
      "dennoch": 8168,
      "child": 8169,
      "danger": 8170,
      "erfahrung": 8171,
      "accommodation": 8172,
      "correct": 8173,
      "fran": 8174,
      "fine": 8175,
      "limit": 8176,
      "opportunities": 8177,
      "achten": 8178,
      "unfortunately": 8179,
      "master": 8180,
      "prefer": 8181,
      "gehören": 8182,
      "garten": 8183,
      "possibility": 8184,
      "theless": 8185,
      "carried": 8186,
      "ational": 8187,
      "schlagen": 8188,
      "statist": 8189,
      "obvious": 8190,
      "gesamte": 8191,
      "zeitpunkt": 8192,
      "wenden": 8193,
      "behind": 8194,
      "legit": 8195,
      "esten": 8196,
      "administr": 8197,
      "stark": 8198,
      "ahme": 8199,
      "sprachen": 8200,
      "verfügen": 8201,
      "eing": 8202,
      "nav": 8203,
      "ziell": 8204,
      "anders": 8205,
      "medium": 8206,
      "republik": 8207,
      "rü": 8208,
      "sar": 8209,
      "submitted": 8210,
      "damage": 8211,
      "ruh": 8212,
      "suite": 8213,
      "reading": 8214,
      "einführung": 8215,
      "arrange": 8216,
      "pressed": 8217,
      "günst": 8218,
      "versuchen": 8219,
      "resort": 8220,
      "commitment": 8221,
      "inen": 8222,
      "considered": 8223,
      "went": 8224,
      "concept": 8225,
      "klus": 8226,
      "gewicht": 8227,
      "diskut": 8228,
      "regierungen": 8229,
      "vollen": 8230,
      "dipl": 8231,
      "vorher": 8232,
      "bewusst": 8233,
      "buffe": 8234,
      "written": 8235,
      "matters": 8236,
      "hü": 8237,
      "größten": 8238,
      "categor": 8239,
      "geist": 8240,
      "ips": 8241,
      "spann": 8242,
      "liebe": 8243,
      "meinem": 8244,
      "dienen": 8245,
      "independent": 8246,
      "plain": 8247,
      "verhalten": 8248,
      "conven": 8249,
      "draft": 8250,
      "talk": 8251,
      "amt": 8252,
      "exclusive": 8253,
      "gesprochen": 8254,
      "response": 8255,
      "bewertungen": 8256,
      "ney": 8257,
      "capacity": 8258,
      "länger": 8259,
      "datei": 8260,
      "screen": 8261,
      "sourcen": 8262,
      "plans": 8263,
      "verstehen": 8264,
      "obtain": 8265,
      "ford": 8266,
      "mäßig": 8267,
      "minute": 8268,
      "aspects": 8269,
      "providing": 8270,
      "emer": 8271,
      "record": 8272,
      "shops": 8273,
      "straßen": 8274,
      "listen": 8275,
      "32": 8276,
      "spain": 8277,
      "imp": 8278,
      "prehen": 8279,
      "domin": 8280,
      "italy": 8281,
      "latest": 8282,
      "dient": 8283,
      "koso": 8284,
      "spirit": 8285,
      "gewis": 8286,
      "mie": 8287,
      "pressure": 8288,
      "shown": 8289,
      "billion": 8290,
      "stands": 8291,
      "promote": 8292,
      "prepar": 8293,
      "suffer": 8294,
      "bestimmte": 8295,
      "rought": 8296,
      "eindeut": 8297,
      "letter": 8298,
      "hostel": 8299,
      "err": 8300,
      "verse": 8301,
      "36": 8302,
      "gi": 8303,
      "fält": 8304,
      "mehrheit": 8305,
      "prepared": 8306,
      "ledig": 8307,
      "buy": 8308,
      "ills": 8309,
      "maschinen": 8310,
      "schweiz": 8311,
      "charge": 8312,
      "kenn": 8313,
      "islam": 8314,
      "nic": 8315,
      "woll": 8316,
      "rede": 8317,
      "öffnet": 8318,
      "forum": 8319,
      "sufficient": 8320,
      "wirksam": 8321,
      "zweite": 8322,
      "binnenmarkt": 8323,
      "tourist": 8324,
      "kriter": 8325,
      "zielt": 8326,
      "ns": 8327,
      "movement": 8328,
      "lediglich": 8329,
      "track": 8330,
      "este": 8331,
      "mediterrane": 8332,
      "pension": 8333,
      "verwaltung": 8334,
      "easily": 8335,
      "sq": 8336,
      "preci": 8337,
      "erklärung": 8338,
      "pap": 8339,
      "übernach": 8340,
      "äst": 8341,
      "ehm": 8342,
      "fähig": 8343,
      "schriftlich": 8344,
      "hous": 8345,
      "unsch": 8346,
      "vertreten": 8347,
      "erster": 8348,
      "mented": 8349,
      "bert": 8350,
      "enlargement": 8351,
      "ases": 8352,
      "precise": 8353,
      "besitz": 8354,
      "inhalt": 8355,
      "italian": 8356,
      "iffe": 8357,
      "swimming": 8358,
      "wesen": 8359,
      "artige": 8360,
      "ausschuß": 8361,
      "ckt": 8362,
      "review": 8363,
      "bewe": 8364,
      "äußerst": 8365,
      "atmosphere": 8366,
      "sole": 8367,
      "waffen": 8368,
      "erkennen": 8369,
      "client": 8370,
      "az": 8371,
      "hören": 8372,
      "leave": 8373,
      "regulations": 8374,
      "zivil": 8375,
      "employe": 8376,
      "phase": 8377,
      "assistance": 8378,
      "flow": 8379,
      "ram": 8380,
      "keits": 8381,
      "pression": 8382,
      "entscheidungen": 8383,
      "bundes": 8384,
      "nungen": 8385,
      "reached": 8386,
      "africa": 8387,
      "asyl": 8388,
      "atl": 8389,
      "criter": 8390,
      "reduce": 8391,
      "protect": 8392,
      "late": 8393,
      "ograph": 8394,
      "protokoll": 8395,
      "1998": 8396,
      "diplom": 8397,
      "produced": 8398,
      "mains": 8399,
      "kontin": 8400,
      "beob": 8401,
      "renov": 8402,
      "zeuge": 8403,
      "versor": 8404,
      "priority": 8405,
      "decided": 8406,
      "ault": 8407,
      "ante": 8408,
      "bege": 8409,
      "virt": 8410,
      "getr": 8411,
      "teu": 8412,
      "kapital": 8413,
      "stress": 8414,
      "konfli": 8415,
      "vorzu": 8416,
      "trägt": 8417,
      "signal": 8418,
      "thous": 8419,
      "fehlen": 8420,
      "comprehen": 8421,
      "küche": 8422,
      "rene": 8423,
      "quiet": 8424,
      "stet": 8425,
      "arily": 8426,
      "glauben": 8427,
      "befür": 8428,
      "akter": 8429,
      "wine": 8430,
      "british": 8431,
      "empfehl": 8432,
      "tas": 8433,
      "purpose": 8434,
      "konstru": 8435,
      "iens": 8436,
      "announ": 8437,
      "ads": 8438,
      "gewährleisten": 8439,
      "banken": 8440,
      "bringt": 8441,
      "partnership": 8442,
      "lok": 8443,
      "beschl": 8444,
      "december": 8445,
      "legung": 8446,
      "creating": 8447,
      "gefahr": 8448,
      "erheb": 8449,
      "structural": 8450,
      "funding": 8451,
      "erfahren": 8452,
      "gerichte": 8453,
      "verz": 8454,
      "shopping": 8455,
      "ari": 8456,
      "lake": 8457,
      "ukraine": 8458,
      "ausgestattet": 8459,
      "secre": 8460,
      "uted": 8461,
      "lled": 8462,
      "vertreter": 8463,
      "danke": 8464,
      "wesentlich": 8465,
      "standing": 8466,
      "unternehmens": 8467,
      "uk": 8468,
      "wto": 8469,
      "vorliegen": 8470,
      "tritt": 8471,
      "wahrschein": 8472,
      "gives": 8473,
      "divers": 8474,
      "architect": 8475,
      "sales": 8476,
      "rechnung": 8477,
      "shof": 8478,
      "investitionen": 8479,
      "dir": 8480,
      "bestimmten": 8481,
      "message": 8482,
      "gebäude": 8483,
      "perform": 8484,
      "kommissarin": 8485,
      "verhältnis": 8486,
      "association": 8487,
      "48": 8488,
      "altungs": 8489,
      "jahrhundert": 8490,
      "aufgaben": 8491,
      "tier": 8492,
      "sitzen": 8493,
      "supported": 8494,
      "contract": 8495,
      "buffet": 8496,
      "cia": 8497,
      "reli": 8498,
      "dise": 8499,
      "offiz": 8500,
      "jün": 8501,
      "surround": 8502,
      "wurf": 8503,
      "amen": 8504,
      "remains": 8505,
      "fläche": 8506,
      "legislative": 8507,
      "pic": 8508,
      "einrichtungen": 8509,
      "voc": 8510,
      "task": 8511,
      "deutsche": 8512,
      "stoffe": 8513,
      "75": 8514,
      "kosovo": 8515,
      "annual": 8516,
      "ressourcen": 8517,
      "einschließlich": 8518,
      "else": 8519,
      "activity": 8520,
      "zweitens": 8521,
      "alp": 8522,
      "erhält": 8523,
      "alb": 8524,
      "vital": 8525,
      "setzungen": 8526,
      "schnitt": 8527,
      "eigentlich": 8528,
      "repe": 8529,
      "aul": 8530,
      "fishing": 8531,
      "steps": 8532,
      "payment": 8533,
      "cement": 8534,
      "selbstverständlich": 8535,
      "statement": 8536,
      "lern": 8537,
      "ansatz": 8538,
      "komplex": 8539,
      "oben": 8540,
      "technologies": 8541,
      "betrieb": 8542,
      "antworten": 8543,
      "dinge": 8544,
      "aking": 8545,
      "sibilities": 8546,
      "aufgenommen": 8547,
      "wandel": 8548,
      "verletz": 8549,
      "führer": 8550,
      "parking": 8551,
      "encourage": 8552,
      "ased": 8553,
      "erachtens": 8554,
      "glück": 8555,
      "cape": 8556,
      "rand": 8557,
      "square": 8558,
      "berichts": 8559,
      "fresh": 8560,
      "zufrieden": 8561,
      "satell": 8562,
      "plen": 8563,
      "furthermore": 8564,
      "thousand": 8565,
      "pover": 8566,
      "dev": 8567,
      "mix": 8568,
      "browser": 8569,
      "vorgesehen": 8570,
      "produce": 8571,
      "einzige": 8572,
      "jud": 8573,
      "paar": 8574,
      "landwirtschaft": 8575,
      "firma": 8576,
      "feed": 8577,
      "presents": 8578,
      "fab": 8579,
      "measure": 8580,
      "somet": 8581,
      "fried": 8582,
      "iation": 8583,
      "secure": 8584,
      "kennen": 8585,
      "month": 8586,
      "fortschritte": 8587,
      "iency": 8588,
      "patient": 8589,
      "vorbereit": 8590,
      "fischerei": 8591,
      "rock": 8592,
      "ständigen": 8593,
      "konzept": 8594,
      "sonst": 8595,
      "freie": 8596,
      "illegal": 8597,
      "acceptable": 8598,
      "ghan": 8599,
      "ierter": 8600,
      "scen": 8601,
      "effizien": 8602,
      "sage": 8603,
      "erkann": 8604,
      "bulgar": 8605,
      "fts": 8606,
      "studi": 8607,
      "dezember": 8608,
      "astrop": 8609,
      "nive": 8610,
      "pointed": 8611,
      "sagte": 8612,
      "schiff": 8613,
      "spieler": 8614,
      "minimum": 8615,
      "folgenden": 8616,
      "antly": 8617,
      "mente": 8618,
      "minor": 8619,
      "fassen": 8620,
      "sort": 8621,
      "conclu": 8622,
      "paid": 8623,
      "mers": 8624,
      "cities": 8625,
      "ology": 8626,
      "gebü": 8627,
      "ateral": 8628,
      "cul": 8629,
      "flughafen": 8630,
      "erreich": 8631,
      "compon": 8632,
      "lower": 8633,
      "dateien": 8634,
      "werke": 8635,
      "tom": 8636,
      "brought": 8637,
      "official": 8638,
      "administration": 8639,
      "january": 8640,
      "leitet": 8641,
      "mediterranean": 8642,
      "anzen": 8643,
      "blue": 8644,
      "largest": 8645,
      "revolution": 8646,
      "solidarity": 8647,
      "ites": 8648,
      "relationship": 8649,
      "october": 8650,
      "untersuch": 8651,
      "map": 8652,
      "ierenden": 8653,
      "gott": 8654,
      "types": 8655,
      "wahlen": 8656,
      "river": 8657,
      "interesting": 8658,
      "discussion": 8659,
      "wunsch": 8660,
      "berat": 8661,
      "categories": 8662,
      "release": 8663,
      "tp": 8664,
      "schlüssel": 8665,
      "solchen": 8666,
      "uz": 8667,
      "variety": 8668,
      "häufig": 8669,
      "kombin": 8670,
      "ursprün": 8671,
      "cha": 8672,
      "bahnhof": 8673,
      "beide": 8674,
      "afghan": 8675,
      "build": 8676,
      "aufnahme": 8677,
      "nommen": 8678,
      "decken": 8679,
      "monitoring": 8680,
      "jur": 8681,
      "avoid": 8682,
      "anfrage": 8683,
      "journal": 8684,
      "distance": 8685,
      "reisen": 8686,
      "wirken": 8687,
      "pleased": 8688,
      "deten": 8689,
      "touch": 8690,
      "agency": 8691,
      "leute": 8692,
      "wid": 8693,
      "gering": 8694,
      "giving": 8695,
      "aktionen": 8696,
      "mes": 8697,
      "conv": 8698,
      "keiner": 8699,
      "tains": 8700,
      "brief": 8701,
      "secondly": 8702,
      "aufenthalt": 8703,
      "ering": 8704,
      "caf": 8705,
      "patent": 8706,
      "lehr": 8707,
      "agriculture": 8708,
      "europäischer": 8709,
      "vertrauen": 8710,
      "integrated": 8711,
      "happy": 8712,
      "operations": 8713,
      "curren": 8714,
      "diejenigen": 8715,
      "friends": 8716,
      "spanish": 8717,
      "forget": 8718,
      "gebaut": 8719,
      "standpunkt": 8720,
      "vergessen": 8721,
      "aren": 8722,
      "historical": 8723,
      "operating": 8724,
      "sometimes": 8725,
      "won": 8726,
      "nacht": 8727,
      "equal": 8728,
      "krit": 8729,
      "falt": 8730,
      "parteien": 8731,
      "rot": 8732,
      "definition": 8733,
      "intell": 8734,
      "ref": 8735,
      "verbre": 8736,
      "hour": 8737,
      "craft": 8738,
      "images": 8739,
      "kolle": 8740,
      "abend": 8741,
      "cc": 8742,
      "telle": 8743,
      "liter": 8744,
      "subsidi": 8745,
      "daily": 8746,
      "rum": 8747,
      "became": 8748,
      "38": 8749,
      "launch": 8750,
      "jun": 8751,
      "iber": 8752,
      "death": 8753,
      "vergangenen": 8754,
      "hot": 8755,
      "documents": 8756,
      "boden": 8757,
      "ality": 8758,
      "emal": 8759,
      "procedures": 8760,
      "regards": 8761,
      "temporary": 8762,
      "märz": 8763,
      "hause": 8764,
      "adem": 8765,
      "moreover": 8766,
      "moderne": 8767,
      "frem": 8768,
      "bear": 8769,
      "demokratischen": 8770,
      "wol": 8771,
      "violence": 8772,
      "exact": 8773,
      "dol": 8774,
      "bezogen": 8775,
      "gram": 8776,
      "berecht": 8777,
      "oktober": 8778,
      "started": 8779,
      "ille": 8780,
      "advantage": 8781,
      "lösen": 8782,
      "consist": 8783,
      "wenige": 8784,
      "metro": 8785,
      "verring": 8786,
      "jem": 8787,
      "scientific": 8788,
      "teach": 8789,
      "expen": 8790,
      "tent": 8791,
      "firmen": 8792,
      "allowed": 8793,
      "machine": 8794,
      "kategorien": 8795,
      "effort": 8796,
      "istische": 8797,
      "agrar": 8798,
      "forschungs": 8799,
      "öffentliche": 8800,
      "braucht": 8801,
      "options": 8802,
      "erinn": 8803,
      "elements": 8804,
      "roh": 8805,
      "lob": 8806,
      "niedr": 8807,
      "roll": 8808,
      "dict": 8809,
      "meter": 8810,
      "aufmerksamkeit": 8811,
      "organisations": 8812,
      "transit": 8813,
      "juli": 8814,
      "wege": 8815,
      "nummer": 8816,
      "resse": 8817,
      "98": 8818,
      "firstly": 8819,
      "numerous": 8820,
      "wellness": 8821,
      "beyond": 8822,
      "ereign": 8823,
      "ausführ": 8824,
      "effic": 8825,
      "clients": 8826,
      "provisions": 8827,
      "forces": 8828,
      "church": 8829,
      "philo": 8830,
      "df": 8831,
      "beschreib": 8832,
      "geber": 8833,
      "accep": 8834,
      "festival": 8835,
      "geln": 8836,
      "analysis": 8837,
      "gewöhn": 8838,
      "ories": 8839,
      "dates": 8840,
      "institutional": 8841,
      "praxis": 8842,
      "mous": 8843,
      "ützen": 8844,
      "accord": 8845,
      "compromise": 8846,
      "valle": 8847,
      "finanzierung": 8848,
      "transparency": 8849,
      "euch": 8850,
      "oly": 8851,
      "rechten": 8852,
      "multi": 8853,
      "ques": 8854,
      "psy": 8855,
      "verantwortlich": 8856,
      "lives": 8857,
      "contribution": 8858,
      "utt": 8859,
      "expe": 8860,
      "wichtiger": 8861,
      "sn": 8862,
      "serve": 8863,
      "unmittel": 8864,
      "nöt": 8865,
      "angeboten": 8866,
      "früher": 8867,
      "transparenz": 8868,
      "july": 8869,
      "ktive": 8870,
      "paket": 8871,
      "ausgaben": 8872,
      "served": 8873,
      "34": 8874,
      "schreiben": 8875,
      "hit": 8876,
      "erwarten": 8877,
      "elektron": 8878,
      "gers": 8879,
      "bedürf": 8880,
      "itation": 8881,
      "starting": 8882,
      "dence": 8883,
      "dritt": 8884,
      "01": 8885,
      "dollar": 8886,
      "schw": 8887,
      "versicher": 8888,
      "sämt": 8889,
      "poverty": 8890,
      "spun": 8891,
      "portugal": 8892,
      "dorf": 8893,
      "kräfte": 8894,
      "genu": 8895,
      "1997": 8896,
      "nationen": 8897,
      "ara": 8898,
      "vorsitz": 8899,
      "gästebewertungen": 8900,
      "zweck": 8901,
      "zeichnung": 8902,
      "isol": 8903,
      "poses": 8904,
      "produkten": 8905,
      "erstens": 8906,
      "maximum": 8907,
      "cook": 8908,
      "ially": 8909,
      "ato": 8910,
      "info": 8911,
      "märkte": 8912,
      "sache": 8913,
      "perman": 8914,
      "kriterien": 8915,
      "auern": 8916,
      "immediately": 8917,
      "zt": 8918,
      "criteria": 8919,
      "regierungs": 8920,
      "konnten": 8921,
      "eingesetzt": 8922,
      "laufen": 8923,
      "reality": 8924,
      "kredit": 8925,
      "äne": 8926,
      "wald": 8927,
      "wee": 8928,
      "tete": 8929,
      "tourism": 8930,
      "applied": 8931,
      "rapid": 8932,
      "stärker": 8933,
      "formul": 8934,
      "tagesordnung": 8935,
      "schwar": 8936,
      "betreffen": 8937,
      "sätze": 8938,
      "ourselves": 8939,
      "adresse": 8940,
      "grü": 8941,
      "ieb": 8942,
      "bemühungen": 8943,
      "offering": 8944,
      "session": 8945,
      "itude": 8946,
      "growing": 8947,
      "benefits": 8948,
      "pful": 8949,
      "katastrop": 8950,
      "occur": 8951,
      "charakter": 8952,
      "guard": 8953,
      "fand": 8954,
      "helpful": 8955,
      "leiten": 8956,
      "employees": 8957,
      "kilome": 8958,
      "vas": 8959,
      "zert": 8960,
      "studio": 8961,
      "verabsch": 8962,
      "historic": 8963,
      "cin": 8964,
      "beziehen": 8965,
      "größte": 8966,
      "ausdrück": 8967,
      "monetary": 8968,
      "37": 8969,
      "pricht": 8970,
      "persons": 8971,
      "morrow": 8972,
      "menu": 8973,
      "benötigen": 8974,
      "durchgeführt": 8975,
      "highest": 8976,
      "heav": 8977,
      "bein": 8978,
      "color": 8979,
      "januar": 8980,
      "holz": 8981,
      "luß": 8982,
      "dvd": 8983,
      "höher": 8984,
      "bürgern": 8985,
      "earth": 8986,
      "fill": 8987,
      "programms": 8988,
      "atom": 8989,
      "goes": 8990,
      "watch": 8991,
      "pfl": 8992,
      "bilden": 8993,
      "kompro": 8994,
      "conflict": 8995,
      "verme": 8996,
      "aktuellen": 8997,
      "monaten": 8998,
      "armut": 8999,
      "bathroom": 9000,
      "sinne": 9001,
      "funktionen": 9002,
      "reference": 9003,
      "öffentlichkeit": 9004,
      "heben": 9005,
      "analyse": 9006,
      "lebensmittel": 9007,
      "sorge": 9008,
      "occas": 9009,
      "gaz": 9010,
      "äl": 9011,
      "ista": 9012,
      "ech": 9013,
      "casino": 9014,
      "para": 9015,
      "geleg": 9016,
      "stable": 9017,
      "emissions": 9018,
      "gipfel": 9019,
      "steigen": 9020,
      "tomorrow": 9021,
      "iraq": 9022,
      "ergän": 9023,
      "bag": 9024,
      "players": 9025,
      "ero": 9026,
      "science": 9027,
      "infl": 9028,
      "useful": 9029,
      "getan": 9030,
      "spit": 9031,
      "ax": 9032,
      "würdig": 9033,
      "cription": 9034,
      "lück": 9035,
      "mere": 9036,
      "kannst": 9037,
      "poker": 9038,
      "humanit": 9039,
      "langfrist": 9040,
      "target": 9041,
      "pak": 9042,
      "existen": 9043,
      "expert": 9044,
      "elections": 9045,
      "challenges": 9046,
      "auffassung": 9047,
      "processes": 9048,
      "walking": 9049,
      "advert": 9050,
      "ley": 9051,
      "comprehensive": 9052,
      "practical": 9053,
      "lost": 9054,
      "griffen": 9055,
      "challenge": 9056,
      "eher": 9057,
      "geworden": 9058,
      "és": 9059,
      "onnen": 9060,
      "absicht": 9061,
      "exception": 9062,
      "gla": 9063,
      "zeichnen": 9064,
      "terrorism": 9065,
      "lizen": 9066,
      "thought": 9067,
      "erneut": 9068,
      "ützt": 9069,
      "gebieten": 9070,
      "urance": 9071,
      "nachbar": 9072,
      "era": 9073,
      "adjust": 9074,
      "freuen": 9075,
      "waste": 9076,
      "bett": 9077,
      "select": 9078,
      "geschaffen": 9079,
      "richtige": 9080,
      "ique": 9081,
      "technischen": 9082,
      "izin": 9083,
      "unten": 9084,
      "400": 9085,
      "blog": 9086,
      "schönen": 9087,
      "99": 9088,
      "sonder": 9089,
      "victim": 9090,
      "opfer": 9091,
      "bauen": 9092,
      "immobil": 9093,
      "ky": 9094,
      "ai": 9095,
      "achtung": 9096,
      "wiss": 9097,
      "begrenz": 9098,
      "kro": 9099,
      "colleagues": 9100,
      "feu": 9101,
      "comb": 9102,
      "sitzung": 9103,
      "sechs": 9104,
      "fein": 9105,
      "150": 9106,
      "foundation": 9107,
      "pictures": 9108,
      "beau": 9109,
      "leitung": 9110,
      "taus": 9111,
      "cohes": 9112,
      "exer": 9113,
      "collection": 9114,
      "opposition": 9115,
      "kurs": 9116,
      "update": 9117,
      "hi": 9118,
      "rain": 9119,
      "parame": 9120,
      "federal": 9121,
      "fish": 9122,
      "parag": 9123,
      "bren": 9124,
      "ideas": 9125,
      "radi": 9126,
      "saying": 9127,
      "kenntnis": 9128,
      "campa": 9129,
      "mechanis": 9130,
      "adr": 9131,
      "vac": 9132,
      "consequences": 9133,
      "33": 9134,
      "austria": 9135,
      "bürgerinnen": 9136,
      "adequ": 9137,
      "entsprechend": 9138,
      "wagen": 9139,
      "goog": 9140,
      "fasst": 9141,
      "cis": 9142,
      "mittler": 9143,
      "palest": 9144,
      "kitchen": 9145,
      "wortern": 9146,
      "hilfen": 9147,
      "neighbour": 9148,
      "eastern": 9149,
      "prozent": 9150,
      "mex": 9151,
      "poll": 9152,
      "wiederhol": 9153,
      "otherwise": 9154,
      "zweifel": 9155,
      "verstanden": 9156,
      "vul": 9157,
      "einrichtung": 9158,
      "medic": 9159,
      "efficiency": 9160,
      "born": 9161,
      "begrüße": 9162,
      "rural": 9163,
      "deine": 9164,
      "hund": 9165,
      "künstler": 9166,
      "ione": 9167,
      "beitragen": 9168,
      "entsprechenden": 9169,
      "entdeck": 9170,
      "gesche": 9171,
      "offered": 9172,
      "aspekte": 9173,
      "entwurf": 9174,
      "microsoft": 9175,
      "zuver": 9176,
      "published": 9177,
      "bildungs": 9178,
      "idi": 9179,
      "atmosphäre": 9180,
      "fitness": 9181,
      "delegation": 9182,
      "produktions": 9183,
      "afrika": 9184,
      "wanted": 9185,
      "worldwide": 9186,
      "sammlung": 9187,
      "begin": 9188,
      "betriebs": 9189,
      "welches": 9190,
      "herstellung": 9191,
      "pursu": 9192,
      "boot": 9193,
      "voting": 9194,
      "sichern": 9195,
      "hätten": 9196,
      "behalten": 9197,
      "genutz": 9198,
      "modified": 9199,
      "trägen": 9200,
      "zuführen": 9201,
      "wirkung": 9202,
      "panor": 9203,
      "kommunikation": 9204,
      "reduction": 9205,
      "spannen": 9206,
      "ausgezeich": 9207,
      "umb": 9208,
      "medizin": 9209,
      "behandelt": 9210,
      "schöne": 9211,
      "haushalt": 9212,
      "bedingt": 9213,
      "google": 9214,
      "tief": 9215,
      "button": 9216,
      "bars": 9217,
      "quis": 9218,
      "gren": 9219,
      "semin": 9220,
      "campaign": 9221,
      "paläst": 9222,
      "decor": 9223,
      "colour": 9224,
      "besuchen": 9225,
      "prime": 9226,
      "requires": 9227,
      "morning": 9228,
      "verhindern": 9229,
      "fügen": 9230,
      "schlusselwortern": 9231,
      "weeks": 9232,
      "php": 9233,
      "terrace": 9234,
      "trust": 9235,
      "irak": 9236,
      "erfolgt": 9237,
      "discrimin": 9238,
      "gewesen": 9239,
      "languages": 9240,
      "god": 9241,
      "dep": 9242,
      "losen": 9243,
      "accession": 9244,
      "wahrscheinlich": 9245,
      "meaning": 9246,
      "plug": 9247,
      "lag": 9248,
      "boo": 9249,
      "mur": 9250,
      "berücksichtigt": 9251,
      "195": 9252,
      "beginnen": 9253,
      "indest": 9254,
      "iö": 9255,
      "conver": 9256,
      "leiden": 9257,
      "abschluss": 9258,
      "regelung": 9259,
      "sle": 9260,
      "authority": 9261,
      "swiss": 9262,
      "schaden": 9263,
      "ktiv": 9264,
      "implemented": 9265,
      "visitors": 9266,
      "ktions": 9267,
      "http": 9268,
      "doubt": 9269,
      "probably": 9270,
      "cs": 9271,
      "ierende": 9272,
      "improv": 9273,
      "uner": 9274,
      "endlich": 9275,
      "zep": 9276,
      "circum": 9277,
      "anything": 9278,
      "forest": 9279,
      "remember": 9280,
      "relating": 9281,
      "anderem": 9282,
      "estic": 9283,
      "john": 9284,
      "overall": 9285,
      "sym": 9286,
      "zustand": 9287,
      "1996": 9288,
      "selection": 9289,
      "processing": 9290,
      "kompon": 9291,
      "valid": 9292,
      "erd": 9293,
      "komplett": 9294,
      "ologie": 9295,
      "verurs": 9296,
      "angelegenheiten": 9297,
      "pens": 9298,
      "changed": 9299,
      "crucial": 9300,
      "begrüßen": 9301,
      "wien": 9302,
      "milliar": 9303,
      "jam": 9304,
      "zumindest": 9305,
      "schule": 9306,
      "abor": 9307,
      "menschenrechts": 9308,
      "nik": 9309,
      "core": 9310,
      "occup": 9311,
      "mart": 9312,
      "farmers": 9313,
      "wünsche": 9314,
      "bol": 9315,
      "meister": 9316,
      "positions": 9317,
      "cohesion": 9318,
      "lit": 9319,
      "jüng": 9320,
      "congratulate": 9321,
      "fisheries": 9322,
      "strategic": 9323,
      "geschrieben": 9324,
      "gewiesen": 9325,
      "erfahrungen": 9326,
      "mol": 9327,
      "ias": 9328,
      "instrumente": 9329,
      "anerken": 9330,
      "niveau": 9331,
      "critic": 9332,
      "versucht": 9333,
      "95": 9334,
      "essere": 9335,
      "reformen": 9336,
      "faktor": 9337,
      "interested": 9338,
      "alone": 9339,
      "spanien": 9340,
      "tests": 9341,
      "ökon": 9342,
      "aries": 9343,
      "intervention": 9344,
      "sterne": 9345,
      "vere": 9346,
      "season": 9347,
      "caused": 9348,
      "ischem": 9349,
      "effizient": 9350,
      "poten": 9351,
      "gesellschaften": 9352,
      "vereinbarung": 9353,
      "97": 9354,
      "cry": 9355,
      "eleg": 9356,
      "spect": 9357,
      "lou": 9358,
      "erhol": 9359,
      "rauch": 9360,
      "gir": 9361,
      "hervorragen": 9362,
      "opening": 9363,
      "anstreng": 9364,
      "usw": 9365,
      "üb": 9366,
      "kompeten": 9367,
      "historischen": 9368,
      "interpret": 9369,
      "schützen": 9370,
      "überhaupt": 9371,
      "vollständig": 9372,
      "homepage": 9373,
      "budgetary": 9374,
      "yer": 9375,
      "siehe": 9376,
      "rechtsvorschriften": 9377,
      "modernen": 9378,
      "solar": 9379,
      "nar": 9380,
      "stehenden": 9381,
      "motion": 9382,
      "urban": 9383,
      "kas": 9384,
      "gehend": 9385,
      "currency": 9386,
      "save": 9387,
      "pflicht": 9388,
      "honour": 9389,
      "candid": 9390,
      "sper": 9391,
      "wild": 9392,
      "fax": 9393,
      "außerhalb": 9394,
      "erfüllen": 9395,
      "zusätzlich": 9396,
      "frankfur": 9397,
      "kontext": 9398,
      "korre": 9399,
      "meld": 9400,
      "georg": 9401,
      "accordance": 9402,
      "catal": 9403,
      "max": 9404,
      "adv": 9405,
      "plätze": 9406,
      "letzte": 9407,
      "stabilität": 9408,
      "adopt": 9409,
      "fields": 9410,
      "menge": 9411,
      "medical": 9412,
      "disast": 9413,
      "hersteller": 9414,
      "nevertheless": 9415,
      "geschäft": 9416,
      "philosoph": 9417,
      "methods": 9418,
      "accoun": 9419,
      "calls": 9420,
      "paz": 9421,
      "chinese": 9422,
      "grunde": 9423,
      "incor": 9424,
      "eigent": 9425,
      "ties": 9426,
      "senden": 9427,
      "electronic": 9428,
      "aktual": 9429,
      "sach": 9430,
      "erklärt": 9431,
      "scale": 9432,
      "terrorismus": 9433,
      "sens": 9434,
      "flexible": 9435,
      "worte": 9436,
      "austausch": 9437,
      "einfluss": 9438,
      "alität": 9439,
      "zahlreichen": 9440,
      "datab": 9441,
      "businesses": 9442,
      "extent": 9443,
      "berichte": 9444,
      "ausbildung": 9445,
      "voice": 9446,
      "tip": 9447,
      "banks": 9448,
      "extens": 9449,
      "ständige": 9450,
      "aver": 9451,
      "ack": 9452,
      "websites": 9453,
      "währung": 9454,
      "getroffen": 9455,
      "argument": 9456,
      "beschreibung": 9457,
      "schwierigkeiten": 9458,
      "russian": 9459,
      "began": 9460,
      "mindes": 9461,
      "powers": 9462,
      "usually": 9463,
      "emission": 9464,
      "cel": 9465,
      "likely": 9466,
      "orial": 9467,
      "utive": 9468,
      "kritik": 9469,
      "ense": 9470,
      "berichterstatterin": 9471,
      "wähl": 9472,
      "sql": 9473,
      "roma": 9474,
      "losigkeit": 9475,
      "covered": 9476,
      "stets": 9477,
      "police": 9478,
      "mögen": 9479,
      "äre": 9480,
      "investig": 9481,
      "96": 9482,
      "vergangenheit": 9483,
      "negative": 9484,
      "astr": 9485,
      "zieren": 9486,
      "command": 9487,
      "nationale": 9488,
      "gebiete": 9489,
      "sl": 9490,
      "erinnern": 9491,
      "sectors": 9492,
      "kommissions": 9493,
      "zahlt": 9494,
      "serb": 9495,
      "behinder": 9496,
      "erwartet": 9497,
      "corporate": 9498,
      "verpflichtet": 9499,
      "nato": 9500,
      "jeweiligen": 9501,
      "seg": 9502,
      "feature": 9503,
      "versorgung": 9504,
      "tten": 9505,
      "tut": 9506,
      "lly": 9507,
      "representatives": 9508,
      "richtlinien": 9509,
      "44": 9510,
      "mc": 9511,
      "manufactur": 9512,
      "borders": 9513,
      "seines": 9514,
      "zusetzen": 9515,
      "sell": 9516,
      "extensive": 9517,
      "hood": 9518,
      "verpflichtungen": 9519,
      "fällt": 9520,
      "technologien": 9521,
      "accepted": 9522,
      "seven": 9523,
      "teilnehmer": 9524,
      "labor": 9525,
      "entgegen": 9526,
      "infrastruktur": 9527,
      "appreci": 9528,
      "defence": 9529,
      "tter": 9530,
      "jer": 9531,
      "ron": 9532,
      "separate": 9533,
      "absolutely": 9534,
      "amerikanischen": 9535,
      "deep": 9536,
      "persönlichen": 9537,
      "students": 9538,
      "nom": 9539,
      "messe": 9540,
      "altungen": 9541,
      "electric": 9542,
      "ieg": 9543,
      "angelegenheit": 9544,
      "llo": 9545,
      "surpr": 9546,
      "bessere": 9547,
      "descri": 9548,
      "trächt": 9549,
      "lier": 9550,
      "straf": 9551,
      "critical": 9552,
      "bib": 9553,
      "moral": 9554,
      "mitten": 9555,
      "tot": 9556,
      "herunter": 9557,
      "reag": 9558,
      "ausschließlich": 9559,
      "risiko": 9560,
      "strom": 9561,
      "finanziellen": 9562,
      "mini": 9563,
      "trave": 9564,
      "trying": 9565,
      "vorgehen": 9566,
      "delivery": 9567,
      "gekommen": 9568,
      "leaders": 9569,
      "chi": 9570,
      "planning": 9571,
      "genuine": 9572,
      "rise": 9573,
      "attle": 9574,
      "geräte": 9575,
      "ud": 9576,
      "anwendungen": 9577,
      "osten": 9578,
      "stät": 9579,
      "boten": 9580,
      "ireland": 9581,
      "käu": 9582,
      "cele": 9583,
      "erlaubt": 9584,
      "quant": 9585,
      "annahme": 9586,
      "portion": 9587,
      "running": 9588,
      "eingesch": 9589,
      "persönlich": 9590,
      "district": 9591,
      "gap": 9592,
      "erinner": 9593,
      "genug": 9594,
      "tab": 9595,
      "vielfalt": 9596,
      "weiten": 9597,
      "taste": 9598,
      "bitten": 9599,
      "volk": 9600,
      "provision": 9601,
      "influence": 9602,
      "cycl": 9603,
      "camp": 9604,
      "sauna": 9605,
      "beruf": 9606,
      "ez": 9607,
      "ray": 9608,
      "urgent": 9609,
      "crime": 9610,
      "raised": 9611,
      "laws": 9612,
      "bade": 9613,
      "barer": 9614,
      "izing": 9615,
      "shower": 9616,
      "nos": 9617,
      "herausforderungen": 9618,
      "erzeug": 9619,
      "brü": 9620,
      "39": 9621,
      "operate": 9622,
      "anteil": 9623,
      "salz": 9624,
      "fellow": 9625,
      "administrative": 9626,
      "abschließend": 9627,
      "konsequ": 9628,
      "reception": 9629,
      "mont": 9630,
      "ilen": 9631,
      "expected": 9632,
      "heutigen": 9633,
      "iling": 9634,
      "provin": 9635,
      "edition": 9636,
      "luxem": 9637,
      "idee": 9638,
      "parliamentary": 9639,
      "ehemal": 9640,
      "simpl": 9641,
      "privaten": 9642,
      "dlich": 9643,
      "ita": 9644,
      "reis": 9645,
      "dach": 9646,
      "entschließungs": 9647,
      "asia": 9648,
      "ona": 9649,
      "alli": 9650,
      "berühm": 9651,
      "scope": 9652,
      "grundsätz": 9653,
      "cze": 9654,
      "reichend": 9655,
      "hostels": 9656,
      "qualitäts": 9657,
      "christian": 9658,
      "falle": 9659,
      "schä": 9660,
      "worked": 9661,
      "demands": 9662,
      "regen": 9663,
      "führte": 9664,
      "namely": 9665,
      "diskrimin": 9666,
      "affected": 9667,
      "zukünft": 9668,
      "gor": 9669,
      "genehm": 9670,
      "suitable": 9671,
      "genutzt": 9672,
      "stone": 9673,
      "declar": 9674,
      "ministers": 9675,
      "verfassung": 9676,
      "involve": 9677,
      "heard": 9678,
      "evening": 9679,
      "beziehung": 9680,
      "intended": 9681,
      "caus": 9682,
      "willkommen": 9683,
      "mitteilung": 9684,
      "zahlung": 9685,
      "automatisch": 9686,
      "64": 9687,
      "getragen": 9688,
      "tie": 9689,
      "amerika": 9690,
      "comments": 9691,
      "hinsicht": 9692,
      "iker": 9693,
      "hing": 9694,
      "initiatives": 9695,
      "erns": 9696,
      "attack": 9697,
      "ros": 9698,
      "übernehmen": 9699,
      "wrong": 9700,
      "goal": 9701,
      "founded": 9702,
      "entry": 9703,
      "zerstör": 9704,
      "bom": 9705,
      "beitritts": 9706,
      "award": 9707,
      "fly": 9708,
      "bequ": 9709,
      "inhalte": 9710,
      "filter": 9711,
      "yourself": 9712,
      "kirche": 9713,
      "families": 9714,
      "solidarität": 9715,
      "viertel": 9716,
      "hem": 9717,
      "libr": 9718,
      "forced": 9719,
      "wesentlichen": 9720,
      "improved": 9721,
      "selben": 9722,
      "laut": 9723,
      "costa": 9724,
      "bruch": 9725,
      "arbeitsplätze": 9726,
      "circumst": 9727,
      "ruption": 9728,
      "zusätzliche": 9729,
      "talking": 9730,
      "spiele": 9731,
      "schem": 9732,
      "ferner": 9733,
      "slow": 9734,
      "subs": 9735,
      "terrasse": 9736,
      "frag": 9737,
      "kaum": 9738,
      "organization": 9739,
      "anda": 9740,
      "chtet": 9741,
      "ifik": 9742,
      "speziell": 9743,
      "inge": 9744,
      "cards": 9745,
      "besucher": 9746,
      "ökonom": 9747,
      "technische": 9748,
      "erleben": 9749,
      "init": 9750,
      "advanced": 9751,
      "dead": 9752,
      "coffe": 9753,
      "kts": 9754,
      "gain": 9755,
      "mainly": 9756,
      "aktuelle": 9757,
      "speaking": 9758,
      "gleiche": 9759,
      "ids": 9760,
      "lebt": 9761,
      "effizienz": 9762,
      "fing": 9763,
      "ighted": 9764,
      "entschieden": 9765,
      "vorteile": 9766,
      "automatically": 9767,
      "afghanistan": 9768,
      "celebr": 9769,
      "verur": 9770,
      "pin": 9771,
      "expressed": 9772,
      "danach": 9773,
      "respekt": 9774,
      "elegant": 9775,
      "criminal": 9776,
      "milliarden": 9777,
      "benutzen": 9778,
      "furn": 9779,
      "weich": 9780,
      "altet": 9781,
      "55": 9782,
      "sitting": 9783,
      "preser": 9784,
      "verständnis": 9785,
      "sensit": 9786,
      "proceed": 9787,
      "wil": 9788,
      "ams": 9789,
      "committed": 9790,
      "confidence": 9791,
      "1990": 9792,
      "08": 9793,
      "kund": 9794,
      "approved": 9795,
      "sagt": 9796,
      "vorsitzen": 9797,
      "anpass": 9798,
      "motiv": 9799,
      "stated": 9800,
      "picture": 9801,
      "netzwerk": 9802,
      "infrastructure": 9803,
      "anstrengungen": 9804,
      "zeitraum": 9805,
      "sehens": 9806,
      "tauch": 9807,
      "beha": 9808,
      "fif": 9809,
      "darstellt": 9810,
      "besonderen": 9811,
      "sorg": 9812,
      "specifically": 9813,
      "marks": 9814,
      "viet": 9815,
      "friedens": 9816,
      "bourg": 9817,
      "gig": 9818,
      "größere": 9819,
      "engagement": 9820,
      "inspe": 9821,
      "store": 9822,
      "olymp": 9823,
      "möglicherweise": 9824,
      "igungen": 9825,
      "lio": 9826,
      "mitte": 9827,
      "methoden": 9828,
      "haupts": 9829,
      "legitim": 9830,
      "trip": 9831,
      "rau": 9832,
      "inside": 9833,
      "eindeutig": 9834,
      "bridge": 9835,
      "ws": 9836,
      "entertain": 9837,
      "tech": 9838,
      "fördert": 9839,
      "mio": 9840,
      "breite": 9841,
      "understanding": 9842,
      "pfe": 9843,
      "unemployment": 9844,
      "structures": 9845,
      "protected": 9846,
      "storage": 9847,
      "refu": 9848,
      "habit": 9849,
      "competitive": 9850,
      "dringend": 9851,
      "verwaltungs": 9852,
      "ador": 9853,
      "ette": 9854,
      "respond": 9855,
      "camera": 9856,
      "titel": 9857,
      "getting": 9858,
      "mindestens": 9859,
      "schuld": 9860,
      "ruhe": 9861,
      "participation": 9862,
      "increasingly": 9863,
      "grenze": 9864,
      "landschaft": 9865,
      "bemerk": 9866,
      "reforms": 9867,
      "promotion": 9868,
      "kompromiss": 9869,
      "transparent": 9870,
      "bequem": 9871,
      "leav": 9872,
      "nahr": 9873,
      "sources": 9874,
      "sul": 9875,
      "whom": 9876,
      "reduced": 9877,
      "kept": 9878,
      "competen": 9879,
      "eingehen": 9880,
      "grad": 9881,
      "wea": 9882,
      "einkauf": 9883,
      "häl": 9884,
      "hinweisen": 9885,
      "benutzt": 9886,
      "zustimmung": 9887,
      "begriff": 9888,
      "functions": 9889,
      "circumstances": 9890,
      "autor": 9891,
      "supports": 9892,
      "lobby": 9893,
      "finde": 9894,
      "conclusion": 9895,
      "finn": 9896,
      "powerful": 9897,
      "unbedingt": 9898,
      "anerkennung": 9899,
      "expand": 9900,
      "convenient": 9901,
      "networks": 9902,
      "visual": 9903,
      "blin": 9904,
      "attempt": 9905,
      "rome": 9906,
      "umin": 9907,
      "paragraph": 9908,
      "restr": 9909,
      "assessment": 9910,
      "respective": 9911,
      "resist": 9912,
      "wing": 9913,
      "houses": 9914,
      "kul": 9915,
      "relative": 9916,
      "erleich": 9917,
      "gestellten": 9918,
      "dos": 9919,
      "ensuring": 9920,
      "pdf": 9921,
      "dritten": 9922,
      "entspricht": 9923,
      "führten": 9924,
      "ielle": 9925,
      "programs": 9926,
      "studie": 9927,
      "pleasant": 9928,
      "magaz": 9929,
      "balan": 9930,
      "beschlossen": 9931,
      "managed": 9932,
      "galler": 9933,
      "paralle": 9934,
      "popul": 9935,
      "barr": 9936,
      "ivers": 9937,
      "route": 9938,
      "genannt": 9939,
      "spring": 9940,
      "opened": 9941,
      "finance": 9942,
      "durchführung": 9943,
      "beiträ": 9944,
      "fanta": 9945,
      "beds": 9946,
      "hner": 9947,
      "verfügbar": 9948,
      "weist": 9949,
      "label": 9950,
      "presse": 9951,
      "nissen": 9952,
      "detailed": 9953,
      "album": 9954,
      "foll": 9955,
      "dram": 9956,
      "versuch": 9957,
      "dé": 9958,
      "plants": 9959,
      "hardware": 9960,
      "immigration": 9961,
      "director": 9962,
      "defined": 9963,
      "1995": 9964,
      "folger": 9965,
      "wonderful": 9966,
      "izes": 9967,
      "castle": 9968,
      "willing": 9969,
      "stände": 9970,
      "priorities": 9971,
      "victims": 9972,
      "hochwert": 9973,
      "animals": 9974,
      "czech": 9975,
      "quellen": 9976,
      "snow": 9977,
      "räume": 9978,
      "gegrün": 9979,
      "estate": 9980,
      "monat": 9981,
      "2020": 9982,
      "spacious": 9983,
      "ibr": 9984,
      "schreiten": 9985,
      "überzeugt": 9986,
      "sobald": 9987,
      "austral": 9988,
      "initiativen": 9989,
      "beauty": 9990,
      "glas": 9991,
      "hoffen": 9992,
      "stärken": 9993,
      "satisf": 9994,
      "schau": 9995,
      "andererseits": 9996,
      "says": 9997,
      "contribute": 9998,
      "palestin": 9999,
      "guidelines": 10000,
      "tert": 10001,
      "farben": 10002,
      "schlaf": 10003,
      "gemüt": 10004,
      "played": 10005,
      "introduced": 10006,
      "niemand": 10007,
      "trend": 10008,
      "frankfurt": 10009,
      "gefühl": 10010,
      "index": 10011,
      "transform": 10012,
      "monate": 10013,
      "therap": 10014,
      "berücksichtigen": 10015,
      "belar": 10016,
      "learning": 10017,
      "65": 10018,
      "translation": 10019,
      "marken": 10020,
      "luxur": 10021,
      "klang": 10022,
      "exhibition": 10023,
      "hintergrund": 10024,
      "cers": 10025,
      "flash": 10026,
      "zin": 10027,
      "vorgelegt": 10028,
      "india": 10029,
      "lieben": 10030,
      "hauses": 10031,
      "serie": 10032,
      "introduction": 10033,
      "navig": 10034,
      "manner": 10035,
      "09": 10036,
      "zig": 10037,
[...]
